{
  "version": "1.0",
  "truncation": null,
  "padding": null,
  "added_tokens": [
    {
      "id": 0,
      "content": "[PAD]",
      "single_word": false,
      "lstrip": false,
      "rstrip": false,
      "normalized": false,
      "special": true
    },
    {
      "id": 1,
      "content": "[SOS]",
      "single_word": false,
      "lstrip": false,
      "rstrip": false,
      "normalized": false,
      "special": true
    },
    {
      "id": 2,
      "content": "[EOS]",
      "single_word": false,
      "lstrip": false,
      "rstrip": false,
      "normalized": false,
      "special": true
    }
  ],
  "normalizer": {
    "type": "Lowercase"
  },
  "pre_tokenizer": {
    "type": "WhitespaceSplit"
  },
  "post_processor": {
    "type": "TemplateProcessing",
    "single": [
      {
        "SpecialToken": {
          "id": "[SOS]",
          "type_id": 0
        }
      },
      {
        "Sequence": {
          "id": "A",
          "type_id": 0
        }
      },
      {
        "SpecialToken": {
          "id": "[EOS]",
          "type_id": 0
        }
      }
    ],
    "pair": [
      {
        "Sequence": {
          "id": "A",
          "type_id": 0
        }
      },
      {
        "Sequence": {
          "id": "B",
          "type_id": 1
        }
      }
    ],
    "special_tokens": {
      "[EOS]": {
        "id": "[EOS]",
        "ids": [
          1
        ],
        "tokens": [
          "[EOS]"
        ]
      },
      "[SOS]": {
        "id": "[SOS]",
        "ids": [
          0
        ],
        "tokens": [
          "[SOS]"
        ]
      }
    }
  },
  "decoder": null,
  "model": {
    "type": "BPE",
    "dropout": null,
    "unk_token": null,
    "continuing_subword_prefix": null,
    "end_of_word_suffix": null,
    "fuse_unk": false,
    "vocab": {
      "[PAD]": 0,
      "[SOS]": 1,
      "[EOS]": 2,
      "!": 3,
      "#": 4,
      "$": 5,
      "%": 6,
      "&": 7,
      "(": 8,
      ")": 9,
      "+": 10,
      ",": 11,
      "-": 12,
      ".": 13,
      "/": 14,
      "0": 15,
      "1": 16,
      "2": 17,
      "3": 18,
      "4": 19,
      "5": 20,
      "6": 21,
      "7": 22,
      "8": 23,
      "9": 24,
      ":": 25,
      ";": 26,
      "=": 27,
      "?": 28,
      "\\": 29,
      "a": 30,
      "b": 31,
      "c": 32,
      "d": 33,
      "e": 34,
      "f": 35,
      "g": 36,
      "h": 37,
      "i": 38,
      "j": 39,
      "k": 40,
      "l": 41,
      "m": 42,
      "n": 43,
      "o": 44,
      "p": 45,
      "q": 46,
      "r": 47,
      "s": 48,
      "t": 49,
      "u": 50,
      "v": 51,
      "w": 52,
      "x": 53,
      "y": 54,
      "z": 55,
      "{": 56,
      "}": 57,
      "~": 58,
      "": 59,
      "": 60,
      "": 61,
      "": 62,
      "£": 63,
      "¤": 64,
      "§": 65,
      "©": 66,
      "«": 67,
      "­": 68,
      "®": 69,
      "°": 70,
      "²": 71,
      "³": 72,
      "´": 73,
      "¶": 74,
      "·": 75,
      "º": 76,
      "»": 77,
      "¼": 78,
      "½": 79,
      "¿": 80,
      "ß": 81,
      "à": 82,
      "á": 83,
      "â": 84,
      "ã": 85,
      "ä": 86,
      "å": 87,
      "æ": 88,
      "ç": 89,
      "è": 90,
      "é": 91,
      "ê": 92,
      "ë": 93,
      "ì": 94,
      "í": 95,
      "î": 96,
      "ï": 97,
      "ð": 98,
      "ñ": 99,
      "ò": 100,
      "ó": 101,
      "ô": 102,
      "õ": 103,
      "ö": 104,
      "ø": 105,
      "ù": 106,
      "ú": 107,
      "û": 108,
      "ü": 109,
      "ý": 110,
      "ā": 111,
      "ă": 112,
      "ą": 113,
      "ć": 114,
      "č": 115,
      "ę": 116,
      "ě": 117,
      "ğ": 118,
      "ı": 119,
      "ł": 120,
      "ń": 121,
      "ň": 122,
      "ő": 123,
      "ř": 124,
      "ś": 125,
      "ş": 126,
      "š": 127,
      "ż": 128,
      "ž": 129,
      "α": 130,
      "β": 131,
      "ε": 132,
      "ι": 133,
      "λ": 134,
      "μ": 135,
      "ν": 136,
      "ο": 137,
      "π": 138,
      "ρ": 139,
      "σ": 140,
      "τ": 141,
      "а": 142,
      "б": 143,
      "в": 144,
      "г": 145,
      "д": 146,
      "е": 147,
      "ж": 148,
      "з": 149,
      "и": 150,
      "й": 151,
      "к": 152,
      "л": 153,
      "м": 154,
      "н": 155,
      "о": 156,
      "п": 157,
      "р": 158,
      "с": 159,
      "т": 160,
      "у": 161,
      "ф": 162,
      "х": 163,
      "ц": 164,
      "ч": 165,
      "ш": 166,
      "щ": 167,
      "ы": 168,
      "ь": 169,
      "ю": 170,
      "я": 171,
      "і": 172,
      "ј": 173,
      "ا": 174,
      "ل": 175,
      "–": 176,
      "—": 177,
      "‘": 178,
      "’": 179,
      "‚": 180,
      "“": 181,
      "”": 182,
      "„": 183,
      "†": 184,
      "•": 185,
      "…": 186,
      "€": 187,
      "™": 188,
      "�": 189,
      "en": 190,
      "er": 191,
      "ch": 192,
      "in": 193,
      "un": 194,
      "ie": 195,
      "st": 196,
      "ei": 197,
      "der": 198,
      "an": 199,
      "die": 200,
      "at": 201,
      "ge": 202,
      "ich": 203,
      "ein": 204,
      "sch": 205,
      "on": 206,
      "au": 207,
      "##": 208,
      "und": 209,
      "es": 210,
      "ung": 211,
      "al": 212,
      "den": 213,
      "it": 214,
      "ar": 215,
      "te": 216,
      "or": 217,
      "zu": 218,
      "as": 219,
      "de": 220,
      "be": 221,
      "ten": 222,
      "gen": 223,
      "ver": 224,
      "re": 225,
      "se": 226,
      "wi": 227,
      "ur": 228,
      "at##": 229,
      "##at##": 230,
      "ll": 231,
      "ber": 232,
      "hr": 233,
      "ter": 234,
      "ti": 235,
      "das": 236,
      "lich": 237,
      "men": 238,
      "fü": 239,
      "le": 240,
      "mit": 241,
      "wir": 242,
      "pr": 243,
      "auf": 244,
      "eit": 245,
      "im": 246,
      "ist": 247,
      "eine": 248,
      "ion": 249,
      "is": 250,
      "isch": 251,
      "von": 252,
      "aus": 253,
      "om": 254,
      "ab": 255,
      "ra": 256,
      "ste": 257,
      "icht": 258,
      "ier": 259,
      "für": 260,
      "ne": 261,
      "so": 262,
      "ach": 263,
      "sie": 264,
      "tz": 265,
      "um": 266,
      "am": 267,
      "des": 268,
      "sen": 269,
      "wer": 270,
      "-##at##": 271,
      "##at##-##at##": 272,
      "ent": 273,
      "gr": 274,
      "ser": 275,
      "ck": 276,
      "ol": 277,
      "ig": 278,
      "sp": 279,
      "vor": 280,
      "sich": 281,
      "dem": 282,
      "el": 283,
      "ft": 284,
      "op": 285,
      "ungen": 286,
      "über": 287,
      "nen": 288,
      "wei": 289,
      "da": 290,
      "ben": 291,
      "eich": 292,
      "la": 293,
      "and": 294,
      "her": 295,
      "nicht": 296,
      "än": 297,
      "ot": 298,
      "us": 299,
      "me": 300,
      "bei": 301,
      "ind": 302,
      "kom": 303,
      "auch": 304,
      "il": 305,
      "ff": 306,
      "pro": 307,
      "werden": 308,
      "tr": 309,
      "wie": 310,
      "he": 311,
      "ation": 312,
      "ischen": 313,
      "kt": 314,
      "dass": 315,
      "for": 316,
      "qu": 317,
      "unter": 318,
      "ger": 319,
      "lie": 320,
      "eur": 321,
      "ann": 322,
      "all": 323,
      "wen": 324,
      "ah": 325,
      "ien": 326,
      "fr": 327,
      "hal": 328,
      "scha": 329,
      "gt": 330,
      "ho": 331,
      "ungs": 332,
      "europ": 333,
      "hen": 334,
      "ahr": 335,
      "als": 336,
      "ik": 337,
      "einer": 338,
      "os": 339,
      "sind": 340,
      "diese": 341,
      "je": 342,
      "stell": 343,
      "sten": 344,
      "nach": 345,
      "wird": 346,
      "we": 347,
      "einen": 348,
      "aben": 349,
      "ih": 350,
      "iel": 351,
      "oll": 352,
      "oder": 353,
      "och": 354,
      "br": 355,
      "rech": 356,
      "ön": 357,
      "kon": 358,
      "imm": 359,
      "ür": 360,
      "hat": 361,
      "ut": 362,
      "ma": 363,
      "ische": 364,
      "mö": 365,
      "kti": 366,
      "war": 367,
      "str": 368,
      "zur": 369,
      "tel": 370,
      "00": 371,
      "ts": 372,
      "par": 373,
      "sta": 374,
      "di": 375,
      "ern": 376,
      "schaft": 377,
      "haben": 378,
      "schen": 379,
      "sam": 380,
      "unser": 381,
      "kl": 382,
      "tei": 383,
      "dur": 384,
      "fe": 385,
      "quot": 386,
      "&quot": 387,
      "&quot;": 388,
      "dr": 389,
      "durch": 390,
      "kön": 391,
      "europä": 392,
      "tig": 393,
      "gan": 394,
      "lichen": 395,
      "komm": 396,
      "bes": 397,
      "gl": 398,
      "dar": 399,
      "iss": 400,
      "wä": 401,
      "iv": 402,
      "geb": 403,
      "ul": 404,
      "kr": 405,
      "oh": 406,
      "fin": 407,
      "ze": 408,
      "tet": 409,
      "tra": 410,
      "hin": 411,
      "aten": 412,
      "ta": 413,
      "gel": 414,
      "uch": 415,
      "ing": 416,
      "gem": 417,
      "ihr": 418,
      "ir": 419,
      "heit": 420,
      "dies": 421,
      "ander": 422,
      "beit": 423,
      "keit": 424,
      "kann": 425,
      "uss": 426,
      "ken": 427,
      "wur": 428,
      "einem": 429,
      "ort": 430,
      "ssen": 431,
      "si": 432,
      "was": 433,
      "man": 434,
      "herr": 435,
      "prä": 436,
      "teil": 437,
      "schl": 438,
      "bar": 439,
      "liche": 440,
      "setz": 441,
      "können": 442,
      "wel": 443,
      "lan": 444,
      "ün": 445,
      "hmen": 446,
      "änder": 447,
      "lei": 448,
      "zum": 449,
      "wenn": 450,
      "ap": 451,
      "itä": 452,
      "inter": 453,
      "du": 454,
      "schr": 455,
      "sa": 456,
      "ht": 457,
      "führ": 458,
      "kommiss": 459,
      "ment": 460,
      "eiten": 461,
      "fra": 462,
      "per": 463,
      "ieren": 464,
      "ör": 465,
      "fen": 466,
      "neu": 467,
      "alle": 468,
      "ob": 469,
      "et": 470,
      "ha": 471,
      "ihre": 472,
      "li": 473,
      "son": 474,
      "nur": 475,
      "glich": 476,
      "ück": 477,
      "iert": 478,
      "uns": 479,
      "arbeit": 480,
      "sel": 481,
      "em": 482,
      "dieser": 483,
      "mehr": 484,
      "..": 485,
      "fol": 486,
      "är": 487,
      "zi": 488,
      "ktion": 489,
      "utz": 490,
      "form": 491,
      "ges": 492,
      "olit": 493,
      "jahr": 494,
      "zeit": 495,
      "mü": 496,
      "ffen": 497,
      "gegen": 498,
      "soll": 499,
      "weiter": 500,
      "aber": 501,
      "noch": 502,
      "europäischen": 503,
      "ahl": 504,
      "lin": 505,
      "the": 506,
      "igen": 507,
      "fl": 508,
      "dent": 509,
      "präsi": 510,
      "ke": 511,
      "fahr": 512,
      "pf": 513,
      "reg": 514,
      "kommission": 515,
      "han": 516,
      "gesch": 517,
      "bt": 518,
      "nis": 519,
      "zie": 520,
      "to": 521,
      "mar": 522,
      "hl": 523,
      "ßen": 524,
      "daß": 525,
      "ner": 526,
      "ierung": 527,
      "sein": 528,
      "immer": 529,
      "del": 530,
      "fer": 531,
      "og": 532,
      "ic": 533,
      "ell": 534,
      "zen": 535,
      "land": 536,
      "sicher": 537,
      "hotel": 538,
      "dig": 539,
      "präsident": 540,
      "grund": 541,
      "200": 542,
      "wurde": 543,
      "alen": 544,
      "gi": 545,
      "reich": 546,
      "glie": 547,
      "welt": 548,
      "kommen": 549,
      "sehr": 550,
      "polit": 551,
      "wick": 552,
      "ess": 553,
      "spr": 554,
      "stat": 555,
      "dern": 556,
      "mitglie": 557,
      "rat": 558,
      "tigen": 559,
      "ant": 560,
      "bis": 561,
      "möglich": 562,
      "möch": 563,
      "mer": 564,
      "end": 565,
      "che": 566,
      "ug": 567,
      "nah": 568,
      "parla": 569,
      "nehmen": 570,
      "müssen": 571,
      "halten": 572,
      "ord": 573,
      "hier": 574,
      "hä": 575,
      "gro": 576,
      "assen": 577,
      "sy": 578,
      "olle": 579,
      "ütz": 580,
      "tier": 581,
      "entwick": 582,
      "pl": 583,
      "nation": 584,
      "det": 585,
      "ität": 586,
      "min": 587,
      "ko": 588,
      "ige": 589,
      "ale": 590,
      "stimm": 591,
      "mittel": 592,
      "gemein": 593,
      "tre": 594,
      "anz": 595,
      "gew": 596,
      "spiel": 597,
      "eines": 598,
      "ster": 599,
      "eigen": 600,
      "union": 601,
      "fä": 602,
      "sit": 603,
      "fall": 604,
      "ute": 605,
      "woh": 606,
      "wirt": 607,
      "zusam": 608,
      "zwei": 609,
      "zusammen": 610,
      "diesem": 611,
      "bil": 612,
      "gra": 613,
      "gleich": 614,
      "viel": 615,
      "doch": 616,
      "lo": 617,
      "staaten": 618,
      "ßer": 619,
      "kte": 620,
      "atz": 621,
      "stand": 622,
      "pe": 623,
      "wirtschaft": 624,
      "mal": 625,
      "dieses": 626,
      "schie": 627,
      "tung": 628,
      "tion": 629,
      "geben": 630,
      "&#": 631,
      "unden": 632,
      "deut": 633,
      "mitglied": 634,
      "trag": 635,
      "ange": 636,
      "ill": 637,
      "stellen": 638,
      "mo": 639,
      "wor": 640,
      "produ": 641,
      "ex": 642,
      "nung": 643,
      "dung": 644,
      "ate": 645,
      "19": 646,
      "äch": 647,
      "schlie": 648,
      "ihnen": 649,
      "möchte": 650,
      "ass": 651,
      "wich": 652,
      "stän": 653,
      "bie": 654,
      "bereich": 655,
      "dien": 656,
      "fre": 657,
      "net": 658,
      "unsere": 659,
      "lung": 660,
      "bereit": 661,
      "vers": 662,
      "währ": 663,
      "ak": 664,
      "eu": 665,
      "mach": 666,
      "weise": 667,
      "vom": 668,
      "äu": 669,
      "bericht": 670,
      "lage": 671,
      "stütz": 672,
      "länder": 673,
      "forder": 674,
      "wischen": 675,
      "onder": 676,
      "stehen": 677,
      "zwischen": 678,
      "ationen": 679,
      "ble": 680,
      "handel": 681,
      "richt": 682,
      "gibt": 683,
      "besonder": 684,
      "ank": 685,
      "up": 686,
      "frau": 687,
      "syste": 688,
      "halb": 689,
      "tige": 690,
      "haus": 691,
      "vie": 692,
      "verb": 693,
      "zahl": 694,
      "legen": 695,
      "menschen": 696,
      "unterstütz": 697,
      "na": 698,
      "öff": 699,
      "leben": 700,
      "iz": 701,
      "arbei": 702,
      "&#9": 703,
      "ausge": 704,
      "sowie": 705,
      "betr": 706,
      "ve": 707,
      "llen": 708,
      "sicht": 709,
      "ad": 710,
      "hör": 711,
      "aut": 712,
      "sehen": 713,
      "chen": 714,
      "ätz": 715,
      "inform": 716,
      "gar": 717,
      "stellt": 718,
      "nat": 719,
      "sei": 720,
      "entr": 721,
      "ition": 722,
      "parlament": 723,
      "ins": 724,
      "ga": 725,
      "wirk": 726,
      "voll": 727,
      "if": 728,
      "mus": 729,
      "europäische": 730,
      "pun": 731,
      "proble": 732,
      "ok": 733,
      "gram": 734,
      "lu": 735,
      "wieder": 736,
      "denen": 737,
      "maß": 738,
      "bür": 739,
      "ischer": 740,
      "ro": 741,
      "wür": 742,
      "co": 743,
      "enz": 744,
      "muss": 745,
      "frei": 746,
      "innen": 747,
      "recht": 748,
      "hand": 749,
      "ihrer": 750,
      "pa": 751,
      "bst": 752,
      "fach": 753,
      "keine": 754,
      "fest": 755,
      "damit": 756,
      "mon": 757,
      "program": 758,
      "finden": 759,
      "wo": 760,
      "schla": 761,
      "eben": 762,
      "wort": 763,
      "dann": 764,
      "rei": 765,
      "hö": 766,
      "ce": 767,
      "uß": 768,
      "hn": 769,
      "frage": 770,
      "bed": 771,
      "stru": 772,
      "europa": 773,
      "no": 774,
      "wohl": 775,
      "fa": 776,
      "mitgliedstaaten": 777,
      "letz": 778,
      "itt": 779,
      "spe": 780,
      "ziel": 781,
      "bo": 782,
      "chn": 783,
      "zeich": 784,
      "ive": 785,
      "anderen": 786,
      "hei": 787,
      "com": 788,
      "gung": 789,
      "...": 790,
      "verfü": 791,
      "schei": 792,
      "apos": 793,
      "bau": 794,
      "ang": 795,
      "&apos": 796,
      "&apos;": 797,
      "20": 798,
      "besser": 799,
      "fern": 800,
      "sprech": 801,
      "ingen": 802,
      "steht": 803,
      "unternehmen": 804,
      "zei": 805,
      "po": 806,
      "ende": 807,
      "star": 808,
      "groß": 809,
      "keiten": 810,
      "gesetz": 811,
      "pt": 812,
      "lle": 813,
      "brauch": 814,
      "dt": 815,
      "alt": 816,
      "ös": 817,
      "hil": 818,
      "hau": 819,
      "wa": 820,
      "ler": 821,
      "zentr": 822,
      "seit": 823,
      "daten": 824,
      "diesen": 825,
      "fort": 826,
      "gehen": 827,
      "selbst": 828,
      "fahren": 829,
      "satz": 830,
      "gie": 831,
      "schließ": 832,
      "system": 833,
      "akti": 834,
      "zimmer": 835,
      "ache": 836,
      "cken": 837,
      "bürger": 838,
      "nahmen": 839,
      "ffe": 840,
      "neue": 841,
      "äm": 842,
      "markt": 843,
      "gang": 844,
      "iger": 845,
      "techn": 846,
      "politik": 847,
      "heute": 848,
      "wissen": 849,
      "sche": 850,
      "wurden": 851,
      "igkeit": 852,
      "kur": 853,
      "cht": 854,
      "tt": 855,
      "seine": 856,
      "ihren": 857,
      "internation": 858,
      "sicherheit": 859,
      "rich": 860,
      "inst": 861,
      "unserer": 862,
      "sol": 863,
      "sozi": 864,
      "aum": 865,
      "lassen": 866,
      "kun": 867,
      "10": 868,
      "verein": 869,
      "itte": 870,
      "habe": 871,
      "bl": 872,
      "art": 873,
      "jedoch": 874,
      "stellung": 875,
      "stadt": 876,
      "ionen": 877,
      "öffent": 878,
      "ru": 879,
      "ia": 880,
      "offen": 881,
      "bewer": 882,
      "ker": 883,
      "hän": 884,
      "abge": 885,
      "mich": 886,
      "rechts": 887,
      "ven": 888,
      "olog": 889,
      "sondern": 890,
      "under": 891,
      "aller": 892,
      "ag": 893,
      "stra": 894,
      "res": 895,
      "ats": 896,
      "ganz": 897,
      "grö": 898,
      "kolle": 899,
      "weit": 900,
      "ommen": 901,
      "lt": 902,
      "ard": 903,
      "leist": 904,
      "punkt": 905,
      "bin": 906,
      "alis": 907,
      "folgen": 908,
      "ohne": 909,
      "bli": 910,
      "weil": 911,
      "halt": 912,
      "aussch": 913,
      "sor": 914,
      "ments": 915,
      "nutz": 916,
      "wach": 917,
      "äf": 918,
      "ult": 919,
      "äge": 920,
      "person": 921,
      "entwicklung": 922,
      "prei": 923,
      "schutz": 924,
      "ide": 925,
      "uck": 926,
      "bereits": 927,
      "sollte": 928,
      "pen": 929,
      "mat": 930,
      "dis": 931,
      "uten": 932,
      "entschei": 933,
      "not": 934,
      "kehr": 935,
      "su": 936,
      "uer": 937,
      "licher": 938,
      "tern": 939,
      "ph": 940,
      "begr": 941,
      "führen": 942,
      "zug": 943,
      "maßnahmen": 944,
      "dazu": 945,
      "part": 946,
      "viele": 947,
      "verschie": 948,
      "con": 949,
      "jetz": 950,
      "dan": 951,
      "fun": 952,
      "inn": 953,
      "schlag": 954,
      "wichtig": 955,
      "erreich": 956,
      "andere": 957,
      "neuen": 958,
      "kre": 959,
      "gesam": 960,
      "programm": 961,
      "gut": 962,
      "einz": 963,
      "sollten": 964,
      "tran": 965,
      "führt": 966,
      "jahren": 967,
      "denn": 968,
      "essen": 969,
      "fragen": 970,
      "nisse": 971,
      "weg": 972,
      "antwort": 973,
      "kosten": 974,
      "nie": 975,
      "allen": 976,
      "okr": 977,
      "liegt": 978,
      "ja": 979,
      "such": 980,
      "bestimm": 981,
      "erst": 982,
      "woll": 983,
      "druck": 984,
      "qual": 985,
      "fehl": 986,
      "ften": 987,
      "machen": 988,
      "außer": 989,
      "jetzt": 990,
      "pos": 991,
      "organ": 992,
      "einige": 993,
      "tag": 994,
      "bel": 995,
      "regel": 996,
      "of": 997,
      "ierte": 998,
      "rahmen": 999,
      "esse": 1000,
      "rechte": 1001,
      "finanz": 1002,
      "bietet": 1003,
      "besch": 1004,
      "mei": 1005,
      "inner": 1006,
      "stär": 1007,
      "kam": 1008,
      "hält": 1009,
      "do": 1010,
      "12": 1011,
      "ener": 1012,
      "einfach": 1013,
      "verwen": 1014,
      "kar": 1015,
      "berich": 1016,
      "meine": 1017,
      "ele": 1018,
      "sto": 1019,
      "ossen": 1020,
      "setzen": 1021,
      "web": 1022,
      "ations": 1023,
      "nun": 1024,
      "ungsan": 1025,
      "serv": 1026,
      "geht": 1027,
      "besondere": 1028,
      "erfol": 1029,
      "genommen": 1030,
      "während": 1031,
      "ktur": 1032,
      "lä": 1033,
      "lau": 1034,
      "hol": 1035,
      "mein": 1036,
      "dire": 1037,
      "wahl": 1038,
      "tigt": 1039,
      "öl": 1040,
      "schon": 1041,
      "ca": 1042,
      "findet": 1043,
      "falls": 1044,
      "sagen": 1045,
      "ice": 1046,
      "ländern": 1047,
      "kten": 1048,
      "wes": 1049,
      "funktion": 1050,
      "io": 1051,
      "informationen": 1052,
      "ierten": 1053,
      "ba": 1054,
      "acht": 1055,
      "ellen": 1056,
      "proje": 1057,
      "dafür": 1058,
      "proz": 1059,
      "ahre": 1060,
      "för": 1061,
      "darauf": 1062,
      "lös": 1063,
      "leg": 1064,
      "pu": 1065,
      "lagen": 1066,
      "sätz": 1067,
      "okrat": 1068,
      "beispiel": 1069,
      "ktor": 1070,
      "sell": 1071,
      "kün": 1072,
      "fel": 1073,
      "komp": 1074,
      "kin": 1075,
      "könn": 1076,
      "seiner": 1077,
      "gebie": 1078,
      "stu": 1079,
      "blick": 1080,
      "ution": 1081,
      "sk": 1082,
      "3;": 1083,
      "&#93;": 1084,
      "klär": 1085,
      "grün": 1086,
      "1;": 1087,
      "&#91;": 1088,
      "sprechen": 1089,
      "raum": 1090,
      "wert": 1091,
      "linie": 1092,
      "mir": 1093,
      "einge": 1094,
      "ersten": 1095,
      "beg": 1096,
      "will": 1097,
      "jahre": 1098,
      "bs": 1099,
      "waren": 1100,
      "daher": 1101,
      "seite": 1102,
      "lang": 1103,
      "zeu": 1104,
      "grup": 1105,
      "ds": 1106,
      "tik": 1107,
      "zun": 1108,
      "zurück": 1109,
      "natür": 1110,
      "tex": 1111,
      "gesell": 1112,
      "kunden": 1113,
      "kauf": 1114,
      "ks": 1115,
      "hm": 1116,
      "ech": 1117,
      "zw": 1118,
      "stau": 1119,
      "kunft": 1120,
      "dat": 1121,
      "stim": 1122,
      "dab": 1123,
      "frü": 1124,
      "ativ": 1125,
      "dienst": 1126,
      "arbeiten": 1127,
      "problem": 1128,
      "äß": 1129,
      "ogen": 1130,
      "liegen": 1131,
      "statt": 1132,
      "kommissar": 1133,
      "dabei": 1134,
      "vorschlag": 1135,
      "nahme": 1136,
      "klar": 1137,
      "schlossen": 1138,
      "region": 1139,
      "schne": 1140,
      "gemeinschaft": 1141,
      "angeb": 1142,
      "hoch": 1143,
      "würde": 1144,
      "bezie": 1145,
      "herrn": 1146,
      "zer": 1147,
      "staat": 1148,
      "prü": 1149,
      "verkehr": 1150,
      "lauf": 1151,
      "ings": 1152,
      "notwen": 1153,
      "demokrat": 1154,
      "ordnung": 1155,
      "vol": 1156,
      "arbeits": 1157,
      "ren": 1158,
      "drei": 1159,
      "tieren": 1160,
      "setzung": 1161,
      "ip": 1162,
      "heiten": 1163,
      "allem": 1164,
      "vertr": 1165,
      "ss": 1166,
      "amp": 1167,
      "gestellt": 1168,
      "län": 1169,
      "wollen": 1170,
      "bas": 1171,
      "plan": 1172,
      "gu": 1173,
      "buch": 1174,
      "ital": 1175,
      "elle": 1176,
      "lichkeit": 1177,
      "organis": 1178,
      "ustr": 1179,
      "kult": 1180,
      "stä": 1181,
      "darüber": 1182,
      "nor": 1183,
      "umf": 1184,
      "ka": 1185,
      "unseren": 1186,
      "bild": 1187,
      "verbesser": 1188,
      "deshalb": 1189,
      "glau": 1190,
      "wahr": 1191,
      "einzel": 1192,
      "tä": 1193,
      "beim": 1194,
      "verfahren": 1195,
      "199": 1196,
      "tens": 1197,
      "tro": 1198,
      "insbesondere": 1199,
      "frie": 1200,
      "umwelt": 1201,
      "werk": 1202,
      "fon": 1203,
      "namen": 1204,
      "tiert": 1205,
      "port": 1206,
      "anwen": 1207,
      "eicht": 1208,
      "aler": 1209,
      "strate": 1210,
      "haupt": 1211,
      "bringen": 1212,
      "flug": 1213,
      "gemeinsam": 1214,
      "gend": 1215,
      "ine": 1216,
      "legt": 1217,
      "seiten": 1218,
      "parlaments": 1219,
      "les": 1220,
      "akt": 1221,
      "fäh": 1222,
      "licht": 1223,
      "etwas": 1224,
      "benutz": 1225,
      "also": 1226,
      "zü": 1227,
      "führung": 1228,
      "instit": 1229,
      "ausschuss": 1230,
      "verantwort": 1231,
      "bieten": 1232,
      "ac": 1233,
      "industr": 1234,
      "ahn": 1235,
      "tun": 1236,
      "schein": 1237,
      "mor": 1238,
      "kontr": 1239,
      "vertrag": 1240,
      "ware": 1241,
      "tragen": 1242,
      "erhalten": 1243,
      "gest": 1244,
      "kra": 1245,
      "nt": 1246,
      "geschä": 1247,
      "tem": 1248,
      "1.": 1249,
      "gangen": 1250,
      "tigung": 1251,
      "gehör": 1252,
      "isten": 1253,
      "kü": 1254,
      "ure": 1255,
      "los": 1256,
      "einmal": 1257,
      "welche": 1258,
      "energie": 1259,
      "mu": 1260,
      "schul": 1261,
      "fraktion": 1262,
      "mel": 1263,
      "15": 1264,
      "lungs": 1265,
      "entwickel": 1266,
      "zusammenarbeit": 1267,
      "merk": 1268,
      "wähl": 1269,
      "struktur": 1270,
      "üs": 1271,
      "mill": 1272,
      "amer": 1273,
      "inte": 1274,
      "geschäft": 1275,
      "go": 1276,
      "fam": 1277,
      "gabe": 1278,
      "iff": 1279,
      "moder": 1280,
      "sprache": 1281,
      "schaften": 1282,
      "schaffen": 1283,
      "letzten": 1284,
      "id": 1285,
      "ian": 1286,
      "natürlich": 1287,
      "verw": 1288,
      "schließlich": 1289,
      "ed": 1290,
      "bede": 1291,
      "sc": 1292,
      "unterstützung": 1293,
      "ße": 1294,
      "mente": 1295,
      "th": 1296,
      "ihrem": 1297,
      "hilfe": 1298,
      "erklär": 1299,
      "treten": 1300,
      "tats": 1301,
      "jeder": 1302,
      "kor": 1303,
      "wasser": 1304,
      "auer": 1305,
      "zeug": 1306,
      "schrei": 1307,
      "ichte": 1308,
      "darf": 1309,
      "aktiv": 1310,
      "assung": 1311,
      "änderungsan": 1312,
      "bekann": 1313,
      "glichen": 1314,
      "lebens": 1315,
      "beding": 1316,
      "itäten": 1317,
      "euro": 1318,
      "preis": 1319,
      "macht": 1320,
      "digen": 1321,
      "bitte": 1322,
      "sitz": 1323,
      "ßt": 1324,
      "stimmung": 1325,
      "uni": 1326,
      "ju": 1327,
      "famil": 1328,
      "regierung": 1329,
      "schluss": 1330,
      "gesellschaft": 1331,
      "spar": 1332,
      "steuer": 1333,
      "richtung": 1334,
      "bal": 1335,
      "ift": 1336,
      "wett": 1337,
      "treffen": 1338,
      "prof": 1339,
      "soft": 1340,
      "ismus": 1341,
      "gä": 1342,
      "lungen": 1343,
      "platz": 1344,
      "ise": 1345,
      "priv": 1346,
      "gesund": 1347,
      "alter": 1348,
      "besteht": 1349,
      "ina": 1350,
      "rück": 1351,
      "len": 1352,
      "besuch": 1353,
      "industrie": 1354,
      "met": 1355,
      "bedeut": 1356,
      "meiner": 1357,
      "eig": 1358,
      "bur": 1359,
      "wegen": 1360,
      "vorge": 1361,
      "ständig": 1362,
      "terr": 1363,
      "uhr": 1364,
      "oren": 1365,
      "san": 1366,
      "weitere": 1367,
      "wäre": 1368,
      "vier": 1369,
      "forsch": 1370,
      "blei": 1371,
      "großen": 1372,
      "ober": 1373,
      "versuch": 1374,
      "nov": 1375,
      "situ": 1376,
      "seinen": 1377,
      "ade": 1378,
      "vielen": 1379,
      "kollegen": 1380,
      "alles": 1381,
      "förder": 1382,
      "ton": 1383,
      "abhän": 1384,
      "30": 1385,
      "greich": 1386,
      "deren": 1387,
      "ergeb": 1388,
      "große": 1389,
      "handelt": 1390,
      "angen": 1391,
      "jen": 1392,
      "schließen": 1393,
      "möglichkeit": 1394,
      "minist": 1395,
      "dlich": 1396,
      "unterschie": 1397,
      "terstat": 1398,
      "entfern": 1399,
      "sagt": 1400,
      "cen": 1401,
      "berichterstat": 1402,
      "ater": 1403,
      "iti": 1404,
      "18": 1405,
      "kinder": 1406,
      "itten": 1407,
      "wettbewer": 1408,
      "näch": 1409,
      "sport": 1410,
      "richtlinie": 1411,
      "vis": 1412,
      "schnell": 1413,
      "ite": 1414,
      "muß": 1415,
      "asse": 1416,
      "hof": 1417,
      "freund": 1418,
      "schwi": 1419,
      "probleme": 1420,
      "pol": 1421,
      "hel": 1422,
      "stre": 1423,
      "erforder": 1424,
      "deb": 1425,
      "spolit": 1426,
      "netz": 1427,
      "sü": 1428,
      "alten": 1429,
      "age": 1430,
      "stan": 1431,
      "kommt": 1432,
      "worden": 1433,
      "bung": 1434,
      "aktu": 1435,
      "service": 1436,
      "gewähr": 1437,
      "zeigt": 1438,
      "halts": 1439,
      "bu": 1440,
      "span": 1441,
      "heraus": 1442,
      "besonders": 1443,
      "verfügung": 1444,
      "000": 1445,
      "dort": 1446,
      "bus": 1447,
      "notwendig": 1448,
      "institution": 1449,
      "staur": 1450,
      "gesundheit": 1451,
      "politischen": 1452,
      "bedingungen": 1453,
      "ign": 1454,
      "lex": 1455,
      "nä": 1456,
      "vo": 1457,
      "gesetzt": 1458,
      "betrie": 1459,
      "kein": 1460,
      "internationalen": 1461,
      "beschäf": 1462,
      "bedeutung": 1463,
      "restaur": 1464,
      "prozess": 1465,
      "are": 1466,
      "disk": 1467,
      "zukunft": 1468,
      "völ": 1469,
      "wirklich": 1470,
      "internet": 1471,
      "meer": 1472,
      "sowohl": 1473,
      "krit": 1474,
      "verbind": 1475,
      "ikan": 1476,
      "technolog": 1477,
      "tikel": 1478,
      "verbrauch": 1479,
      "davon": 1480,
      "igung": 1481,
      "gener": 1482,
      "ierungs": 1483,
      "tigkeit": 1484,
      "zep": 1485,
      "käm": 1486,
      "abkommen": 1487,
      "erken": 1488,
      "spezi": 1489,
      "weisen": 1490,
      "stück": 1491,
      "partner": 1492,
      "uf": 1493,
      "eigenen": 1494,
      "50": 1495,
      "pal": 1496,
      "woch": 1497,
      "thema": 1498,
      "wär": 1499,
      "lösung": 1500,
      "direkt": 1501,
      "por": 1502,
      "gegenüber": 1503,
      "ichts": 1504,
      "schwer": 1505,
      "artikel": 1506,
      "erreichen": 1507,
      "dessen": 1508,
      "site": 1509,
      "kap": 1510,
      "gelegen": 1511,
      "liefer": 1512,
      "anzu": 1513,
      "personen": 1514,
      "ban": 1515,
      "kan": 1516,
      "ial": 1517,
      "hungen": 1518,
      "pers": 1519,
      "vest": 1520,
      "samen": 1521,
      "ingt": 1522,
      "fil": 1523,
      "völker": 1524,
      "ähr": 1525,
      "text": 1526,
      "har": 1527,
      "hang": 1528,
      "auen": 1529,
      "frauen": 1530,
      "ow": 1531,
      "ums": 1532,
      "ore": 1533,
      "grei": 1534,
      "ative": 1535,
      "dungen": 1536,
      "aktion": 1537,
      "dank": 1538,
      "innerhalb": 1539,
      "leistungen": 1540,
      "berichterstatter": 1541,
      "ick": 1542,
      "invest": 1543,
      "wün": 1544,
      "integr": 1545,
      "yp": 1546,
      "stab": 1547,
      "zwar": 1548,
      "forderungen": 1549,
      "bahn": 1550,
      "könnte": 1551,
      "one": 1552,
      "ome": 1553,
      "rolle": 1554,
      "befindet": 1555,
      "frieden": 1556,
      "schrift": 1557,
      "stimmen": 1558,
      "erweiter": 1559,
      "iften": 1560,
      "fte": 1561,
      "neh": 1562,
      "sprach": 1563,
      "kraft": 1564,
      "&amp": 1565,
      "&amp;": 1566,
      "chan": 1567,
      "erwar": 1568,
      "inen": 1569,
      "unterstützen": 1570,
      "hatte": 1571,
      "tten": 1572,
      "ieg": 1573,
      "mil": 1574,
      "möglichkeiten": 1575,
      "gaben": 1576,
      "hunder": 1577,
      "schn": 1578,
      "ys": 1579,
      "produktion": 1580,
      "mi": 1581,
      "teilen": 1582,
      "möchten": 1583,
      "tür": 1584,
      "verpf": 1585,
      "hinter": 1586,
      "gern": 1587,
      "zip": 1588,
      "mär": 1589,
      "enzen": 1590,
      "schriften": 1591,
      "neten": 1592,
      "kultur": 1593,
      "aufge": 1594,
      "ere": 1595,
      "produkte": 1596,
      "tiger": 1597,
      "tur": 1598,
      "enden": 1599,
      "verstän": 1600,
      "standard": 1601,
      "verschiedenen": 1602,
      "ima": 1603,
      "qualität": 1604,
      "ika": 1605,
      "tour": 1606,
      "sektor": 1607,
      "obil": 1608,
      "dition": 1609,
      "entfernt": 1610,
      "teile": 1611,
      "gerä": 1612,
      "erste": 1613,
      "gef": 1614,
      "behör": 1615,
      "ehmen": 1616,
      "ifft": 1617,
      "bi": 1618,
      "hervor": 1619,
      "genau": 1620,
      "halte": 1621,
      "genann": 1622,
      "dür": 1623,
      "mail": 1624,
      "sozial": 1625,
      "bank": 1626,
      "spolitik": 1627,
      "wirtschafts": 1628,
      "char": 1629,
      "situation": 1630,
      "verschieden": 1631,
      "vorschl": 1632,
      "abhäng": 1633,
      "gäste": 1634,
      "dings": 1635,
      "bestehen": 1636,
      "far": 1637,
      "neben": 1638,
      "cher": 1639,
      "nutzen": 1640,
      "software": 1641,
      "tlich": 1642,
      "gän": 1643,
      "glob": 1644,
      "usa": 1645,
      "fir": 1646,
      "einzu": 1647,
      "projekt": 1648,
      "kat": 1649,
      "schrän": 1650,
      "gebiet": 1651,
      "fassung": 1652,
      "schwier": 1653,
      "tte": 1654,
      "line": 1655,
      "instru": 1656,
      "geschäfts": 1657,
      "oten": 1658,
      "natur": 1659,
      "haltung": 1660,
      "mäß": 1661,
      "persön": 1662,
      "pla": 1663,
      "allerdings": 1664,
      "stet": 1665,
      "außerdem": 1666,
      "ue": 1667,
      "sh": 1668,
      "bildung": 1669,
      "schritt": 1670,
      "spä": 1671,
      "ri": 1672,
      "äußer": 1673,
      "autom": 1674,
      "datei": 1675,
      "stelle": 1676,
      "altung": 1677,
      "zugang": 1678,
      "größ": 1679,
      "isches": 1680,
      "nehmer": 1681,
      "minister": 1682,
      "stimmt": 1683,
      "drück": 1684,
      "beitra": 1685,
      "anst": 1686,
      "wind": 1687,
      "que": 1688,
      "weis": 1689,
      "bezug": 1690,
      "sweise": 1691,
      "mut": 1692,
      "präsidentin": 1693,
      "park": 1694,
      "initi": 1695,
      "abgeord": 1696,
      "gesamt": 1697,
      "setzt": 1698,
      "pel": 1699,
      "off": 1700,
      "arch": 1701,
      "position": 1702,
      "gerade": 1703,
      "konn": 1704,
      "dok": 1705,
      "oper": 1706,
      "teilung": 1707,
      "meinung": 1708,
      "strategie": 1709,
      "list": 1710,
      "tage": 1711,
      "wesent": 1712,
      "kommun": 1713,
      "früh": 1714,
      "pat": 1715,
      "träge": 1716,
      "gegeben": 1717,
      "jahres": 1718,
      "geführt": 1719,
      "b.": 1720,
      "igten": 1721,
      "gute": 1722,
      "gruppe": 1723,
      "gil": 1724,
      "hung": 1725,
      "hotels": 1726,
      "mb": 1727,
      "rund": 1728,
      "ehr": 1729,
      "z.": 1730,
      "politische": 1731,
      "zusammenhang": 1732,
      "lange": 1733,
      "gü": 1734,
      "verhand": 1735,
      "don": 1736,
      "rates": 1737,
      "jeden": 1738,
      "unserem": 1739,
      "größer": 1740,
      "zusätz": 1741,
      "jähr": 1742,
      "doku": 1743,
      "dlichen": 1744,
      "racht": 1745,
      "außen": 1746,
      "entschließ": 1747,
      "schö": 1748,
      "beiden": 1749,
      "begrü": 1750,
      "tes": 1751,
      "gefä": 1752,
      "16": 1753,
      "sichtlich": 1754,
      "zogen": 1755,
      "geld": 1756,
      "einander": 1757,
      "eren": 1758,
      "wider": 1759,
      "russ": 1760,
      "burg": 1761,
      "atte": 1762,
      "indem": 1763,
      "hinaus": 1764,
      "zahlreich": 1765,
      "daran": 1766,
      "veränder": 1767,
      "nam": 1768,
      "spie": 1769,
      "asst": 1770,
      "2009": 1771,
      "anges": 1772,
      "gemeinsamen": 1773,
      "gesagt": 1774,
      "14": 1775,
      "tele": 1776,
      "prin": 1777,
      "schland": 1778,
      "vereinbar": 1779,
      "etwa": 1780,
      "rats": 1781,
      "emp": 1782,
      "vorschriften": 1783,
      "finan": 1784,
      "deutschland": 1785,
      "weniger": 1786,
      "trä": 1787,
      "itz": 1788,
      "pre": 1789,
      "kop": 1790,
      "ferenz": 1791,
      "eg": 1792,
      "fast": 1793,
      "aufgrund": 1794,
      "mitt": 1795,
      "reise": 1796,
      "beitr": 1797,
      "haushalts": 1798,
      "mode": 1799,
      "versch": 1800,
      "able": 1801,
      "folge": 1802,
      "erfahr": 1803,
      "gei": 1804,
      "ris": 1805,
      "laden": 1806,
      "entscheiden": 1807,
      "dam": 1808,
      "denken": 1809,
      "danken": 1810,
      "anti": 1811,
      "our": 1812,
      "lö": 1813,
      "bzw": 1814,
      "entwicklungs": 1815,
      "öffentlichen": 1816,
      "ase": 1817,
      "sogar": 1818,
      "get": 1819,
      "ebenfalls": 1820,
      "alisierung": 1821,
      "prochen": 1822,
      "berg": 1823,
      "greifen": 1824,
      "gilt": 1825,
      "flü": 1826,
      "bzw.": 1827,
      "gol": 1828,
      "wachst": 1829,
      "empf": 1830,
      "cke": 1831,
      "krise": 1832,
      "beteil": 1833,
      "gemacht": 1834,
      "wander": 1835,
      "getr": 1836,
      "zeitig": 1837,
      "tin": 1838,
      "fran": 1839,
      "näm": 1840,
      "nichts": 1841,
      "nämlich": 1842,
      "klima": 1843,
      "13": 1844,
      "orien": 1845,
      "zentrum": 1846,
      "darin": 1847,
      "produkt": 1848,
      "wohn": 1849,
      "17": 1850,
      "leisten": 1851,
      "haft": 1852,
      "abstimmung": 1853,
      "ebene": 1854,
      "millionen": 1855,
      "allgem": 1856,
      "tie": 1857,
      "ativen": 1858,
      "tradition": 1859,
      "wan": 1860,
      "gte": 1861,
      "see": 1862,
      "ieben": 1863,
      "frist": 1864,
      "ktr": 1865,
      "ierungen": 1866,
      "berück": 1867,
      "musik": 1868,
      "besten": 1869,
      "berücksich": 1870,
      "grundlage": 1871,
      "leich": 1872,
      "insel": 1873,
      "eff": 1874,
      "achten": 1875,
      "fot": 1876,
      "betrifft": 1877,
      "mitteln": 1878,
      "viell": 1879,
      "präsen": 1880,
      "agen": 1881,
      "vielleicht": 1882,
      "iven": 1883,
      "hist": 1884,
      "einigen": 1885,
      "europas": 1886,
      "läu": 1887,
      "spl": 1888,
      "ächlich": 1889,
      "vergangen": 1890,
      "ihm": 1891,
      "ies": 1892,
      "verbraucher": 1893,
      "fischer": 1894,
      "baren": 1895,
      "ihn": 1896,
      "spezie": 1897,
      "eitet": 1898,
      "interess": 1899,
      "betra": 1900,
      "verbunden": 1901,
      "handels": 1902,
      "weiterhin": 1903,
      "car": 1904,
      "meisten": 1905,
      "zä": 1906,
      "fiz": 1907,
      "utet": 1908,
      "zehn": 1909,
      "igt": 1910,
      "stabil": 1911,
      "ity": 1912,
      "by": 1913,
      "eng": 1914,
      "medi": 1915,
      "atur": 1916,
      "zeichnet": 1917,
      "rom": 1918,
      "bew": 1919,
      "ev": 1920,
      "kräf": 1921,
      "unterstützt": 1922,
      "brauchen": 1923,
      "italien": 1924,
      "nationalen": 1925,
      "mals": 1926,
      "neuer": 1927,
      "ziele": 1928,
      "bevölker": 1929,
      "gere": 1930,
      "aussprache": 1931,
      "wissenschaft": 1932,
      "glaube": 1933,
      "seinem": 1934,
      "zunehmen": 1935,
      "weiß": 1936,
      "trotz": 1937,
      "erfü": 1938,
      "arbeitet": 1939,
      "km": 1940,
      "rel": 1941,
      "nete": 1942,
      "mater": 1943,
      "version": 1944,
      "posit": 1945,
      "alog": 1946,
      "konta": 1947,
      "itäts": 1948,
      "hinder": 1949,
      "fün": 1950,
      "dit": 1951,
      "künf": 1952,
      "mm": 1953,
      "wiesen": 1954,
      "formen": 1955,
      "ebenso": 1956,
      "hafen": 1957,
      "erhö": 1958,
      "bekäm": 1959,
      "kontroll": 1960,
      "solche": 1961,
      "bekannt": 1962,
      "liches": 1963,
      "ct": 1964,
      "schön": 1965,
      "gleichzeitig": 1966,
      "124": 1967,
      "läs": 1968,
      "pass": 1969,
      "kunst": 1970,
      "schritte": 1971,
      "ile": 1972,
      "tungen": 1973,
      "üssel": 1974,
      "erwä": 1975,
      "masch": 1976,
      "ckt": 1977,
      "jahrhunder": 1978,
      "dürfen": 1979,
      "kurz": 1980,
      "histor": 1981,
      "fonds": 1982,
      "denten": 1983,
      "möglichen": 1984,
      "vi": 1985,
      "minuten": 1986,
      "25": 1987,
      "install": 1988,
      "anspr": 1989,
      "gebung": 1990,
      "vertre": 1991,
      "vorschläge": 1992,
      "sollen": 1993,
      "oft": 1994,
      "website": 1995,
      "leit": 1996,
      "opti": 1997,
      "türk": 1998,
      "zin": 1999,
      "geschichte": 2000,
      "&#124": 2001,
      "&#124;": 2002,
      "gruppen": 2003,
      "ktiv": 2004,
      "alität": 2005,
      "höch": 2006,
      "koh": 2007,
      "az": 2008,
      "genie": 2009,
      "ou": 2010,
      "prakti": 2011,
      "verkehrs": 2012,
      "partei": 2013,
      "bef": 2014,
      "online": 2015,
      "last": 2016,
      "keinen": 2017,
      "icken": 2018,
      "luft": 2019,
      "innov": 2020,
      "konferenz": 2021,
      "bemü": 2022,
      "schaff": 2023,
      "igkeiten": 2024,
      "auszu": 2025,
      "sach": 2026,
      "2.": 2027,
      "kür": 2028,
      "bare": 2029,
      "wenig": 2030,
      "new": 2031,
      "brit": 2032,
      "linien": 2033,
      "mann": 2034,
      "anal": 2035,
      "fähigkeit": 2036,
      "umfassen": 2037,
      "anf": 2038,
      "nähe": 2039,
      "bevor": 2040,
      ".com": 2041,
      "ator": 2042,
      "wech": 2043,
      "dio": 2044,
      "publ": 2045,
      "unde": 2046,
      "amerikan": 2047,
      "laub": 2048,
      "llt": 2049,
      "worten": 2050,
      "sicherheits": 2051,
      "werde": 2052,
      "chr": 2053,
      "zunäch": 2054,
      "geschlagen": 2055,
      "sal": 2056,
      "zunächst": 2057,
      "hlen": 2058,
      "dest": 2059,
      "mitglieder": 2060,
      "immt": 2061,
      "finanzie": 2062,
      "zustellen": 2063,
      "ausschusses": 2064,
      "gliche": 2065,
      "ergebnis": 2066,
      "2010": 2067,
      "24": 2068,
      "ätze": 2069,
      "zwe": 2070,
      "benö": 2071,
      "ium": 2072,
      "wichtige": 2073,
      "arbeiter": 2074,
      "adr": 2075,
      "obwohl": 2076,
      "liste": 2077,
      "dienstleistungen": 2078,
      "forschung": 2079,
      "aspe": 2080,
      "ogra": 2081,
      "dige": 2082,
      "werte": 2083,
      "bedeutet": 2084,
      "oss": 2085,
      "west": 2086,
      "sion": 2087,
      "mark": 2088,
      "kolleg": 2089,
      "nieder": 2090,
      "würden": 2091,
      "anderer": 2092,
      "gemeinsame": 2093,
      "od": 2094,
      "deutlich": 2095,
      "seits": 2096,
      "wirtschaftlichen": 2097,
      "haup": 2098,
      "spielen": 2099,
      "verantwortung": 2100,
      "einsatz": 2101,
      "freu": 2102,
      "gefähr": 2103,
      "effe": 2104,
      "ansicht": 2105,
      "systeme": 2106,
      "voraus": 2107,
      "unge": 2108,
      "handeln": 2109,
      "angebot": 2110,
      "teilt": 2111,
      "beispielsweise": 2112,
      "haushalt": 2113,
      "fung": 2114,
      "krieg": 2115,
      "demokratie": 2116,
      "darum": 2117,
      "anwendung": 2118,
      "veranst": 2119,
      "erfolgreich": 2120,
      "verkauf": 2121,
      "org": 2122,
      "zahlen": 2123,
      "pfung": 2124,
      "gehört": 2125,
      "züglich": 2126,
      "gebracht": 2127,
      "tete": 2128,
      "restaurant": 2129,
      "ww": 2130,
      "weder": 2131,
      "nächsten": 2132,
      "regionen": 2133,
      "herren": 2134,
      "rä": 2135,
      "freiheit": 2136,
      "verhandlungen": 2137,
      "wettbewerbs": 2138,
      "erfolg": 2139,
      "hinzu": 2140,
      "umsetzung": 2141,
      "soli": 2142,
      "reihe": 2143,
      "wit": 2144,
      "menschenrechte": 2145,
      "beziehungen": 2146,
      "ziehen": 2147,
      "kontrolle": 2148,
      "bleiben": 2149,
      "mand": 2150,
      "bereichen": 2151,
      "wirkungen": 2152,
      "behörden": 2153,
      "weiteren": 2154,
      "speich": 2155,
      "standen": 2156,
      "jede": 2157,
      "izien": 2158,
      "w.": 2159,
      "verpflich": 2160,
      "tages": 2161,
      "miss": 2162,
      "ihres": 2163,
      "wal": 2164,
      "institutionen": 2165,
      "va": 2166,
      "einzi": 2167,
      "ession": 2168,
      "cu": 2169,
      "jedes": 2170,
      "iken": 2171,
      "entscheidung": 2172,
      "stei": 2173,
      "interesse": 2174,
      "dliche": 2175,
      "enthalten": 2176,
      "scht": 2177,
      "gemäß": 2178,
      "angelegen": 2179,
      "kleinen": 2180,
      "automat": 2181,
      "debatte": 2182,
      "100": 2183,
      "onen": 2184,
      "suchen": 2185,
      "fünf": 2186,
      "hoffe": 2187,
      "ers": 2188,
      "2008": 2189,
      "überein": 2190,
      "sin": 2191,
      "zem": 2192,
      "uar": 2193,
      "familien": 2194,
      "staats": 2195,
      "förderung": 2196,
      "schwe": 2197,
      "erziel": 2198,
      "air": 2199,
      "ior": 2200,
      "vide": 2201,
      "internationale": 2202,
      "karte": 2203,
      "team": 2204,
      "landes": 2205,
      "entsprech": 2206,
      "dor": 2207,
      "nimmt": 2208,
      "schaffung": 2209,
      "anten": 2210,
      "fordern": 2211,
      "zeigen": 2212,
      "llig": 2213,
      "gerich": 2214,
      "vention": 2215,
      "za": 2216,
      "verfüg": 2217,
      "programme": 2218,
      "ci": 2219,
      "aufmerk": 2220,
      "empfehl": 2221,
      "heim": 2222,
      "kn": 2223,
      "ert": 2224,
      "log": 2225,
      "investition": 2226,
      "mensch": 2227,
      "verwendet": 2228,
      "flex": 2229,
      "ermöglich": 2230,
      "ühr": 2231,
      "verur": 2232,
      "punkte": 2233,
      "scheint": 2234,
      "sozialen": 2235,
      "prinzip": 2236,
      "bisher": 2237,
      "verschiedene": 2238,
      "att": 2239,
      "preise": 2240,
      "imin": 2241,
      "fo": 2242,
      "grenz": 2243,
      "win": 2244,
      "akzep": 2245,
      "tter": 2246,
      "defin": 2247,
      "gerung": 2248,
      "fs": 2249,
      "interessen": 2250,
      "feld": 2251,
      "aufmerksam": 2252,
      "mie": 2253,
      "kampf": 2254,
      "var": 2255,
      "tisch": 2256,
      "prot": 2257,
      "pan": 2258,
      "bre": 2259,
      "leistungs": 2260,
      "metho": 2261,
      "einzelnen": 2262,
      "ateg": 2263,
      "design": 2264,
      "bevölkerung": 2265,
      "engl": 2266,
      "unabhäng": 2267,
      "gelten": 2268,
      "fordert": 2269,
      "verbindung": 2270,
      "dauer": 2271,
      "entsprechen": 2272,
      "schu": 2273,
      "erreicht": 2274,
      "konkre": 2275,
      "sour": 2276,
      "herz": 2277,
      "erhe": 2278,
      "dop": 2279,
      "chten": 2280,
      "leider": 2281,
      "test": 2282,
      "franz": 2283,
      "hnt": 2284,
      "wechsel": 2285,
      "wachstum": 2286,
      "gleichen": 2287,
      "publik": 2288,
      "unver": 2289,
      "prom": 2290,
      "istischen": 2291,
      "einfl": 2292,
      "terror": 2293,
      "din": 2294,
      "elektr": 2295,
      "effizien": 2296,
      "lok": 2297,
      "glück": 2298,
      "weltweit": 2299,
      "überprü": 2300,
      "könnten": 2301,
      "damen": 2302,
      "auber": 2303,
      "forderung": 2304,
      "stellungen": 2305,
      "später": 2306,
      "befinden": 2307,
      "binnen": 2308,
      "änderungsantrag": 2309,
      "diskuss": 2310,
      "ruh": 2311,
      "frühstück": 2312,
      "rad": 2313,
      "reform": 2314,
      "ünst": 2315,
      "bald": 2316,
      "ire": 2317,
      "lösungen": 2318,
      "nachhal": 2319,
      "isierung": 2320,
      "folgt": 2321,
      "konf": 2322,
      "entwickelt": 2323,
      "kateg": 2324,
      "vorgeschlagen": 2325,
      "grenzen": 2326,
      "d.": 2327,
      "helfen": 2328,
      "nungs": 2329,
      "hohe": 2330,
      "gab": 2331,
      "schwei": 2332,
      "schnitt": 2333,
      "kennt": 2334,
      "iffen": 2335,
      "manage": 2336,
      "ly": 2337,
      "arbeitung": 2338,
      "entde": 2339,
      "sinn": 2340,
      "auswirkungen": 2341,
      "läss": 2342,
      "vö": 2343,
      "lieb": 2344,
      "esen": 2345,
      "arbeitspl": 2346,
      "transpar": 2347,
      "china": 2348,
      "fahrt": 2349,
      "verfügt": 2350,
      "berech": 2351,
      "jan": 2352,
      "ermöglicht": 2353,
      "vill": 2354,
      "abon": 2355,
      "behand": 2356,
      "auftrag": 2357,
      "tliche": 2358,
      "wunder": 2359,
      "nehm": 2360,
      "stattet": 2361,
      "beginn": 2362,
      "ivi": 2363,
      "gegenwär": 2364,
      "hinblick": 2365,
      "kir": 2366,
      "itär": 2367,
      "wn": 2368,
      "gestimmt": 2369,
      "tischen": 2370,
      "sorgen": 2371,
      "abgeordneten": 2372,
      "gefü": 2373,
      "material": 2374,
      "ax": 2375,
      "beitrag": 2376,
      "2007": 2377,
      "verordnung": 2378,
      "erforderlich": 2379,
      "gien": 2380,
      "fehler": 2381,
      "11": 2382,
      "iere": 2383,
      "ausdruck": 2384,
      "hatten": 2385,
      "gemessen": 2386,
      "formul": 2387,
      "kommunik": 2388,
      "cor": 2389,
      "einheit": 2390,
      "stens": 2391,
      "gesamten": 2392,
      "tatsächlich": 2393,
      "40": 2394,
      "änderungsanträge": 2395,
      "kör": 2396,
      "morgen": 2397,
      "schrieben": 2398,
      "stein": 2399,
      "out": 2400,
      "jenigen": 2401,
      "2000": 2402,
      "tatsache": 2403,
      "bedeuten": 2404,
      "strand": 2405,
      "leistung": 2406,
      "zeugen": 2407,
      "fallen": 2408,
      "wünschen": 2409,
      "beton": 2410,
      "kolleginnen": 2411,
      "benutzer": 2412,
      "dialog": 2413,
      "hohen": 2414,
      "hy": 2415,
      "abzu": 2416,
      "ividu": 2417,
      "fuß": 2418,
      "nutzung": 2419,
      "präsidentschaft": 2420,
      "dadurch": 2421,
      "komple": 2422,
      "individu": 2423,
      "atten": 2424,
      "griff": 2425,
      "denke": 2426,
      "som": 2427,
      "themen": 2428,
      "stunden": 2429,
      "volle": 2430,
      "nahe": 2431,
      "warum": 2432,
      "gebäu": 2433,
      "hü": 2434,
      "ote": 2435,
      "tu": 2436,
      "fischerei": 2437,
      "übr": 2438,
      "krimin": 2439,
      "dy": 2440,
      "richten": 2441,
      "verhält": 2442,
      "##star": 2443,
      "##star##": 2444,
      "regeln": 2445,
      "richtig": 2446,
      "angenommen": 2447,
      "wählen": 2448,
      "bestä": 2449,
      "kung": 2450,
      "angesichts": 2451,
      "zudem": 2452,
      "schlus": 2453,
      "aufgabe": 2454,
      "richtungen": 2455,
      "spricht": 2456,
      "eis": 2457,
      "jedem": 2458,
      "digung": 2459,
      "män": 2460,
      "hätte": 2461,
      "astr": 2462,
      "systems": 2463,
      "bereiche": 2464,
      "anlage": 2465,
      "cas": 2466,
      "user": 2467,
      "kleine": 2468,
      "präsidenten": 2469,
      "russland": 2470,
      "ans": 2471,
      "mot": 2472,
      "langen": 2473,
      "doppel": 2474,
      "mag": 2475,
      "gelegt": 2476,
      "zeiten": 2477,
      "menten": 2478,
      "aufent": 2479,
      "derzeit": 2480,
      "verl": 2481,
      "urspr": 2482,
      "gerichtet": 2483,
      "bad": 2484,
      "ktionen": 2485,
      "ku": 2486,
      "bekämpfung": 2487,
      "pfel": 2488,
      "gewi": 2489,
      "augen": 2490,
      "gerne": 2491,
      "lässt": 2492,
      "konnte": 2493,
      "can": 2494,
      "schä": 2495,
      "sage": 2496,
      "dungs": 2497,
      "bü": 2498,
      "vereinigten": 2499,
      "technologie": 2500,
      "van": 2501,
      "stoff": 2502,
      "anspruch": 2503,
      "ches": 2504,
      "mitarbeiter": 2505,
      "wachsen": 2506,
      "ther": 2507,
      "heißt": 2508,
      "fäl": 2509,
      "ms": 2510,
      "tiges": 2511,
      "ordin": 2512,
      "auswahl": 2513,
      "mehrere": 2514,
      "steller": 2515,
      "ii": 2516,
      "veröffent": 2517,
      "stimme": 2518,
      "usst": 2519,
      "eite": 2520,
      "z.b.": 2521,
      "hinsichtlich": 2522,
      "telefon": 2523,
      "unseres": 2524,
      "meinen": 2525,
      "3.": 2526,
      "entschließung": 2527,
      "hnen": 2528,
      "wichtigen": 2529,
      "pfen": 2530,
      "öst": 2531,
      "60": 2532,
      "privat": 2533,
      "beschrei": 2534,
      "verständlich": 2535,
      "sub": 2536,
      "verstär": 2537,
      "beruf": 2538,
      "ehe": 2539,
      "fällen": 2540,
      "ersch": 2541,
      "höher": 2542,
      "rin": 2543,
      "ganze": 2544,
      "ganzen": 2545,
      "schlussel": 2546,
      "nissen": 2547,
      "mobil": 2548,
      "app": 2549,
      "bekommen": 2550,
      "stil": 2551,
      "barkeit": 2552,
      "server": 2553,
      "itel": 2554,
      "wirtschaftliche": 2555,
      "vertei": 2556,
      "somit": 2557,
      "gipfel": 2558,
      "verbr": 2559,
      "eisen": 2560,
      "score": 2561,
      "mod": 2562,
      "wochen": 2563,
      "meines": 2564,
      "stag": 2565,
      "zeichen": 2566,
      "städ": 2567,
      "heu": 2568,
      "bestimmungen": 2569,
      "würdig": 2570,
      "bleibt": 2571,
      "änderungen": 2572,
      "bezüglich": 2573,
      "pak": 2574,
      "überwach": 2575,
      "türkei": 2576,
      "clu": 2577,
      "gewalt": 2578,
      "schle": 2579,
      "kern": 2580,
      "ligen": 2581,
      "trans": 2582,
      "nord": 2583,
      "erweiterung": 2584,
      "gül": 2585,
      "wein": 2586,
      "tat": 2587,
      "compu": 2588,
      "flexi": 2589,
      "untersuch": 2590,
      "sieht": 2591,
      "anfang": 2592,
      "krank": 2593,
      "mas": 2594,
      "vertrauen": 2595,
      "vel": 2596,
      "80": 2597,
      "koordin": 2598,
      "prior": 2599,
      "häuf": 2600,
      "klicken": 2601,
      "zentral": 2602,
      "volk": 2603,
      "berlin": 2604,
      "modell": 2605,
      "gast": 2606,
      "militär": 2607,
      "bedarf": 2608,
      "national": 2609,
      "underscore": 2610,
      "##underscore": 2611,
      "##underscore##": 2612,
      "management": 2613,
      "wäl": 2614,
      "room": 2615,
      "muse": 2616,
      "chte": 2617,
      "regist": 2618,
      "französ": 2619,
      "kulture": 2620,
      "itts": 2621,
      "lux": 2622,
      "stark": 2623,
      "ller": 2624,
      "informations": 2625,
      "gas": 2626,
      "mul": 2627,
      "komfort": 2628,
      "deta": 2629,
      "pap": 2630,
      "iten": 2631,
      "ferien": 2632,
      "verletz": 2633,
      "bestand": 2634,
      "univers": 2635,
      "genießen": 2636,
      "konzentr": 2637,
      "vertrags": 2638,
      "bot": 2639,
      "typ": 2640,
      "verwenden": 2641,
      "liber": 2642,
      "erlau": 2643,
      "wesen": 2644,
      "fas": 2645,
      "klein": 2646,
      "schätz": 2647,
      "liss": 2648,
      "ernst": 2649,
      "rie": 2650,
      "lam": 2651,
      "deu": 2652,
      "zept": 2653,
      "spa": 2654,
      "kreich": 2655,
      "rechen": 2656,
      "binnenmarkt": 2657,
      "bedür": 2658,
      "frankreich": 2659,
      "ix": 2660,
      "2006": 2661,
      "künst": 2662,
      "redu": 2663,
      "familie": 2664,
      "projekte": 2665,
      "initiative": 2666,
      "tagen": 2667,
      "freien": 2668,
      "verbesserung": 2669,
      "very": 2670,
      "betreffen": 2671,
      "basis": 2672,
      "afr": 2673,
      "trei": 2674,
      "wichtigsten": 2675,
      "ifiz": 2676,
      "erweise": 2677,
      "aufzu": 2678,
      "ergebnisse": 2679,
      "personal": 2680,
      "höhe": 2681,
      "ps": 2682,
      "angemessen": 2683,
      "reisen": 2684,
      "juni": 2685,
      "einzig": 2686,
      "beschäftigung": 2687,
      "verwendung": 2688,
      "woche": 2689,
      "äl": 2690,
      "auto": 2691,
      "lissabon": 2692,
      "enthält": 2693,
      "ziert": 2694,
      "reser": 2695,
      "aktivitäten": 2696,
      "eigene": 2697,
      "nern": 2698,
      "optim": 2699,
      "grundsätz": 2700,
      "rael": 2701,
      "mün": 2702,
      "splan": 2703,
      "ktive": 2704,
      "äst": 2705,
      "spann": 2706,
      "wand": 2707,
      "gewor": 2708,
      "israel": 2709,
      "erle": 2710,
      "obje": 2711,
      "irgend": 2712,
      "fördern": 2713,
      "information": 2714,
      "red": 2715,
      "international": 2716,
      "entwickeln": 2717,
      "geeig": 2718,
      "wirksam": 2719,
      "ov": 2720,
      "mes": 2721,
      "cker": 2722,
      "öster": 2723,
      "ziv": 2724,
      "wobei": 2725,
      "dra": 2726,
      "mehrheit": 2727,
      "urlaub": 2728,
      "betroffen": 2729,
      "vergleich": 2730,
      "option": 2731,
      "umgebung": 2732,
      "chem": 2733,
      "guten": 2734,
      "anzahl": 2735,
      "with": 2736,
      "mai": 2737,
      "karten": 2738,
      "ermöglichen": 2739,
      "insgesamt": 2740,
      "gründen": 2741,
      "gelegenheit": 2742,
      "computer": 2743,
      "körper": 2744,
      "geschlossen": 2745,
      "best": 2746,
      "fal": 2747,
      "bein": 2748,
      "gre": 2749,
      "protok": 2750,
      "üsse": 2751,
      "sache": 2752,
      "zweiten": 2753,
      "est": 2754,
      "spezif": 2755,
      "günst": 2756,
      "sep": 2757,
      "genannten": 2758,
      "vorhan": 2759,
      "lehr": 2760,
      "übrigen": 2761,
      "film": 2762,
      "pool": 2763,
      "aufbau": 2764,
      "lesen": 2765,
      "arten": 2766,
      "ume": 2767,
      "hoben": 2768,
      "blo": 2769,
      "schließend": 2770,
      "garan": 2771,
      "spiele": 2772,
      "leicht": 2773,
      "ändern": 2774,
      "ost": 2775,
      "chin": 2776,
      "jugend": 2777,
      "völlig": 2778,
      "iden": 2779,
      "häre": 2780,
      "max": 2781,
      "stärker": 2782,
      "medien": 2783,
      "wann": 2784,
      "bra": 2785,
      "behandlung": 2786,
      "allgemeinen": 2787,
      "grie": 2788,
      "analy": 2789,
      "gene": 2790,
      "soziale": 2791,
      "zahlreiche": 2792,
      "cl": 2793,
      "samm": 2794,
      "nachdem": 2795,
      "volks": 2796,
      "sommer": 2797,
      "vir": 2798,
      "großer": 2799,
      "cr": 2800,
      "agr": 2801,
      "ressour": 2802,
      "beschrän": 2803,
      "herzen": 2804,
      "verbessern": 2805,
      "sur": 2806,
      "wandel": 2807,
      "ino": 2808,
      "einführung": 2809,
      "fälle": 2810,
      "wettbewerb": 2811,
      "grundlegen": 2812,
      "sphäre": 2813,
      "achtung": 2814,
      "deutschen": 2815,
      "lernen": 2816,
      "technik": 2817,
      "erach": 2818,
      "ände": 2819,
      "beste": 2820,
      "österreich": 2821,
      "hum": 2822,
      "dennoch": 2823,
      "schlagen": 2824,
      "akter": 2825,
      "num": 2826,
      "ähn": 2827,
      "zeitpunkt": 2828,
      "sech": 2829,
      "dienste": 2830,
      "zeugt": 2831,
      "links": 2832,
      "passen": 2833,
      "verfügen": 2834,
      "ira": 2835,
      "erfahrung": 2836,
      "gehören": 2837,
      "süd": 2838,
      "play": 2839,
      "gesundheits": 2840,
      "bilder": 2841,
      "organisationen": 2842,
      "istische": 2843,
      "dom": 2844,
      "bewertungen": 2845,
      "disku": 2846,
      "beru": 2847,
      "mäßig": 2848,
      "gefunden": 2849,
      "notwendigkeit": 2850,
      "sprachen": 2851,
      "hoff": 2852,
      "hor": 2853,
      "ness": 2854,
      "ld": 2855,
      "af": 2856,
      "klus": 2857,
      "gesprochen": 2858,
      "meinem": 2859,
      "versuchen": 2860,
      "bewusst": 2861,
      "organisation": 2862,
      "use": 2863,
      "mechan": 2864,
      "hlt": 2865,
      "a.": 2866,
      "iko": 2867,
      "gesamte": 2868,
      "dienen": 2869,
      "rot": 2870,
      "enga": 2871,
      "nungen": 2872,
      "liebe": 2873,
      "vorher": 2874,
      "ragen": 2875,
      "größten": 2876,
      "ham": 2877,
      "kontakt": 2878,
      "verstehen": 2879,
      "verhalten": 2880,
      "nu": 2881,
      "regierungen": 2882,
      "bund": 2883,
      "vern": 2884,
      "straßen": 2885,
      "r.": 2886,
      "ffer": 2887,
      "bedürf": 2888,
      "eindeu": 2889,
      "geist": 2890,
      "anforderungen": 2891,
      "bestimmte": 2892,
      "übernach": 2893,
      "öffnet": 2894,
      "allein": 2895,
      "komprom": 2896,
      "tor": 2897,
      "erster": 2898,
      "ucht": 2899,
      "zt": 2900,
      "ledig": 2901,
      "vertreter": 2902,
      "jul": 2903,
      "kriter": 2904,
      "straße": 2905,
      "protokoll": 2906,
      "erzeug": 2907,
      "ows": 2908,
      "u.": 2909,
      "ants": 2910,
      "schaf": 2911,
      "schlüssel": 2912,
      "schriftlich": 2913,
      "jo": 2914,
      "garten": 2915,
      "hören": 2916,
      "lediglich": 2917,
      "exper": 2918,
      "äußerst": 2919,
      "maschinen": 2920,
      "ausschuß": 2921,
      "schütz": 2922,
      "dateien": 2923,
      "imp": 2924,
      "berü": 2925,
      "vertreten": 2926,
      "dringen": 2927,
      "erklärung": 2928,
      "ight": 2929,
      "inhalt": 2930,
      "ständigen": 2931,
      "ette": 2932,
      "ägt": 2933,
      "peten": 2934,
      "how": 2935,
      "wun": 2936,
      "früher": 2937,
      "dokument": 2938,
      "erkennen": 2939,
      "multi": 2940,
      "post": 2941,
      "ember": 2942,
      "diskussion": 2943,
      "zweite": 2944,
      "gemeinschafts": 2945,
      "apart": 2946,
      "flughafen": 2947,
      "page": 2948,
      "ausreich": 2949,
      "bezogen": 2950,
      "versor": 2951,
      "zivil": 2952,
      "2005": 2953,
      "bien": 2954,
      "bran": 2955,
      "befür": 2956,
      "zeuge": 2957,
      "beob": 2958,
      "vollständig": 2959,
      "öhn": 2960,
      "ressourcen": 2961,
      "mittler": 2962,
      "äche": 2963,
      "gewährleisten": 2964,
      "erfahren": 2965,
      "verwaltung": 2966,
      "ausgestattet": 2967,
      "waffen": 2968,
      "tritt": 2969,
      "chter": 2970,
      "vorliegen": 2971,
      "minder": 2972,
      "nö": 2973,
      "unternehmens": 2974,
      "kommissarin": 2975,
      "geber": 2976,
      "testen": 2977,
      "alternat": 2978,
      "gerichte": 2979,
      "küche": 2980,
      "landwirtschaft": 2981,
      "exist": 2982,
      "lose": 2983,
      "sitzen": 2984,
      "my": 2985,
      "sagte": 2986,
      "hindern": 2987,
      "besitz": 2988,
      "gebäude": 2989,
      "tv": 2990,
      "gefahr": 2991,
      "einrichtungen": 2992,
      "schiff": 2993,
      "glauben": 2994,
      "konstru": 2995,
      "vollen": 2996,
      ".000": 2997,
      "sonder": 2998,
      "integration": 2999,
      "alte": 3000,
      "artige": 3001,
      "erheb": 3002,
      "istan": 3003,
      "cel": 3004,
      "spielt": 3005,
      "bon": 3006,
      "book": 3007,
      "solidar": 3008,
      "aufgaben": 3009,
      "ereig": 3010,
      "dre": 3011,
      "stam": 3012,
      "selbstverständlich": 3013,
      "kel": 3014,
      "fläche": 3015,
      "wurf": 3016,
      "bestimmten": 3017,
      "video": 3018,
      "anlagen": 3019,
      "verz": 3020,
      "danke": 3021,
      "erhält": 3022,
      "got": 3023,
      "standpunkt": 3024,
      "erachtens": 3025,
      "antworten": 3026,
      "kul": 3027,
      "wahrschein": 3028,
      "eigent": 3029,
      "setzungen": 3030,
      "just": 3031,
      "dischen": 3032,
      "verge": 3033,
      "lon": 3034,
      "aufgenommen": 3035,
      "bringt": 3036,
      "berichts": 3037,
      "jün": 3038,
      "septem": 3039,
      "absol": 3040,
      "dinge": 3041,
      "änderung": 3042,
      "perfe": 3043,
      "kenn": 3044,
      "urop": 3045,
      "jahrhundert": 3046,
      "gerichts": 3047,
      "investitionen": 3048,
      "harmon": 3049,
      "oben": 3050,
      "berühm": 3051,
      "down": 3052,
      "eigentlich": 3053,
      "zweitens": 3054,
      "betrieb": 3055,
      "september": 3056,
      "real": 3057,
      "vorgesehen": 3058,
      "kredit": 3059,
      "freie": 3060,
      "komplex": 3061,
      "dient": 3062,
      "republik": 3063,
      "instrument": 3064,
      "kennen": 3065,
      "archite": 3066,
      "prax": 3067,
      "kompeten": 3068,
      "finanzierung": 3069,
      "paar": 3070,
      "fortschritte": 3071,
      "spieler": 3072,
      "fisch": 3073,
      "einzige": 3074,
      "droh": 3075,
      "ahme": 3076,
      "einschließlich": 3077,
      "geln": 3078,
      "altungs": 3079,
      "erkann": 3080,
      "schreiben": 3081,
      "kons": 3082,
      "70": 3083,
      "sitzung": 3084,
      "2004": 3085,
      "führer": 3086,
      "ux": 3087,
      "aufenthalt": 3088,
      "sofort": 3089,
      "stoffe": 3090,
      "agentur": 3091,
      "entscheidungen": 3092,
      "rede": 3093,
      "wirken": 3094,
      "banken": 3095,
      "home": 3096,
      "stände": 3097,
      "spun": 3098,
      "zweck": 3099,
      "schw": 3100,
      "zufrieden": 3101,
      "tal": 3102,
      "okt": 3103,
      "firma": 3104,
      "sonst": 3105,
      "atmo": 3106,
      "dezem": 3107,
      "anders": 3108,
      "tar": 3109,
      "dezember": 3110,
      "nommen": 3111,
      "igur": 3112,
      "iar": 3113,
      "poten": 3114,
      "gerech": 3115,
      "super": 3116,
      "aufnahme": 3117,
      "gert": 3118,
      "wunsch": 3119,
      "fan": 3120,
      "legung": 3121,
      "solchen": 3122,
      "kombin": 3123,
      "wahlen": 3124,
      "ursprün": 3125,
      "ichten": 3126,
      "vorzu": 3127,
      "ame": 3128,
      "verab": 3129,
      "beide": 3130,
      "kle": 3131,
      "sign": 3132,
      "keiner": 3133,
      "kurs": 3134,
      "jap": 3135,
      "mp": 3136,
      "ca.": 3137,
      "produkten": 3138,
      "leute": 3139,
      "standards": 3140,
      "iffe": 3141,
      "vergessen": 3142,
      "streng": 3143,
      "folgenden": 3144,
      "häufig": 3145,
      "charakter": 3146,
      "rein": 3147,
      "gebaut": 3148,
      "stabilität": 3149,
      "ansatz": 3150,
      "wichtiger": 3151,
      "diejenigen": 3152,
      "anfrage": 3153,
      "ären": 3154,
      "zweifel": 3155,
      "europäischer": 3156,
      "ep": 3157,
      "lern": 3158,
      "vergangenen": 3159,
      "tische": 3160,
      "h.": 3161,
      "cal": 3162,
      "gebühr": 3163,
      "kontin": 3164,
      "ausführ": 3165,
      "erne": 3166,
      "profession": 3167,
      "arbeitnehmer": 3168,
      "ägen": 3169,
      "stellten": 3170,
      "öffentliche": 3171,
      "agrar": 3172,
      "tätig": 3173,
      "moment": 3174,
      "kategorien": 3175,
      "station": 3176,
      "eindruck": 3177,
      "aufmerksamkeit": 3178,
      "wenige": 3179,
      "werke": 3180,
      "deten": 3181,
      "lösen": 3182,
      "christ": 3183,
      "bundes": 3184,
      "rü": 3185,
      "ski": 3186,
      "praxis": 3187,
      "opfer": 3188,
      "berat": 3189,
      "scher": 3190,
      "kal": 3191,
      "firmen": 3192,
      "termin": 3193,
      "well": 3194,
      "iens": 3195,
      "öffentlichkeit": 3196,
      "iges": 3197,
      "izie": 3198,
      "märz": 3199,
      "neues": 3200,
      "23": 3201,
      "198": 3202,
      "braucht": 3203,
      "regul": 3204,
      "wege": 3205,
      "falt": 3206,
      "stel": 3207,
      "verrin": 3208,
      "moderne": 3209,
      "this": 3210,
      "sequ": 3211,
      "gästebewertungen": 3212,
      "view": 3213,
      "jewei": 3214,
      "nive": 3215,
      "hle": 3216,
      "cd": 3217,
      "lag": 3218,
      "gerecht": 3219,
      "2003": 3220,
      "ohn": 3221,
      "hab": 3222,
      "fron": 3223,
      "profit": 3224,
      "ausdrück": 3225,
      "pack": 3226,
      "gelt": 3227,
      "dist": 3228,
      "transparenz": 3229,
      "zung": 3230,
      "boden": 3231,
      "fur": 3232,
      "registr": 3233,
      "laufen": 3234,
      "erwarten": 3235,
      "kleiner": 3236,
      "c.": 3237,
      "demokratischen": 3238,
      "versicher": 3239,
      "ib": 3240,
      "nacht": 3241,
      "gewöhn": 3242,
      "säm": 3243,
      "ona": 3244,
      "astrop": 3245,
      "dritt": 3246,
      "27": 3247,
      "vorsitz": 3248,
      "frem": 3249,
      "dorf": 3250,
      "kräfte": 3251,
      "ball": 3252,
      "schieden": 3253,
      "alisiert": 3254,
      "verantwortlich": 3255,
      "unmittel": 3256,
      "rechten": 3257,
      "niedr": 3258,
      "zy": 3259,
      "drit": 3260,
      "gewicht": 3261,
      "event": 3262,
      "band": 3263,
      "eingesetzt": 3264,
      "kriterien": 3265,
      "oktober": 3266,
      "gesprä": 3267,
      "val": 3268,
      "gemü": 3269,
      "las": 3270,
      "ungs-": 3271,
      "restaurants": 3272,
      "verständ": 3273,
      "erinner": 3274,
      "euch": 3275,
      "häuser": 3276,
      "angeboten": 3277,
      "konnten": 3278,
      "sat": 3279,
      "elektron": 3280,
      "apr": 3281,
      "asy": 3282,
      "ausgaben": 3283,
      "zeichnung": 3284,
      "märkte": 3285,
      "s.": 3286,
      "fu": 3287,
      "benötigen": 3288,
      "bewe": 3289,
      "mbh": 3290,
      "beziehen": 3291,
      "nationen": 3292,
      "januar": 3293,
      "abend": 3294,
      "katastrop": 3295,
      "erstens": 3296,
      "int": 3297,
      "tagesordnung": 3298,
      "bemühungen": 3299,
      "extre": 3300,
      "itor": 3301,
      "hilfen": 3302,
      "bürgern": 3303,
      "windows": 3304,
      "durchgeführt": 3305,
      "funktionen": 3306,
      "ierter": 3307,
      "pp": 3308,
      "kannst": 3309,
      "fei": 3310,
      "cre": 3311,
      "heben": 3312,
      "hause": 3313,
      "lebensmittel": 3314,
      "gebieten": 3315,
      "größte": 3316,
      "dete": 3317,
      "onnen": 3318,
      "programms": 3319,
      "ime": 3320,
      "pas": 3321,
      "wenden": 3322,
      "erneut": 3323,
      "gehend": 3324,
      "grat": 3325,
      "regierungs": 3326,
      "paket": 3327,
      "monaten": 3328,
      "sil": 3329,
      "künstler": 3330,
      "human": 3331,
      "japan": 3332,
      "center": 3333,
      "bilden": 3334,
      "aktuellen": 3335,
      "armut": 3336,
      "auffassung": 3337,
      "austau": 3338,
      "ergän": 3339,
      "bahnhof": 3340,
      "relig": 3341,
      "altet": 3342,
      "freuen": 3343,
      "sinne": 3344,
      "fertig": 3345,
      "schluß": 3346,
      "sorge": 3347,
      "sigen": 3348,
      "gmbh": 3349,
      "anken": 3350,
      "holz": 3351,
      "eichen": 3352,
      "spor": 3353,
      "2001": 3354,
      "äumen": 3355,
      "juli": 3356,
      "ces": 3357,
      "griffen": 3358,
      "auern": 3359,
      "press": 3360,
      "transport": 3361,
      "bill": 3362,
      "wortern": 3363,
      "richtige": 3364,
      "nachbar": 3365,
      "zeichnen": 3366,
      "kund": 3367,
      "spezial": 3368,
      "you": 3369,
      "geworden": 3370,
      "technischen": 3371,
      "haf": 3372,
      "eher": 3373,
      "verf": 3374,
      "offizie": 3375,
      "schönen": 3376,
      "vin": 3377,
      "langfrist": 3378,
      "geschaffen": 3379,
      "una": 3380,
      "ologie": 3381,
      "kamer": 3382,
      "ions": 3383,
      "bürgerinnen": 3384,
      "begrüße": 3385,
      "ierenden": 3386,
      "bauen": 3387,
      "getan": 3388,
      "vermei": 3389,
      "sex": 3390,
      "sechs": 3391,
      "unten": 3392,
      "erd": 3393,
      "deine": 3394,
      "begrenz": 3395,
      "kommunikation": 3396,
      "ändert": 3397,
      "schlusselwortern": 3398,
      "entsprechend": 3399,
      "hne": 3400,
      "gangs": 3401,
      "taus": 3402,
      "lizen": 3403,
      "but": 3404,
      "atmosphäre": 3405,
      "betrei": 3406,
      "igh": 3407,
      "einrichtung": 3408,
      "begl": 3409,
      "bedingt": 3410,
      "golf": 3411,
      "spannen": 3412,
      "col": 3413,
      "beitragen": 3414,
      "schwar": 3415,
      "wiederhol": 3416,
      "itzen": 3417,
      "strateg": 3418,
      "intens": 3419,
      "sichern": 3420,
      "aspekte": 3421,
      "entsprechenden": 3422,
      "ausgezeich": 3423,
      "ständige": 3424,
      "modern": 3425,
      "zuge": 3426,
      "behandelt": 3427,
      "nr.": 3428,
      "kooper": 3429,
      "genutz": 3430,
      "dir": 3431,
      "gewähl": 3432,
      "infra": 3433,
      "regelung": 3434,
      "betriebs": 3435,
      "ktiven": 3436,
      "zone": 3437,
      "verstanden": 3438,
      "herstellung": 3439,
      "hätten": 3440,
      "behalten": 3441,
      "prozent": 3442,
      "pflan": 3443,
      "parteien": 3444,
      "faktor": 3445,
      "medizin": 3446,
      "ran": 3447,
      "konzept": 3448,
      "erfolgt": 3449,
      "6.": 3450,
      "fügen": 3451,
      "innern": 3452,
      "welches": 3453,
      "besuchen": 3454,
      "adresse": 3455,
      "wirkung": 3456,
      "sammlung": 3457,
      "suche": 3458,
      "uell": 3459,
      "zuführen": 3460,
      "kapital": 3461,
      "verhältnis": 3462,
      "bett": 3463,
      "90": 3464,
      "belieb": 3465,
      "ati": 3466,
      "begrüßen": 3467,
      "gerin": 3468,
      "tätigkeit": 3469,
      "berücksichtigt": 3470,
      "verhindern": 3471,
      "2002": 3472,
      "vorhanden": 3473,
      "igin": 3474,
      "beginnen": 3475,
      "winter": 3476,
      "zuständig": 3477,
      "vent": 3478,
      "fik": 3479,
      "sachen": 3480,
      "ty": 3481,
      "paläst": 3482,
      "abschluss": 3483,
      "losen": 3484,
      "instrumente": 3485,
      "gewesen": 3486,
      "wünsche": 3487,
      "schöne": 3488,
      "beschäftig": 3489,
      "zerst": 3490,
      "gten": 3491,
      "schaden": 3492,
      "endlich": 3493,
      "alismus": 3494,
      "digt": 3495,
      "zeitraum": 3496,
      "fein": 3497,
      "anderem": 3498,
      "portug": 3499,
      "hafte": 3500,
      "versucht": 3501,
      "lit": 3502,
      "erfahrungen": 3503,
      "sterne": 3504,
      "wahrscheinlich": 3505,
      "attra": 3506,
      "zumin": 3507,
      "november": 3508,
      "angelegenheiten": 3509,
      "legten": 3510,
      "code": 3511,
      "leiden": 3512,
      "hervorragen": 3513,
      "reichen": 3514,
      "zumindest": 3515,
      "detail": 3516,
      "ieb": 3517,
      "gebiete": 3518,
      "ante": 3519,
      "rechtsvorschriften": 3520,
      "einfluss": 3521,
      "stehenden": 3522,
      "sse": 3523,
      "grü": 3524,
      "anerken": 3525,
      "ging": 3526,
      "ica": 3527,
      "hiel": 3528,
      "korre": 3529,
      "isiert": 3530,
      "weist": 3531,
      "jüng": 3532,
      "schützen": 3533,
      "rauch": 3534,
      "historischen": 3535,
      "april": 3536,
      "vereinbarung": 3537,
      "komplett": 3538,
      "kontext": 3539,
      "terrasse": 3540,
      "forschungs": 3541,
      "minde": 3542,
      "stad": 3543,
      "milliar": 3544,
      "überhaupt": 3545,
      "from": 3546,
      "lass": 3547,
      "niveau": 3548,
      "spanien": 3549,
      "modernen": 3550,
      "antrag": 3551,
      "ged": 3552,
      "ast": 3553,
      "erfüllen": 3554,
      "senden": 3555,
      "500": 3556,
      "sofern": 3557,
      "paris": 3558,
      "teten": 3559,
      "sper": 3560,
      "gesellschaften": 3561,
      "hersteller": 3562,
      "general": 3563,
      "hu": 3564,
      "außerhalb": 3565,
      "infrastruktur": 3566,
      "tiv": 3567,
      "mitten": 3568,
      "verfassung": 3569,
      "enn": 3570,
      "enter": 3571,
      "menge": 3572,
      "plätze": 3573,
      "kommissions": 3574,
      "emiss": 3575,
      "tief": 3576,
      "letzte": 3577,
      "aren": 3578,
      "reformen": 3579,
      "terrorismus": 3580,
      "irak": 3581,
      "üb": 3582,
      "erklärt": 3583,
      "meter": 3584,
      "getroffen": 3585,
      "berichterstatterin": 3586,
      "zahlreichen": 3587,
      "austausch": 3588,
      "zieren": 3589,
      "korr": 3590,
      "mitte": 3591,
      "amerika": 3592,
      "zusätzlich": 3593,
      "beschreibung": 3594,
      "nütz": 3595,
      "laut": 3596,
      "sim": 3597,
      "erhol": 3598,
      "lichkeiten": 3599,
      "illeg": 3600,
      "schwierigkeiten": 3601,
      "lager": 3602,
      "gesehen": 3603,
      "äre": 3604,
      "stets": 3605,
      "siehe": 3606,
      "4.": 3607,
      "uner": 3608,
      "sser": 3609,
      "entgegen": 3610,
      "respe": 3611,
      "steigen": 3612,
      "geg": 3613,
      "blu": 3614,
      "ausbildung": 3615,
      "verpflicht": 3616,
      "kenntnis": 3617,
      "wh": 3618,
      "vergangenheit": 3619,
      "ograf": 3620,
      "wagen": 3621,
      "behinder": 3622,
      "erinnern": 3623,
      "busin": 3624,
      "speicher": 3625,
      "erwartet": 3626,
      "gige": 3627,
      "mess": 3628,
      "rang": 3629,
      "angelegenheit": 3630,
      "ökon": 3631,
      "jeweiligen": 3632,
      "9.": 3633,
      "geschütz": 3634,
      "währung": 3635,
      "zahlt": 3636,
      "kol": 3637,
      "unterbr": 3638,
      "28": 3639,
      "amerikanischen": 3640,
      "uren": 3641,
      "richtlinien": 3642,
      "herunter": 3643,
      "anwendungen": 3644,
      "versorgung": 3645,
      "motor": 3646,
      "schreiten": 3647,
      "menschenrechts": 3648,
      "diskrimin": 3649,
      "tierung": 3650,
      "verpflichtet": 3651,
      "bet": 3652,
      "stellte": 3653,
      "verpflichtungen": 3654,
      "gelei": 3655,
      "zusetzen": 3656,
      "vorgehen": 3657,
      "langt": 3658,
      "worte": 3659,
      "strom": 3660,
      "geräte": 3661,
      "osten": 3662,
      "berichte": 3663,
      "technologien": 3664,
      "persönlichen": 3665,
      "abschließend": 3666,
      "erlaubt": 3667,
      "vision": 3668,
      "bade": 3669,
      "mä": 3670,
      "bessere": 3671,
      "länger": 3672,
      "orie": 3673,
      "sand": 3674,
      "einwander": 3675,
      "leistet": 3676,
      "finanziellen": 3677,
      "letzt": 3678,
      "immobil": 3679,
      "likt": 3680,
      "ction": 3681,
      "&gt": 3682,
      "&gt;": 3683,
      "nationale": 3684,
      "seines": 3685,
      "gren": 3686,
      "mögen": 3687,
      "vielfalt": 3688,
      "schule": 3689,
      "annahme": 3690,
      "downlo": 3691,
      "deutsche": 3692,
      "ausschließlich": 3693,
      "risiko": 3694,
      "business": 3695,
      "fi": 3696,
      "iran": 3697,
      "bitten": 3698,
      "nei": 3699,
      "genug": 3700,
      "tifiz": 3701,
      "weiten": 3702,
      "pc": 3703,
      "konsequ": 3704,
      "barer": 3705,
      "herausforderungen": 3706,
      "othe": 3707,
      "doll": 3708,
      "tauch": 3709,
      "landschaft": 3710,
      "automatisch": 3711,
      "käu": 3712,
      "origin": 3713,
      "bit": 3714,
      "heutigen": 3715,
      "status": 3716,
      "5.": 3717,
      "zusätzliche": 3718,
      "genutzt": 3719,
      "verlu": 3720,
      "speziell": 3721,
      "privaten": 3722,
      "altungen": 3723,
      "zukünf": 3724,
      "name": 3725,
      "regen": 3726,
      "straf": 3727,
      "cle": 3728,
      "start": 3729,
      "dynam": 3730,
      "willkommen": 3731,
      "22": 3732,
      "usw.": 3733,
      "solidarität": 3734,
      "stock": 3735,
      "gekommen": 3736,
      "hinsicht": 3737,
      "netzwerk": 3738,
      "meister": 3739,
      "still": 3740,
      "hostel": 3741,
      "villa": 3742,
      "genehm": 3743,
      "servic": 3744,
      "äne": 3745,
      "mitteilung": 3746,
      "aktionen": 3747,
      "konflikt": 3748,
      "verlei": 3749,
      "führte": 3750,
      "übernehmen": 3751,
      "partnerschaft": 3752,
      "messe": 3753,
      "iö": 3754,
      "slo": 3755,
      "technische": 3756,
      "nummer": 3757,
      "tan": 3758,
      "ki": 3759,
      "train": 3760,
      "konzer": 3761,
      "ehemal": 3762,
      "arbeitsplätze": 3763,
      "shop": 3764,
      "tert": 3765,
      "ständen": 3766,
      "besucher": 3767,
      "beziehung": 3768,
      "analyse": 3769,
      "erleben": 3770,
      "stren": 3771,
      "zahlung": 3772,
      "bat": 3773,
      "wesentlichen": 3774,
      "falle": 3775,
      "museum": 3776,
      "schafft": 3777,
      "losigkeit": 3778,
      "viertel": 3779,
      "ada": 3780,
      "kritik": 3781,
      "gleiche": 3782,
      "maxim": 3783,
      "phil": 3784,
      "selben": 3785,
      "effizienz": 3786,
      "ferner": 3787,
      "ruhe": 3788,
      "zerstör": 3789,
      "kürz": 3790,
      "lands": 3791,
      "zuver": 3792,
      "kro": 3793,
      "neg": 3794,
      "strengungen": 3795,
      "bildungs": 3796,
      "sätze": 3797,
      "grunde": 3798,
      "1999": 3799,
      "kaum": 3800,
      "rum": 3801,
      "inhalte": 3802,
      "poliz": 3803,
      "klass": 3804,
      "immern": 3805,
      "leitung": 3806,
      "anteil": 3807,
      "vorteile": 3808,
      "danach": 3809,
      "titel": 3810,
      "indung": 3811,
      "benutzen": 3812,
      "mittelmeer": 3813,
      "loc": 3814,
      "haften": 3815,
      "gesche": 3816,
      "sehens": 3817,
      "produktions": 3818,
      "normal": 3819,
      "veröffentlich": 3820,
      "positiv": 3821,
      "cli": 3822,
      "einkauf": 3823,
      "spart": 3824,
      "vorsitzen": 3825,
      "achtet": 3826,
      "monat": 3827,
      "darstellt": 3828,
      "bruch": 3829,
      "häl": 3830,
      "friedens": 3831,
      "hauses": 3832,
      "bul": 3833,
      "mäch": 3834,
      "besonderen": 3835,
      "wald": 3836,
      "qualitäts": 3837,
      "idee": 3838,
      "bemerk": 3839,
      "hinweisen": 3840,
      "argu": 3841,
      "ierende": 3842,
      "appar": 3843,
      "größere": 3844,
      "dringend": 3845,
      "dische": 3846,
      "fördert": 3847,
      "betre": 3848,
      "methoden": 3849,
      "pä": 3850,
      "aktuelle": 3851,
      "milliarden": 3852,
      "umfan": 3853,
      "eingehen": 3854,
      "umfangreich": 3855,
      "stärken": 3856,
      "ideal": 3857,
      "presse": 3858,
      "möglicherweise": 3859,
      "lieben": 3860,
      "anstrengungen": 3861,
      "fenster": 3862,
      "eindeutig": 3863,
      "king": 3864,
      "entschieden": 3865,
      "beitritts": 3866,
      "top": 3867,
      "räume": 3868,
      "finde": 3869,
      "mitgliedstaat": 3870,
      "benutzt": 3871,
      "format": 3872,
      "www.": 3873,
      "bedroh": 3874,
      "dach": 3875,
      "präsent": 3876,
      "unbedingt": 3877,
      "andi": 3878,
      "ison": 3879,
      "ordent": 3880,
      "mittag": 3881,
      "ökonom": 3882,
      "nel": 3883,
      "kompromiss": 3884,
      "kreis": 3885,
      "uern": 3886,
      "ager": 3887,
      "liefert": 3888,
      "pag": 3889,
      "reicht": 3890,
      "reag": 3891,
      "city": 3892,
      "mindestens": 3893,
      "lat": 3894,
      "geschäf": 3895,
      "now": 3896,
      "wesentlich": 3897,
      "grenze": 3898,
      "erleich": 3899,
      "zustimmung": 3900,
      "gress": 3901,
      "beschlossen": 3902,
      "tain": 3903,
      "cy": 3904,
      "flei": 3905,
      "rechnung": 3906,
      "entspricht": 3907,
      "kirche": 3908,
      "dollar": 3909,
      "stunde": 3910,
      "hintergrund": 3911,
      "anerkennung": 3912,
      "hochwer": 3913,
      "ök": 3914,
      "sobald": 3915,
      "cap": 3916,
      "nahr": 3917,
      "initiativen": 3918,
      "hoffen": 3919,
      "fläch": 3920,
      "überzeugt": 3921,
      "sent": 3922,
      "quar": 3923,
      "verfügbar": 3924,
      "tlichen": 3925,
      "sorg": 3926,
      "führten": 3927,
      "sonnen": 3928,
      "entschließungsan": 3929,
      "sauber": 3930,
      "vorgelegt": 3931,
      "block": 3932,
      "durchführung": 3933,
      "gewiesen": 3934,
      "chtet": 3935,
      "fund": 3936,
      "haupts": 3937,
      "dritten": 3938,
      ",5": 3939,
      "dimen": 3940,
      "begriff": 3941,
      "uellen": 3942,
      "ama": 3943,
      "berücksichtigen": 3944,
      "spunkt": 3945,
      "autor": 3946,
      "verwaltungs": 3947,
      "prüfen": 3948,
      "erwähnt": 3949,
      "sicherlich": 3950,
      "entsprechende": 3951,
      "gegrün": 3952,
      "mt": 3953,
      "augu": 3954,
      "gefühl": 3955,
      "genannt": 3956,
      "farben": 3957,
      "erneuer": 3958,
      "andererseits": 3959,
      "klang": 3960,
      "schlaf": 3961,
      "nachfolgen": 3962,
      "stor": 3963,
      "pop": 3964,
      "schau": 3965,
      "ruf": 3966,
      "quellen": 3967,
      "hon": 3968,
      "angegeben": 3969,
      "london": 3970,
      "vorteil": 3971,
      "open": 3972,
      "stattung": 3973,
      "back": 3974,
      "erstellen": 3975,
      "schü": 3976,
      "näher": 3977,
      "unterschiedlichen": 3978,
      "club": 3979,
      "35": 3980,
      "gezeigt": 3981,
      "entweder": 3982,
      "angaben": 3983,
      "vorbereit": 3984,
      "trotzdem": 3985,
      "rele": 3986,
      "une": 3987,
      "stern": 3988,
      "mio": 3989,
      "züg": 3990,
      "chines": 3991,
      "enor": 3992,
      "sup": 3993,
      "para": 3994,
      "warten": 3995,
      "zeption": 3996,
      "bestimmt": 3997,
      "ergreifen": 3998,
      "arischen": 3999,
      "öffnen": 4000,
      "zuletzt": 4001,
      "omen": 4002,
      "mehreren": 4003,
      "ienten": 4004,
      "verständnis": 4005,
      "med": 4006,
      "marken": 4007,
      "verabschie": 4008,
      "finanzielle": 4009,
      "sichten": 4010,
      "maschine": 4011,
      "ay": 4012,
      "ance": 4013,
      "mack": 4014,
      "geeignet": 4015,
      "engage": 4016,
      "akzeptieren": 4017,
      "erkannt": 4018,
      "willen": 4019,
      "palästinen": 4020,
      "mic": 4021,
      "systemen": 4022,
      "gelöst": 4023,
      "angene": 4024,
      "formular": 4025,
      "cent": 4026,
      "methode": 4027,
      "derzei": 4028,
      "artigen": 4029,
      "ausgew": 4030,
      "angesprochen": 4031,
      "eln": 4032,
      "breite": 4033,
      "pake": 4034,
      "pon": 4035,
      "bio": 4036,
      "ry": 4037,
      "verbin": 4038,
      "werten": 4039,
      "world": 4040,
      "monate": 4041,
      "rufen": 4042,
      "tive": 4043,
      "homepage": 4044,
      "erf": 4045,
      "cc": 4046,
      "zentrale": 4047,
      "elegan": 4048,
      "weite": 4049,
      "darunter": 4050,
      "bewertung": 4051,
      "globalen": 4052,
      "größe": 4053,
      "kindern": 4054,
      "entstehen": 4055,
      "197": 4056,
      "gerungen": 4057,
      "eingerichtet": 4058,
      "reserv": 4059,
      "eitung": 4060,
      "grundsatz": 4061,
      "norm": 4062,
      "zo": 4063,
      "sicherzustellen": 4064,
      "bestehenden": 4065,
      "gehalten": 4066,
      "pau": 4067,
      "kommenden": 4068,
      "jene": 4069,
      "bilität": 4070,
      "download": 4071,
      "chance": 4072,
      "ätzen": 4073,
      "rüst": 4074,
      "mis": 4075,
      "stem": 4076,
      "mos": 4077,
      "vereinfach": 4078,
      "entwurf": 4079,
      "polizei": 4080,
      "begrün": 4081,
      "klei": 4082,
      "erzielt": 4083,
      "ano": 4084,
      "ologischen": 4085,
      "veränderungen": 4086,
      "leiten": 4087,
      "empfehlen": 4088,
      "notwendigen": 4089,
      "august": 4090,
      "läuft": 4091,
      "dagegen": 4092,
      "erde": 4093,
      "serie": 4094,
      "voller": 4095,
      "gerichtshof": 4096,
      "isen": 4097,
      "anderes": 4098,
      "griechen": 4099,
      "unterkategorien": 4100,
      "roll": 4101,
      "stechn": 4102,
      "seh": 4103,
      "welcher": 4104,
      "kopf": 4105,
      "gegenwärtig": 4106,
      "informieren": 4107,
      "sämtliche": 4108,
      "einigung": 4109,
      "festgelegt": 4110,
      "gewinn": 4111,
      "bern": 4112,
      "vermeiden": 4113,
      "geändert": 4114,
      "yor": 4115,
      "steuern": 4116,
      "dich": 4117,
      "umfang": 4118,
      "zimmern": 4119,
      "prop": 4120,
      "45": 4121,
      "anbie": 4122,
      "wettbewerbsfähigkeit": 4123,
      "umgesetzt": 4124,
      "angebote": 4125,
      "erfüllt": 4126,
      "vereinten": 4127,
      "manch": 4128,
      "komponen": 4129,
      "lastung": 4130,
      "cam": 4131,
      "gs": 4132,
      "bereitet": 4133,
      "barcel": 4134,
      "geschehen": 4135,
      "ary": 4136,
      "schweiz": 4137,
      "trägt": 4138,
      "mik": 4139,
      "regelungen": 4140,
      "fit": 4141,
      "til": 4142,
      "fortschritt": 4143,
      "gal": 4144,
      "kil": 4145,
      "fluss": 4146,
      "britann": 4147,
      "ukra": 4148,
      "ufen": 4149,
      "kandi": 4150,
      "ochen": 4151,
      "unabhängig": 4152,
      "that": 4153,
      "wien": 4154,
      "plen": 4155,
      "beitritt": 4156,
      "11.": 4157,
      "bewegung": 4158,
      "gegensei": 4159,
      "getragen": 4160,
      "deleg": 4161,
      "gutes": 4162,
      "behaup": 4163,
      "hnung": 4164,
      "besei": 4165,
      "mögliche": 4166,
      "problemen": 4167,
      "hard": 4168,
      "pft": 4169,
      "market": 4170,
      "lab": 4171,
      "jederzeit": 4172,
      "überwachung": 4173,
      "reden": 4174,
      "gelassen": 4175,
      "teilweise": 4176,
      "boot": 4177,
      "21": 4178,
      "camp": 4179,
      "kunde": 4180,
      "jeweil": 4181,
      "arn": 4182,
      "gewinnen": 4183,
      "tere": 4184,
      "via": 4185,
      "krie": 4186,
      "300": 4187,
      "akte": 4188,
      "sige": 4189,
      "abgeordnete": 4190,
      "übereinkommen": 4191,
      "übernachten": 4192,
      "ml": 4193,
      "symb": 4194,
      "fair": 4195,
      "küste": 4196,
      "lizenz": 4197,
      "ausgewogen": 4198,
      "ado": 4199,
      "fällt": 4200,
      "unterschied": 4201,
      "schwä": 4202,
      "febr": 4203,
      "absolut": 4204,
      "news": 4205,
      "dv": 4206,
      "teren": 4207,
      "wohnung": 4208,
      "12.": 4209,
      "jeweils": 4210,
      "vermie": 4211,
      "rob": 4212,
      "dex": 4213,
      "eingeschrän": 4214,
      "teilnehmer": 4215,
      "gewün": 4216,
      "zoll": 4217,
      "februar": 4218,
      "möglichst": 4219,
      "schwierig": 4220,
      "fleisch": 4221,
      "schir": 4222,
      "isieren": 4223,
      "kapaz": 4224,
      "stattfinden": 4225,
      "denk": 4226,
      "gerät": 4227,
      "staatlichen": 4228,
      "etc.": 4229,
      "tiere": 4230,
      "erzielen": 4231,
      "klasse": 4232,
      "webseite": 4233,
      "erzie": 4234,
      "benach": 4235,
      "angezeigt": 4236,
      "nachfolgend": 4237,
      "ausgehen": 4238,
      "gelangen": 4239,
      "interne": 4240,
      "zuvor": 4241,
      "debian": 4242,
      "deswegen": 4243,
      "zellen": 4244,
      "misch": 4245,
      "onom": 4246,
      "dritte": 4247,
      "ding": 4248,
      "glaub": 4249,
      "täglich": 4250,
      "polen": 4251,
      "klare": 4252,
      "absatz": 4253,
      "av": 4254,
      "immobilien": 4255,
      "erfolgen": 4256,
      "glas": 4257,
      "rest": 4258,
      "betroffenen": 4259,
      "einhaltung": 4260,
      "deutsch": 4261,
      "zit": 4262,
      "ausdrücklich": 4263,
      "funktioniert": 4264,
      "bedauer": 4265,
      "unbe": 4266,
      "verfolgen": 4267,
      "traum": 4268,
      "beachten": 4269,
      "texte": 4270,
      "verbessert": 4271,
      "mass": 4272,
      "richtet": 4273,
      "zustand": 4274,
      "tsche": 4275,
      "flie": 4276,
      "entschlossen": 4277,
      "erstellt": 4278,
      "verlassen": 4279,
      "wären": 4280,
      "tourismus": 4281,
      "erhöhen": 4282,
      "gründe": 4283,
      "fahrer": 4284,
      "elemente": 4285,
      "prüfung": 4286,
      "sammel": 4287,
      "zählen": 4288,
      "spir": 4289,
      "qualifiz": 4290,
      "hre": 4291,
      "geräum": 4292,
      "wohner": 4293,
      "zielen": 4294,
      "steuerung": 4295,
      "städte": 4296,
      "foto": 4297,
      "ated": 4298,
      "maßen": 4299,
      "betonen": 4300,
      "prozesses": 4301,
      "jur": 4302,
      "unterschiedliche": 4303,
      "manchmal": 4304,
      "jour": 4305,
      "beschluss": 4306,
      "richtigen": 4307,
      "trägen": 4308,
      "kind": 4309,
      "rechnungs": 4310,
      "tierten": 4311,
      "lokalen": 4312,
      "linux": 4313,
      "bud": 4314,
      "aspekt": 4315,
      "wollte": 4316,
      "private": 4317,
      "fuhr": 4318,
      "konfigur": 4319,
      "funktionieren": 4320,
      "allgemein": 4321,
      "modul": 4322,
      "streben": 4323,
      "geschmack": 4324,
      "alisieren": 4325,
      "sum": 4326,
      "ni": 4327,
      "klimawandel": 4328,
      "prioritäten": 4329,
      "grad": 4330,
      "architektur": 4331,
      "tierte": 4332,
      "großbritann": 4333,
      "papier": 4334,
      "währungs": 4335,
      "geschwind": 4336,
      "mangel": 4337,
      "verfahrens": 4338,
      "veranstaltungen": 4339,
      "cur": 4340,
      "syn": 4341,
      "verpflichtung": 4342,
      "lla": 4343,
      "normen": 4344,
      "allgemeine": 4345,
      "licherweise": 4346,
      "konkrete": 4347,
      "installation": 4348,
      "darstellen": 4349,
      "einiger": 4350,
      "pflicht": 4351,
      "mutter": 4352,
      "swert": 4353,
      "gefordert": 4354,
      "ausgang": 4355,
      "staff": 4356,
      "höchst": 4357,
      "dium": 4358,
      "ideen": 4359,
      "profitieren": 4360,
      "unterkunft": 4361,
      "entwicklungen": 4362,
      "ky": 4363,
      "ón": 4364,
      "nennen": 4365,
      "engagement": 4366,
      "dimension": 4367,
      "zugän": 4368,
      "ffet": 4369,
      "roh": 4370,
      "s-": 4371,
      "statten": 4372,
      "vielfäl": 4373,
      "nutzer": 4374,
      "ktieren": 4375,
      "einkommen": 4376,
      "brüssel": 4377,
      "aussicht": 4378,
      "ograph": 4379,
      "zig": 4380,
      "tool": 4381,
      "programmen": 4382,
      "beteiligung": 4383,
      "überprüfen": 4384,
      "bewahr": 4385,
      "überra": 4386,
      "beihilfen": 4387,
      "cs": 4388,
      "flächen": 4389,
      "berge": 4390,
      "bab": 4391,
      "flücht": 4392,
      "verehr": 4393,
      "brow": 4394,
      "wenigen": 4395,
      "gestalten": 4396,
      "volution": 4397,
      "gericht": 4398,
      "7.": 4399,
      "sehenswürdig": 4400,
      "kompli": 4401,
      "verbot": 4402,
      "digit": 4403,
      "strei": 4404,
      "been": 4405,
      "studien": 4406,
      "entspannen": 4407,
      "kostenlos": 4408,
      "daraus": 4409,
      "kulturellen": 4410,
      "herzlich": 4411,
      "durchaus": 4412,
      "ose": 4413,
      "quem": 4414,
      "196": 4415,
      "patienten": 4416,
      "jahrzehn": 4417,
      "pil": 4418,
      "gn": 4419,
      "pflanzen": 4420,
      "ida": 4421,
      "bedenken": 4422,
      "work": 4423,
      "benötigt": 4424,
      "datenbank": 4425,
      "übertragen": 4426,
      "freue": 4427,
      "veröffentlicht": 4428,
      "schlüsse": 4429,
      "igreich": 4430,
      "link": 4431,
      "erleb": 4432,
      "mitgliedern": 4433,
      "zugleich": 4434,
      "gewährleistet": 4435,
      "bedürfnisse": 4436,
      "königreich": 4437,
      "nächste": 4438,
      "heimat": 4439,
      "gran": 4440,
      "peratur": 4441,
      "ident": 4442,
      "tschech": 4443,
      "unterstr": 4444,
      "verloren": 4445,
      "unterschei": 4446,
      "sar": 4447,
      "offensichtlich": 4448,
      "persönlich": 4449,
      "atom": 4450,
      "geschrieben": 4451,
      "abgeschlossen": 4452,
      "erklären": 4453,
      "gegründet": 4454,
      "services": 4455,
      "soweit": 4456,
      "fähig": 4457,
      "sicherung": 4458,
      "starke": 4459,
      "uld": 4460,
      "übertrag": 4461,
      "herausforderung": 4462,
      "fotos": 4463,
      "vorbe": 4464,
      "innovation": 4465,
      "phase": 4466,
      "amster": 4467,
      "führungs": 4468,
      "mio.": 4469,
      "strukturen": 4470,
      "behörde": 4471,
      "betrachtet": 4472,
      "entdeck": 4473,
      "positive": 4474,
      "grenzüber": 4475,
      "hop": 4476,
      "etz": 4477,
      "ros": 4478,
      "meeres": 4479,
      "erscheint": 4480,
      "haber": 4481,
      "19.": 4482,
      "konzentrieren": 4483,
      "betten": 4484,
      "gestaltung": 4485,
      "genü": 4486,
      "tut": 4487,
      "amt": 4488,
      "dipl": 4489,
      "gebrauch": 4490,
      "überall": 4491,
      "iat": 4492,
      "stellungnahme": 4493,
      "bele": 4494,
      "angehör": 4495,
      "booking": 4496,
      "anmel": 4497,
      "lig": 4498,
      "ieht": 4499,
      "platt": 4500,
      "gelungen": 4501,
      "freut": 4502,
      "diskutieren": 4503,
      "ünf": 4504,
      "antie": 4505,
      "haut": 4506,
      "französischen": 4507,
      "bir": 4508,
      "lligen": 4509,
      "extrem": 4510,
      "entschließungsantrag": 4511,
      "afrika": 4512,
      "lesung": 4513,
      "symbol": 4514,
      "schm": 4515,
      "ischem": 4516,
      "ät": 4517,
      "8.": 4518,
      "zählt": 4519,
      "drogen": 4520,
      "gesetzgebung": 4521,
      "hielt": 4522,
      "miteinander": 4523,
      "flüge": 4524,
      "verbrechen": 4525,
      "deck": 4526,
      "kamera": 4527,
      "26": 4528,
      "entrum": 4529,
      "sehenswürdigkeiten": 4530,
      "bequem": 4531,
      "jahrhunderts": 4532,
      "bereiten": 4533,
      "trop": 4534,
      "maße": 4535,
      "befug": 4536,
      "mun": 4537,
      "barcelona": 4538,
      "jungen": 4539,
      "geh": 4540,
      "mittels": 4541,
      "planung": 4542,
      "legte": 4543,
      "arbeitslosigkeit": 4544,
      "geleitet": 4545,
      "schloss": 4546,
      "entdecken": 4547,
      "politischer": 4548,
      "eller": 4549,
      "dol": 4550,
      "geleistet": 4551,
      "st.": 4552,
      "jährigen": 4553,
      "geplan": 4554,
      "rumän": 4555,
      "könig": 4556,
      "damals": 4557,
      "auseinander": 4558,
      "gesetze": 4559,
      "rand": 4560,
      "endgül": 4561,
      "ausgewähl": 4562,
      "bor": 4563,
      "passt": 4564,
      "rö": 4565,
      "card": 4566,
      "punkten": 4567,
      "wirkt": 4568,
      "vollkommen": 4569,
      "menü": 4570,
      "pet": 4571,
      "kungen": 4572,
      "umfasst": 4573,
      "renov": 4574,
      "way": 4575,
      "hauptstadt": 4576,
      "reaktion": 4577,
      "folgende": 4578,
      "steurop": 4579,
      "regionalen": 4580,
      "vari": 4581,
      "garantiert": 4582,
      "üche": 4583,
      "atoren": 4584,
      "flor": 4585,
      "schulen": 4586,
      "englisch": 4587,
      "universität": 4588,
      "--": 4589,
      "ausstattung": 4590,
      "exklus": 4591,
      "verbindungen": 4592,
      "schäden": 4593,
      "kampag": 4594,
      "feststellen": 4595,
      "demokratische": 4596,
      "kla": 4597,
      "vas": 4598,
      "fell": 4599,
      "landwir": 4600,
      "verteidigung": 4601,
      "haltet": 4602,
      "okraten": 4603,
      "erforderlichen": 4604,
      "bö": 4605,
      "spezielle": 4606,
      "unt": 4607,
      "chancen": 4608,
      "führenden": 4609,
      "kaufen": 4610,
      "ons": 4611,
      "etten": 4612,
      "niemand": 4613,
      "einfache": 4614,
      "migr": 4615,
      "gedanken": 4616,
      "izi": 4617,
      "distri": 4618,
      "koso": 4619,
      "raucher": 4620,
      "gold": 4621,
      "live": 4622,
      "vernünf": 4623,
      "tab": 4624,
      "verfolgt": 4625,
      "gott": 4626,
      "vielzahl": 4627,
      "stärkung": 4628,
      "strategien": 4629,
      "uver": 4630,
      "schauen": 4631,
      "voran": 4632,
      "großbritannien": 4633,
      "defiz": 4634,
      "prozesse": 4635,
      "aufsicht": 4636,
      "nahm": 4637,
      "großes": 4638,
      "einsetzen": 4639,
      "vielmehr": 4640,
      "stands": 4641,
      "verfol": 4642,
      "break": 4643,
      "hilfs": 4644,
      "hingewiesen": 4645,
      "swi": 4646,
      "farb": 4647,
      "cer": 4648,
      "abkommens": 4649,
      "nahrungs": 4650,
      "materialien": 4651,
      "anschluss": 4652,
      "sonn": 4653,
      "free": 4654,
      "element": 4655,
      "definition": 4656,
      "risiken": 4657,
      "ometer": 4658,
      "zauber": 4659,
      "rechtlichen": 4660,
      "bay": 4661,
      "ghan": 4662,
      "hes": 4663,
      "büro": 4664,
      "ologische": 4665,
      "justiz": 4666,
      "abr": 4667,
      "äg": 4668,
      "beur": 4669,
      "relativ": 4670,
      "oso": 4671,
      "weiterer": 4672,
      "datenschutz": 4673,
      "experten": 4674,
      "betrachten": 4675,
      "micro": 4676,
      "besitzt": 4677,
      "konvention": 4678,
      "verträge": 4679,
      "ppe": 4680,
      "ratsvorsitz": 4681,
      "schulden": 4682,
      "buffet": 4683,
      "zugriff": 4684,
      "orte": 4685,
      "winden": 4686,
      "gebil": 4687,
      "eingeführt": 4688,
      "streit": 4689,
      "ez": 4690,
      "gegenwärtigen": 4691,
      "einger": 4692,
      "cia": 4693,
      "irland": 4694,
      "geschützt": 4695,
      "öffnung": 4696,
      "eintr": 4697,
      "lück": 4698,
      "internationaler": 4699,
      "box": 4700,
      "wichtigste": 4701,
      "kas": 4702,
      "gratul": 4703,
      "bekannten": 4704,
      "gebe": 4705,
      "tot": 4706,
      "ana": 4707,
      "wellness": 4708,
      "messen": 4709,
      "umfassende": 4710,
      "inseln": 4711,
      "knü": 4712,
      "atlan": 4713,
      "konto": 4714,
      "priorität": 4715,
      "geschäftsordnung": 4716,
      "projekten": 4717,
      "temperatur": 4718,
      "gästen": 4719,
      "minim": 4720,
      "bezeichnet": 4721,
      "mitglieds": 4722,
      "unterstütze": 4723,
      "gros": 4724,
      "merken": 4725,
      "cat": 4726,
      "redner": 4727,
      "exter": 4728,
      "käufer": 4729,
      "ennen": 4730,
      "keinerlei": 4731,
      "gestern": 4732,
      "20.": 4733,
      "erwer": 4734,
      "arab": 4735,
      "rezeption": 4736,
      "mini": 4737,
      "islam": 4738,
      "stoffen": 4739,
      "westen": 4740,
      "erkennt": 4741,
      "arme": 4742,
      "diplom": 4743,
      "berichten": 4744,
      "vorliegenden": 4745,
      "ya": 4746,
      "ideale": 4747,
      "effektiv": 4748,
      "zustimmen": 4749,
      "andt": 4750,
      "blog": 4751,
      "bestätigt": 4752,
      "ient": 4753,
      "europäer": 4754,
      "diesel": 4755,
      "persönliche": 4756,
      "empfän": 4757,
      "fahrzeug": 4758,
      "entscheidungs": 4759,
      "arm": 4760,
      "wachstums": 4761,
      "fand": 4762,
      "praktisch": 4763,
      "beginnt": 4764,
      "apparte": 4765,
      "pres": 4766,
      "erklärungen": 4767,
      "beteiligt": 4768,
      "massen": 4769,
      "bibli": 4770,
      "booking.com": 4771,
      "bindung": 4772,
      "hinweis": 4773,
      "istisch": 4774,
      "anbieter": 4775,
      "10.": 4776,
      "uelle": 4777,
      "üben": 4778,
      "matik": 4779,
      "beweg": 4780,
      "branche": 4781,
      "wto": 4782,
      "asien": 4783,
      "indien": 4784,
      "ausreichend": 4785,
      "audio": 4786,
      "set": 4787,
      "freiwill": 4788,
      "jun": 4789,
      "proze": 4790,
      "ruhigen": 4791,
      "zahlungs": 4792,
      "tabel": 4793,
      "phot": 4794,
      "lieferung": 4795,
      "frank": 4796,
      "altstadt": 4797,
      "lege": 4798,
      "stö": 4799,
      "hergestellt": 4800,
      "grünen": 4801,
      "sieben": 4802,
      "nachrichten": 4803,
      "dokumente": 4804,
      "wortet": 4805,
      "1998": 4806,
      "forum": 4807,
      "ike": 4808,
      "diskriminierung": 4809,
      "geschwindigkeit": 4810,
      "eigenschaften": 4811,
      "beratung": 4812,
      "feuer": 4813,
      "good": 4814,
      "generation": 4815,
      "stadtz": 4816,
      "marktes": 4817,
      "sens": 4818,
      "lob": 4819,
      "ye": 4820,
      "zuerst": 4821,
      "bewäl": 4822,
      "schritten": 4823,
      "gezogen": 4824,
      "tagung": 4825,
      "voraussetzungen": 4826,
      "haushaltsplan": 4827,
      "alternative": 4828,
      "demon": 4829,
      "müs": 4830,
      "griechenland": 4831,
      "selten": 4832,
      "maler": 4833,
      "nötig": 4834,
      "brück": 4835,
      "hi": 4836,
      "entspann": 4837,
      "fremden": 4838,
      "agenda": 4839,
      "stör": 4840,
      "teilnehmen": 4841,
      "größeren": 4842,
      "kosovo": 4843,
      "ukraine": 4844,
      "überzeug": 4845,
      "austr": 4846,
      "dring": 4847,
      "beinhaltet": 4848,
      "werbe": 4849,
      "sym": 4850,
      "garantieren": 4851,
      "drän": 4852,
      "ratifiz": 4853,
      "globalisierung": 4854,
      "pin": 4855,
      "administ": 4856,
      "ergeben": 4857,
      "bras": 4858,
      "freunde": 4859,
      "ickt": 4860,
      "starken": 4861,
      "kö": 4862,
      "its": 4863,
      "solcher": 4864,
      "festiv": 4865,
      "modi": 4866,
      "sah": 4867,
      "humanitä": 4868,
      "ffee": 4869,
      "geschle": 4870,
      "ai": 4871,
      "browser": 4872,
      "vermögen": 4873,
      "kommunikations": 4874,
      "verbundenen": 4875,
      "genannte": 4876,
      "männer": 4877,
      "gerufen": 4878,
      "junge": 4879,
      "digital": 4880,
      "speziellen": 4881,
      "flexibilität": 4882,
      "bewegen": 4883,
      "scho": 4884,
      "händ": 4885,
      "21.": 4886,
      "ish": 4887,
      "unabhängigkeit": 4888,
      "betrieben": 4889,
      "high": 4890,
      "anliegen": 4891,
      "todes": 4892,
      "stahl": 4893,
      "demokraten": 4894,
      "istik": 4895,
      "apartments": 4896,
      "erwachsen": 4897,
      "ales": 4898,
      "leiter": 4899,
      "welchen": 4900,
      "tau": 4901,
      "sky": 4902,
      "leb": 4903,
      "cop": 4904,
      "hängt": 4905,
      "märkten": 4906,
      "garantie": 4907,
      "kohä": 4908,
      "has": 4909,
      "botschaft": 4910,
      "beglück": 4911,
      "radio": 4912,
      "kandidaten": 4913,
      "teuer": 4914,
      "szen": 4915,
      "assungs": 4916,
      "verzeich": 4917,
      "isation": 4918,
      "iso": 4919,
      "rate": 4920,
      "york": 4921,
      "laufe": 4922,
      "kohäsion": 4923,
      "äger": 4924,
      "ablen": 4925,
      "hren": 4926,
      "ärm": 4927,
      ",00": 4928,
      "britischen": 4929,
      "geöffnet": 4930,
      "abil": 4931,
      "bedien": 4932,
      "oker": 4933,
      "matisch": 4934,
      "isl": 4935,
      "taten": 4936,
      "dia": 4937,
      "gegenteil": 4938,
      "angel": 4939,
      "kriegs": 4940,
      "erscheinen": 4941,
      "bla": 4942,
      "unterschiede": 4943,
      "stol": 4944,
      "gewal": 4945,
      "wör": 4946,
      "verhinder": 4947,
      "kore": 4948,
      "beschäftigungs": 4949,
      "bro": 4950,
      "guter": 4951,
      "bert": 4952,
      "lehnt": 4953,
      "auso": 4954,
      "geheim": 4955,
      "bulgar": 4956,
      "dr.": 4957,
      "krisen": 4958,
      "seien": 4959,
      "empfehlungen": 4960,
      "häfen": 4961,
      "erhöht": 4962,
      "vater": 4963,
      "überprüfung": 4964,
      "ereignisse": 4965,
      "diver": 4966,
      "32": 4967,
      "maßnahme": 4968,
      "refer": 4969,
      "afghan": 4970,
      "urt": 4971,
      "armen": 4972,
      "asyl": 4973,
      "saison": 4974,
      "were": 4975,
      "mindest": 4976,
      "betreu": 4977,
      "ara": 4978,
      "angriff": 4979,
      "hauptsächlich": 4980,
      "betrag": 4981,
      "finn": 4982,
      "einzelne": 4983,
      "wohnungen": 4984,
      "rent": 4985,
      "liberalisierung": 4986,
      "inzwischen": 4987,
      "és": 4988,
      "isol": 4989,
      "mittelt": 4990,
      "kreu": 4991,
      "amsterdam": 4992,
      "fraktionen": 4993,
      "zz": 4994,
      "igte": 4995,
      "ads": 4996,
      "prim": 4997,
      "informiert": 4998,
      "freiheiten": 4999,
      "politiker": 5000,
      "ungleich": 5001,
      "vene": 5002,
      "qualit": 5003,
      "tö": 5004,
      "nehmern": 5005,
      "freundliche": 5006,
      "sites": 5007,
      "verlangen": 5008,
      "durchschnitt": 5009,
      "kranken": 5010,
      "dro": 5011,
      "hrt": 5012,
      "öder": 5013,
      "mac": 5014,
      "verändert": 5015,
      "nein": 5016,
      "gegensatz": 5017,
      "legisl": 5018,
      "außerordent": 5019,
      "sorgfäl": 5020,
      "fahrzeuge": 5021,
      "house": 5022,
      "kontinent": 5023,
      "36": 5024,
      "grand": 5025,
      "ausland": 5026,
      "cks": 5027,
      "hälfte": 5028,
      "einverstanden": 5029,
      "tod": 5030,
      "kompetenz": 5031,
      "kürzlich": 5032,
      "komponenten": 5033,
      "realität": 5034,
      "v.": 5035,
      "geschieht": 5036,
      "echte": 5037,
      "genauso": 5038,
      "konkur": 5039,
      "ling": 5040,
      "deiner": 5041,
      "mall": 5042,
      "nationaler": 5043,
      "bestandteil": 5044,
      "besorg": 5045,
      "contr": 5046,
      "unternehmer": 5047,
      "zufolge": 5048,
      "bibliothe": 5049,
      "nachhaltige": 5050,
      "bungen": 5051,
      "gebühren": 5052,
      "einerseits": 5053,
      "schneller": 5054,
      "klim": 5055,
      "erhöhung": 5056,
      "verste": 5057,
      "revolution": 5058,
      "lige": 5059,
      "nahen": 5060,
      "frühstücks": 5061,
      "liefern": 5062,
      "emissionen": 5063,
      "over": 5064,
      "verarbeitung": 5065,
      "salz": 5066,
      "täu": 5067,
      "präsentiert": 5068,
      "langsam": 5069,
      "gewisse": 5070,
      "einkaufs": 5071,
      "regelmäßig": 5072,
      "auslän": 5073,
      "freude": 5074,
      "teilnahme": 5075,
      "süden": 5076,
      "einzigen": 5077,
      "ico": 5078,
      "psy": 5079,
      "studie": 5080,
      "freit": 5081,
      "jüngsten": 5082,
      "schre": 5083,
      "journ": 5084,
      "berühmten": 5085,
      "buchen": 5086,
      "verlust": 5087,
      "....": 5088,
      "put": 5089,
      "kontinu": 5090,
      "orten": 5091,
      "hoffnung": 5092,
      "xi": 5093,
      "uno": 5094,
      "perspe": 5095,
      "gewissen": 5096,
      "manche": 5097,
      "umgeben": 5098,
      "beteiligten": 5099,
      "ausgesetzt": 5100,
      "df": 5101,
      "grundrechte": 5102,
      "kontrollen": 5103,
      "beraten": 5104,
      "absicht": 5105,
      "anp": 5106,
      "angs": 5107,
      "minderheiten": 5108,
      "festgestellt": 5109,
      "cial": 5110,
      "ratspräsident": 5111,
      "media": 5112,
      "oler": 5113,
      "politisch": 5114,
      "power": 5115,
      "vorbereitung": 5116,
      "veran": 5117,
      "zugänglich": 5118,
      "betrug": 5119,
      "verurs": 5120,
      "regional": 5121,
      "einst": 5122,
      "zahlungen": 5123,
      "breakfast": 5124,
      "unternommen": 5125,
      "bauern": 5126,
      "gewünsch": 5127,
      "europe": 5128,
      "vorgeschlagenen": 5129,
      "expor": 5130,
      "prüf": 5131,
      "prise": 5132,
      "besseren": 5133,
      "treiben": 5134,
      "griech": 5135,
      "anbieten": 5136,
      "güter": 5137,
      "zuverläss": 5138,
      "autob": 5139,
      "fle": 5140,
      "meist": 5141,
      "breit": 5142,
      "jährlich": 5143,
      "weiteres": 5144,
      "klaren": 5145,
      "partnern": 5146,
      "einstellung": 5147,
      "begei": 5148,
      "kombination": 5149,
      "ordnungs": 5150,
      "aka": 5151,
      "voraussetzung": 5152,
      "plus": 5153,
      "blut": 5154,
      "mol": 5155,
      "18.": 5156,
      "erfordert": 5157,
      "dun": 5158,
      "time": 5159,
      "norden": 5160,
      "have": 5161,
      "demonstr": 5162,
      "wol": 5163,
      "widerspr": 5164,
      "vieler": 5165,
      "29": 5166,
      "klimaanlage": 5167,
      "übernommen": 5168,
      "wesentliche": 5169,
      "anpassung": 5170,
      "kroat": 5171,
      "institut": 5172,
      "marketing": 5173,
      "gesetzes": 5174,
      "niederlan": 5175,
      "details": 5176,
      "versammlung": 5177,
      "wall": 5178,
      "fühlen": 5179,
      "farbe": 5180,
      "vorhaben": 5181,
      "basiert": 5182,
      "nichtraucher": 5183,
      "ott": 5184,
      "pfer": 5185,
      "abhängig": 5186,
      "schwerpunkt": 5187,
      "vermitt": 5188,
      "vorschlagen": 5189,
      "starten": 5190,
      "gefahren": 5191,
      "sing": 5192,
      "15.": 5193,
      "ismen": 5194,
      "ausstellung": 5195,
      "fragt": 5196,
      "solange": 5197,
      "werfen": 5198,
      "fertigt": 5199,
      "mission": 5200,
      "auftreten": 5201,
      "ust": 5202,
      "bergen": 5203,
      "leun": 5204,
      "trifft": 5205,
      "transpor": 5206,
      "beschleun": 5207,
      "nochmals": 5208,
      "schließt": 5209,
      "ahnen": 5210,
      "spartner": 5211,
      "ausgabe": 5212,
      "touristen": 5213,
      "ausnahme": 5214,
      "wendet": 5215,
      "manager": 5216,
      "geboren": 5217,
      "safe": 5218,
      "koordinierung": 5219,
      "anfragen": 5220,
      "zweifell": 5221,
      "bene": 5222,
      "flik": 5223,
      "intensiv": 5224,
      "überzeugen": 5225,
      "nachfrage": 5226,
      "anstatt": 5227,
      "eltern": 5228,
      "beschäftigt": 5229,
      "prüft": 5230,
      "zweifellos": 5231,
      "later": 5232,
      "stop": 5233,
      "quelle": 5234,
      "original": 5235,
      "beauftrag": 5236,
      "kategorie": 5237,
      "prinzipien": 5238,
      "ash": 5239,
      "plik": 5240,
      "fac": 5241,
      "llung": 5242,
      "verfügbarkeit": 5243,
      "untersuchung": 5244,
      "wodurch": 5245,
      "entlich": 5246,
      "diskutiert": 5247,
      "besetz": 5248,
      "strö": 5249,
      "einschrän": 5250,
      "betracht": 5251,
      "delt": 5252,
      "alien": 5253,
      "traditionellen": 5254,
      "geschäfte": 5255,
      "eist": 5256,
      "fitness": 5257,
      "annehm": 5258,
      "board": 5259,
      "studio": 5260,
      "48": 5261,
      "züge": 5262,
      "angeht": 5263,
      "konflik": 5264,
      "reagieren": 5265,
      "theater": 5266,
      "imple": 5267,
      "wicklung": 5268,
      "seitens": 5269,
      "stellungs": 5270,
      "sektors": 5271,
      "utt": 5272,
      "beweis": 5273,
      "grenzüberschreiten": 5274,
      "zern": 5275,
      "beeinfl": 5276,
      "spezifischen": 5277,
      "let": 5278,
      "bezieht": 5279,
      "satell": 5280,
      "regionale": 5281,
      "gewählt": 5282,
      "weshalb": 5283,
      "höchste": 5284,
      "preisen": 5285,
      "hart": 5286,
      "entstanden": 5287,
      "1997": 5288,
      "beam": 5289,
      "spür": 5290,
      "wässer": 5291,
      "verzö": 5292,
      "flot": 5293,
      "wegs": 5294,
      "kit": 5295,
      "raft": 5296,
      "verteilung": 5297,
      "äng": 5298,
      "zel": 5299,
      "globale": 5300,
      "hängen": 5301,
      "kabel": 5302,
      "german": 5303,
      "faktoren": 5304,
      "group": 5305,
      "fie": 5306,
      "schweden": 5307,
      "zusatz": 5308,
      "zir": 5309,
      "datum": 5310,
      "läuf": 5311,
      "sucht": 5312,
      "wahrheit": 5313,
      "iker": 5314,
      "geträn": 5315,
      "drittens": 5316,
      "stehende": 5317,
      "ping": 5318,
      "sound": 5319,
      "kurzem": 5320,
      "sensi": 5321,
      "grundsätze": 5322,
      "stadtzentrum": 5323,
      "iode": 5324,
      "einstellungen": 5325,
      "seg": 5326,
      "mlich": 5327,
      "teils": 5328,
      "schutzes": 5329,
      "location": 5330,
      "krankheit": 5331,
      "feier": 5332,
      "veranstaltung": 5333,
      "ql": 5334,
      "impor": 5335,
      "schirm": 5336,
      "bä": 5337,
      "regelmäß": 5338,
      "spezifische": 5339,
      "jung": 5340,
      "behandeln": 5341,
      "krankheiten": 5342,
      "linge": 5343,
      "freizeit": 5344,
      "haftung": 5345,
      "stift": 5346,
      "itze": 5347,
      "räumen": 5348,
      "zwungen": 5349,
      "positiven": 5350,
      "leitlinien": 5351,
      "signal": 5352,
      "your": 5353,
      "erläu": 5354,
      "akzeptiert": 5355,
      "1,": 5356,
      "brie": 5357,
      "meinungs": 5358,
      "asen": 5359,
      "bemühen": 5360,
      "standort": 5361,
      "achen": 5362,
      "mr": 5363,
      "psych": 5364,
      "75": 5365,
      "wirtschafts-": 5366,
      "prote": 5367,
      "zurückzu": 5368,
      "jährige": 5369,
      "reduz": 5370,
      "kollege": 5371,
      "diskussionen": 5372,
      "betont": 5373,
      "provin": 5374,
      "lassung": 5375,
      "frien": 5376,
      "begann": 5377,
      "trin": 5378,
      "ics": 5379,
      "vorschlägen": 5380,
      "vig": 5381,
      "vit": 5382,
      "historische": 5383,
      "platten": 5384,
      "schlecht": 5385,
      "prem": 5386,
      "rasch": 5387,
      "keines": 5388,
      "prozeß": 5389,
      "berühr": 5390,
      "ally": 5391,
      "optionen": 5392,
      "gam": 5393,
      "ambien": 5394,
      "fut": 5395,
      "ländlichen": 5396,
      "marke": 5397,
      "ogle": 5398,
      "vorrang": 5399,
      "sicherstellen": 5400,
      "kühl": 5401,
      "verantwortungs": 5402,
      "schien": 5403,
      "regime": 5404,
      "pi": 5405,
      "gearbeitet": 5406,
      "jemand": 5407,
      "runde": 5408,
      "isse": 5409,
      "entlang": 5410,
      "afrikan": 5411,
      "auben": 5412,
      "ecu": 5413,
      "verstärkt": 5414,
      "gänge": 5415,
      "umständen": 5416,
      "400": 5417,
      "annt": 5418,
      "aktive": 5419,
      "microsoft": 5420,
      "mern": 5421,
      "bildet": 5422,
      "portugal": 5423,
      "wid": 5424,
      "begonnen": 5425,
      "unmittelbar": 5426,
      "ration": 5427,
      "ctor": 5428,
      "wichtiges": 5429,
      "hoher": 5430,
      "unterschiedlich": 5431,
      "brasil": 5432,
      "intelligen": 5433,
      "kooperation": 5434,
      "extra": 5435,
      "buchung": 5436,
      "ript": 5437,
      "beiträge": 5438,
      "email": 5439,
      "komment": 5440,
      "gebunden": 5441,
      "bürokrat": 5442,
      "betriebe": 5443,
      "ersatz": 5444,
      "verlieren": 5445,
      "urlau": 5446,
      "dvd": 5447,
      "ple": 5448,
      "virtu": 5449,
      "falsch": 5450,
      "moral": 5451,
      "profil": 5452,
      "rüstung": 5453,
      "dru": 5454,
      "wil": 5455,
      "folgerungen": 5456,
      "erb": 5457,
      "google": 5458,
      "italienischen": 5459,
      "mehrwert": 5460,
      "alp": 5461,
      "katastrophen": 5462,
      "fla": 5463,
      "palästinens": 5464,
      "tp": 5465,
      "einklang": 5466,
      "fehlen": 5467,
      "mechanismen": 5468,
      "spaz": 5469,
      "tigten": 5470,
      "bör": 5471,
      "strukturfonds": 5472,
      "hierbei": 5473,
      "kos": 5474,
      "univer": 5475,
      "enterprise": 5476,
      "fuer": 5477,
      "beschrieben": 5478,
      "verlän": 5479,
      "17.": 5480,
      "kämpfen": 5481,
      "ehemaligen": 5482,
      "ergriffen": 5483,
      "gestellten": 5484,
      "zonen": 5485,
      "wiederum": 5486,
      "show": 5487,
      "befassen": 5488,
      "rt": 5489,
      "suite": 5490,
      "150": 5491,
      "plattform": 5492,
      "erör": 5493,
      "werbung": 5494,
      "ola": 5495,
      "unsten": 5496,
      "werken": 5497,
      "vorgenommen": 5498,
      "berücksichtigung": 5499,
      "erlauben": 5500,
      "derzeitigen": 5501,
      "einwanderung": 5502,
      "besorgnis": 5503,
      "territor": 5504,
      "33": 5505,
      "schätzen": 5506,
      "gering": 5507,
      "gepä": 5508,
      "landwirte": 5509,
      "gleicher": 5510,
      "wissenschaftlichen": 5511,
      "speichert": 5512,
      "amerikanische": 5513,
      "php": 5514,
      "außergewöhn": 5515,
      "zwecke": 5516,
      "konkreten": 5517,
      "delegation": 5518,
      "poker": 5519,
      "alb": 5520,
      "anerkannt": 5521,
      "abschnitt": 5522,
      "gemeinde": 5523,
      "ole": 5524,
      "vorschlags": 5525,
      "journal": 5526,
      "dienstleistungs": 5527,
      "aktuell": 5528,
      "mechanismus": 5529,
      "liter": 5530,
      "änden": 5531,
      "bucht": 5532,
      "know": 5533,
      "gespräche": 5534,
      "ambiente": 5535,
      "schnei": 5536,
      "erzeugnisse": 5537,
      "geehr": 5538,
      "scheinen": 5539,
      "sied": 5540,
      "studenten": 5541,
      "institutionellen": 5542,
      "transfer": 5543,
      "mex": 5544,
      "erhältlich": 5545,
      "zielt": 5546,
      "hilft": 5547,
      "fax": 5548,
      "engag": 5549,
      "ain": 5550,
      "luxur": 5551,
      "klin": 5552,
      "zentren": 5553,
      "entscheidend": 5554,
      "player": 5555,
      "staatliche": 5556,
      "oly": 5557,
      "gesicht": 5558,
      "geschen": 5559,
      "absich": 5560,
      "vereinbarungen": 5561,
      "brand": 5562,
      "osoph": 5563,
      "mob": 5564,
      "inne": 5565,
      "umfassenden": 5566,
      "ini": 5567,
      "sanktionen": 5568,
      "arr": 5569,
      "eten": 5570,
      "dusche": 5571,
      "mau": 5572,
      "anwes": 5573,
      "kaffee": 5574,
      "arbeitsmarkt": 5575,
      "nes": 5576,
      "panor": 5577,
      "begeg": 5578,
      "kulturelle": 5579,
      "künftig": 5580,
      "sau": 5581,
      "halle": 5582,
      "ehrgei": 5583,
      "badezimmer": 5584,
      "sele": 5585,
      "cket": 5586,
      "spanischen": 5587,
      "kau": 5588,
      "berufs": 5589,
      "decken": 5590,
      "popul": 5591,
      "kilometer": 5592,
      "ters": 5593,
      "1996": 5594,
      "modelle": 5595,
      "casino": 5596,
      "beispiele": 5597,
      "arische": 5598,
      "ernähr": 5599,
      "heil": 5600,
      "latein": 5601,
      "herrscht": 5602,
      "beach": 5603,
      "dos": 5604,
      "empfehlung": 5605,
      "verfassungs": 5606,
      "pakete": 5607,
      "höhere": 5608,
      "direkte": 5609,
      "dé": 5610,
      "support": 5611,
      "lot": 5612,
      "harmonisierung": 5613,
      "cell": 5614,
      "other": 5615,
      "beifall": 5616,
      "heber": 5617,
      "wohnen": 5618,
      "strafe": 5619,
      "menschlichen": 5620,
      "differ": 5621,
      "verpack": 5622,
      "verletzungen": 5623,
      "frankfur": 5624,
      "renten": 5625,
      "bekannte": 5626,
      "jegliche": 5627,
      "klas": 5628,
      "38": 5629,
      "ziemlich": 5630,
      "rechtliche": 5631,
      "day": 5632,
      "nik": 5633,
      "aufen": 5634,
      "ausführung": 5635,
      "herrschen": 5636,
      "strahl": 5637,
      "positionen": 5638,
      "gegend": 5639,
      "apartment": 5640,
      "aktivieren": 5641,
      "subst": 5642,
      "detaill": 5643,
      "eröffnet": 5644,
      "16.": 5645,
      "füllen": 5646,
      "sorgt": 5647,
      "organisiert": 5648,
      "mitgliedschaft": 5649,
      "freundlich": 5650,
      "händler": 5651,
      "kommerzie": 5652,
      "pension": 5653,
      "verbesserungen": 5654,
      "prag": 5655,
      "kapitel": 5656,
      "lasten": 5657,
      "kurze": 5658,
      "ausser": 5659,
      "zentralen": 5660,
      "schweizer": 5661,
      "schmer": 5662,
      "fangen": 5663,
      "griffe": 5664,
      "ohlen": 5665,
      "problems": 5666,
      "schuld": 5667,
      "front": 5668,
      "schnelle": 5669,
      "main": 5670,
      "eigenes": 5671,
      "fotograf": 5672,
      "zulegen": 5673,
      "metall": 5674,
      "milch": 5675,
      "stolz": 5676,
      "pläne": 5677,
      "fähigkeiten": 5678,
      "ktions": 5679,
      "stoßen": 5680,
      "himm": 5681,
      "küsten": 5682,
      "wirklichkeit": 5683,
      "ias": 5684,
      "niemals": 5685,
      "geboten": 5686,
      "bereitschaft": 5687,
      "yer": 5688,
      "breiten": 5689,
      "interessiert": 5690,
      "date": 5691,
      "miß": 5692,
      "installiert": 5693,
      "centr": 5694,
      "führende": 5695,
      "charta": 5696,
      "ony": 5697,
      "hervorragende": 5698,
      "konzep": 5699,
      "spartei": 5700,
      "sä": 5701,
      "entz": 5702,
      "ausgezeichnete": 5703,
      "glaubwürdig": 5704,
      "amen": 5705,
      "klärung": 5706,
      "195": 5707,
      "zunehmend": 5708,
      "pflich": 5709,
      "erlebnis": 5710,
      "felder": 5711,
      "erwartungen": 5712,
      "ones": 5713,
      "offenen": 5714,
      "münchen": 5715,
      "arbeitern": 5716,
      "tausende": 5717,
      "städten": 5718,
      "trend": 5719,
      "derartige": 5720,
      "sorgan": 5721,
      "gegangen": 5722,
      "besitzen": 5723,
      "übrigens": 5724,
      "verbringen": 5725,
      "sinnvoll": 5726,
      "tast": 5727,
      "konver": 5728,
      "phys": 5729,
      "stärke": 5730,
      "zusätzlichen": 5731,
      "grundsätzlich": 5732,
      "herkunft": 5733,
      "ktiver": 5734,
      "weile": 5735,
      "schönsten": 5736,
      "schätzung": 5737,
      "hom": 5738,
      "anzeigen": 5739,
      "amts": 5740,
      "gepäck": 5741,
      "gefördert": 5742,
      "bou": 5743,
      "urheber": 5744,
      "egal": 5745,
      "parame": 5746,
      "uppen": 5747,
      "zieht": 5748,
      "turn": 5749,
      "berechtigt": 5750,
      "mittelpunkt": 5751,
      "anwendungs": 5752,
      "ierend": 5753,
      "gy": 5754,
      "erweitert": 5755,
      "34": 5756,
      "master": 5757,
      "versionen": 5758,
      "russischen": 5759,
      "kamen": 5760,
      "beträgt": 5761,
      "bestimmung": 5762,
      "bestellung": 5763,
      "agrarpolitik": 5764,
      "korrup": 5765,
      "orgt": 5766,
      "baum": 5767,
      "sehe": 5768,
      "publi": 5769,
      "saal": 5770,
      "balkon": 5771,
      "anspruchs": 5772,
      "anzei": 5773,
      "zwingen": 5774,
      "kehren": 5775,
      "schiffe": 5776,
      "nachzu": 5777,
      "staates": 5778,
      "ungefähr": 5779,
      "grundlegenden": 5780,
      "filter": 5781,
      "ikas": 5782,
      "einig": 5783,
      "neuesten": 5784,
      "natürlichen": 5785,
      "nato": 5786,
      "umfeld": 5787,
      "verändern": 5788,
      "schwierigen": 5789,
      "religiö": 5790,
      "arz": 5791,
      "key": 5792,
      "transa": 5793,
      "neter": 5794,
      "tags": 5795,
      "politiken": 5796,
      "weisung": 5797,
      "motiv": 5798,
      "schicken": 5799,
      "fassen": 5800,
      "künfte": 5801,
      "nahrungsmittel": 5802,
      "fang": 5803,
      "tom": 5804,
      "werkzeug": 5805,
      "tir": 5806,
      "muster": 5807,
      "betreffenden": 5808,
      "vertra": 5809,
      "sektoren": 5810,
      "weltweiten": 5811,
      "sekre": 5812,
      "stärkt": 5813,
      "01": 5814,
      "übersetzung": 5815,
      "centre": 5816,
      "m.": 5817,
      "eisenbahn": 5818,
      "schlafzimmer": 5819,
      "verbreitung": 5820,
      "beabsich": 5821,
      "laufenden": 5822,
      "ament": 5823,
      "ethn": 5824,
      "perfekt": 5825,
      "hinzufügen": 5826,
      "höchsten": 5827,
      "gewonnen": 5828,
      "eins": 5829,
      "räum": 5830,
      "schwim": 5831,
      "rit": 5832,
      "haar": 5833,
      "chron": 5834,
      "konkurr": 5835,
      "ermu": 5836,
      "günstig": 5837,
      "male": 5838,
      "hell": 5839,
      "stande": 5840,
      "schatten": 5841,
      "onomie": 5842,
      "luxem": 5843,
      "tos": 5844,
      "gründung": 5845,
      "pot": 5846,
      "grundlegende": 5847,
      "quer": 5848,
      "http": 5849,
      "habt": 5850,
      "wak": 5851,
      "verlangt": 5852,
      "ek": 5853,
      "änderungsanträgen": 5854,
      "ont": 5855,
      "ausgezeichneten": 5856,
      "situationen": 5857,
      "kostet": 5858,
      "aufzunehmen": 5859,
      "ausgesprochen": 5860,
      "bemüht": 5861,
      "konsens": 5862,
      "beträch": 5863,
      "distrib": 5864,
      "export": 5865,
      "produziert": 5866,
      "kräften": 5867,
      "bearbeitung": 5868,
      "opposition": 5869,
      "bos": 5870,
      "spitzen": 5871,
      "übersetz": 5872,
      "hierzu": 5873,
      "durchzuführen": 5874,
      "modernis": 5875,
      "roma": 5876,
      "einfachen": 5877,
      "cm": 5878,
      "wetter": 5879,
      "notwendige": 5880,
      "sauna": 5881,
      "patent": 5882,
      "ala": 5883,
      "deln": 5884,
      "anschließend": 5885,
      "betreuung": 5886,
      "begeister": 5887,
      "westlichen": 5888,
      "tabe": 5889,
      "verehrte": 5890,
      "überzeugung": 5891,
      "13.": 5892,
      "graf": 5893,
      "ursprünglich": 5894,
      "sonne": 5895,
      "quis": 5896,
      "echten": 5897,
      "entwicklungsländern": 5898,
      "ursprünglichen": 5899,
      "werks": 5900,
      "entwickelten": 5901,
      "lebt": 5902,
      "kw": 5903,
      "schwarz": 5904,
      "jer": 5905,
      "angst": 5906,
      "schung": 5907,
      "interessant": 5908,
      "speichern": 5909,
      "37": 5910,
      "ausgeschlossen": 5911,
      "zucker": 5912,
      "legungen": 5913,
      "speisen": 5914,
      "erheblich": 5915,
      "interessante": 5916,
      "vic": 5917,
      "anschließen": 5918,
      "ates": 5919,
      "versand": 5920,
      "stud": 5921,
      "interpre": 5922,
      "philosoph": 5923,
      "ausführungen": 5924,
      "vot": 5925,
      "friend": 5926,
      "zial": 5927,
      "abgelehnt": 5928,
      "bücher": 5929,
      "ausgangspunkt": 5930,
      "ré": 5931,
      "abstimm": 5932,
      "deckt": 5933,
      "aktien": 5934,
      "alters": 5935,
      "angehen": 5936,
      "beizu": 5937,
      "individuell": 5938,
      "sichert": 5939,
      "hervorheben": 5940,
      "zweit": 5941,
      "ügen": 5942,
      "wirklichen": 5943,
      "übereinstimmung": 5944,
      "gratulieren": 5945,
      "pic": 5946,
      "umzusetzen": 5947,
      "expl": 5948,
      "fordere": 5949,
      "eingeschränkt": 5950,
      "klu": 5951,
      "linken": 5952,
      "musste": 5953,
      "solar": 5954,
      "drucken": 5955,
      "intervention": 5956,
      "akten": 5957,
      "hing": 5958,
      "produktiv": 5959,
      "vollständige": 5960,
      "rea": 5961,
      "verknü": 5962,
      "archiv": 5963,
      "osteurop": 5964,
      "strecke": 5965,
      "zuständigkeit": 5966,
      "mischen": 5967,
      "übernimmt": 5968,
      "alli": 5969,
      "letztlich": 5970,
      "offenbar": 5971,
      "iegen": 5972,
      "komme": 5973,
      "websites": 5974,
      "installieren": 5975,
      "bestimmen": 5976,
      "genehmigung": 5977,
      "ppen": 5978,
      "anrei": 5979,
      "strich": 5980,
      "poln": 5981,
      "annehmen": 5982,
      "semin": 5983,
      "liegenden": 5984,
      "riesigen": 5985,
      "katastrophe": 5986,
      "künftigen": 5987,
      "client": 5988,
      "verursacht": 5989,
      "zö": 5990,
      "mutz": 5991,
      "plug": 5992,
      "föder": 5993,
      "gleichgewicht": 5994,
      "caf": 5995,
      "u.a.": 5996,
      "bars": 5997,
      "uchten": 5998,
      "schlägt": 5999,
      "kab": 6000,
      "eingang": 6001,
      "bekämpfen": 6002,
      "fehlt": 6003,
      "stoß": 6004,
      "ratspräsidentschaft": 6005,
      "schönheit": 6006,
      "costa": 6007,
      "festlegung": 6008,
      "spektr": 6009,
      "wiegen": 6010,
      "aufgefordert": 6011,
      "säu": 6012,
      "geprä": 6013,
      "ziffer": 6014,
      "öffentlich": 6015,
      "ente": 6016,
      "abl": 6017,
      "infolge": 6018,
      "oberfläche": 6019,
      "rumänien": 6020,
      "iertes": 6021,
      "schwach": 6022,
      "domin": 6023,
      "tigte": 6024,
      "lautet": 6025,
      "inklus": 6026,
      "ausgestat": 6027,
      "souver": 6028,
      "kmu": 6029,
      "verschiedener": 6030,
      "erwähn": 6031,
      "enttäu": 6032,
      "pfei": 6033,
      "vorder": 6034,
      "bestätigen": 6035,
      "kontinuier": 6036,
      "kä": 6037,
      "fiel": 6038,
      "vertrau": 6039,
      "paten": 6040,
      "eth": 6041,
      "commun": 6042,
      "lokale": 6043,
      "gerü": 6044,
      "orts": 6045,
      "aktiven": 6046,
      "sidi": 6047,
      "angesehen": 6048,
      "gestatten": 6049,
      "herunterladen": 6050,
      "d.h.": 6051,
      "cos": 6052,
      "herausge": 6053,
      "sty": 6054,
      "dikt": 6055,
      "bour": 6056,
      "vid": 6057,
      "39": 6058,
      "tungs": 6059,
      "holen": 6060,
      "gig": 6061,
      "verlauf": 6062,
      "alkoh": 6063,
      "kurse": 6064,
      "ave": 6065,
      "drittländern": 6066,
      "bezahlen": 6067,
      "verschmutz": 6068,
      "angew": 6069,
      "gegebenen": 6070,
      "verletzung": 6071,
      "gefangen": 6072,
      "olymp": 6073,
      "festival": 6074,
      "koch": 6075,
      "ägyp": 6076,
      "fällig": 6077,
      "beschränkt": 6078,
      "zuständigen": 6079,
      "serviert": 6080,
      "arbeitsplatz": 6081,
      "iums": 6082,
      "durchführen": 6083,
      "kolon": 6084,
      "untersuchungen": 6085,
      "beglückwünschen": 6086,
      "alkohol": 6087,
      "ron": 6088,
      "distribution": 6089,
      "stür": 6090,
      "kurzen": 6091,
      "aufnehmen": 6092,
      "ergänzen": 6093,
      "kurzfrist": 6094,
      "spaß": 6095,
      "erreichbar": 6096,
      "einzigartige": 6097,
      "mengen": 6098,
      "klau": 6099,
      "cook": 6100,
      "zugunsten": 6101,
      "ausgezeichnet": 6102,
      "co2": 6103,
      "ls": 6104,
      "netze": 6105,
      "mung": 6106,
      "mobilität": 6107,
      "paralle": 6108,
      "angemessene": 6109,
      "agenturen": 6110,
      "ziplin": 6111,
      "check": 6112,
      "begriffen": 6113,
      "therap": 6114,
      "eure": 6115,
      "brut": 6116,
      "letzter": 6117,
      "nahezu": 6118,
      "ignor": 6119,
      "word": 6120,
      "nachhaltigen": 6121,
      "internets": 6122,
      "denkt": 6123,
      "infl": 6124,
      "spiegel": 6125,
      "einwohner": 6126,
      "separ": 6127,
      "bemerkungen": 6128,
      "automobil": 6129,
      "platte": 6130,
      "himmel": 6131,
      "geprüft": 6132,
      "aktionsplan": 6133,
      "möbel": 6134,
      "drücken": 6135,
      "analys": 6136,
      "kapit": 6137,
      "pdf": 6138,
      "appell": 6139,
      "konvent": 6140,
      "konzern": 6141,
      "hebung": 6142,
      "arbeitsplätzen": 6143,
      "pflege": 6144,
      "zulassen": 6145,
      "ley": 6146,
      "verlie": 6147,
      "sodass": 6148,
      "balkan": 6149,
      "works": 6150,
      "disziplin": 6151,
      "veröffentlichung": 6152,
      "relev": 6153,
      "hagen": 6154,
      "wechseln": 6155,
      "zertifiz": 6156,
      "ypern": 6157,
      "verabschiedet": 6158,
      "99": 6159,
      "geringer": 6160,
      "otion": 6161,
      "letter": 6162,
      "neun": 6163,
      "verringerung": 6164,
      "diplomat": 6165,
      "ée": 6166,
      "entwicklungsländer": 6167,
      "nunmehr": 6168,
      "rooms": 6169,
      "raums": 6170,
      "befugnisse": 6171,
      "umgang": 6172,
      "ankun": 6173,
      "bean": 6174,
      "sparen": 6175,
      "kampagne": 6176,
      "tis": 6177,
      "parkplatz": 6178,
      "dreh": 6179,
      "früheren": 6180,
      "definiert": 6181,
      "zypern": 6182,
      "georg": 6183,
      "einzigar": 6184,
      "verzeichnis": 6185,
      "außenpolitik": 6186,
      "videos": 6187,
      "erholung": 6188,
      "oster": 6189,
      "too": 6190,
      "webseiten": 6191,
      "premier": 6192,
      "solu": 6193,
      "sag": 6194,
      "ny": 6195,
      "wlan": 6196,
      "afghanistan": 6197,
      "14.": 6198,
      "galer": 6199,
      "bislang": 6200,
      "subsidi": 6201,
      "erhebliche": 6202,
      "plenum": 6203,
      "bol": 6204,
      "2020": 6205,
      "vous": 6206,
      "spazier": 6207,
      "ungarn": 6208,
      "kette": 6209,
      "übertragung": 6210,
      "jam": 6211,
      "lässlich": 6212,
      "regierungskonferenz": 6213,
      "pie": 6214,
      "festge": 6215,
      "verleihen": 6216,
      "grös": 6217,
      "unmöglich": 6218,
      "1995": 6219,
      "kongress": 6220,
      "individuelle": 6221,
      "gestaltet": 6222,
      "big": 6223,
      "eingegangen": 6224,
      "freitag": 6225,
      "einbeziehung": 6226,
      "cham": 6227,
      "tifik": 6228,
      "fertigung": 6229,
      "izient": 6230,
      "tent": 6231,
      "bewusstsein": 6232,
      "ato": 6233,
      "global": 6234,
      "heizung": 6235,
      "klausel": 6236,
      "wissens": 6237,
      "ando": 6238,
      "verhindert": 6239,
      "street": 6240,
      "geräten": 6241,
      "ankunft": 6242,
      "hervorge": 6243,
      "abgestimmt": 6244,
      "identität": 6245,
      "gleichheit": 6246,
      "äischen": 6247,
      "residen": 6248,
      "mittleren": 6249,
      "mobile": 6250,
      "stit": 6251,
      "straft": 6252,
      "schick": 6253,
      "ors": 6254,
      "zähl": 6255,
      "einträch": 6256,
      "cess": 6257,
      "wild": 6258,
      "iser": 6259,
      "wollten": 6260,
      "letztendlich": 6261,
      "gelder": 6262,
      "europäisches": 6263,
      "hostels": 6264,
      "john": 6265,
      "gb": 6266,
      "ars": 6267,
      "sorgfältig": 6268,
      "gegenstand": 6269,
      "sichere": 6270,
      "kenntnisse": 6271,
      "there": 6272,
      "befehl": 6273,
      "verhaltens": 6274,
      "views": 6275,
      "bip": 6276,
      "ione": 6277,
      "welchem": 6278,
      "entsteht": 6279,
      "ussen": 6280,
      "anstieg": 6281,
      "direkten": 6282,
      "verbinden": 6283,
      "bord": 6284,
      "gefallen": 6285,
      "mischung": 6286,
      "präz": 6287,
      "inmitten": 6288,
      "passiert": 6289,
      "98": 6290,
      "vieles": 6291,
      "gespeichert": 6292,
      "klick": 6293,
      "oc": 6294,
      "stes": 6295,
      "stieg": 6296,
      "anwender": 6297,
      "fundament": 6298,
      "ox": 6299,
      "geäußer": 6300,
      "gespielt": 6301,
      "ical": 6302,
      "beeinträch": 6303,
      "besich": 6304,
      "anmerk": 6305,
      "bekräf": 6306,
      "bemerken": 6307,
      "luxus": 6308,
      "chinesischen": 6309,
      "hundert": 6310,
      "ähnlich": 6311,
      "belie": 6312,
      "freunden": 6313,
      "bestehende": 6314,
      "begrüßt": 6315,
      "satelliten": 6316,
      "unabhän": 6317,
      "ohnt": 6318,
      "nör": 6319,
      "itzer": 6320,
      "ruhig": 6321,
      "einheitlichen": 6322,
      "medika": 6323,
      "bilanz": 6324,
      "normalerweise": 6325,
      "konserv": 6326,
      "ausgeführt": 6327,
      "geltenden": 6328,
      "ugh": 6329,
      "erleichtern": 6330,
      "dahin": 6331,
      "bom": 6332,
      "dal": 6333,
      "zentralbank": 6334,
      "tic": 6335,
      "innovative": 6336,
      "vorstellung": 6337,
      "iste": 6338,
      "sow": 6339,
      "vorlegen": 6340,
      "grosse": 6341,
      "organisieren": 6342,
      "vize": 6343,
      "mord": 6344,
      "vergn": 6345,
      "host": 6346,
      "osen": 6347,
      "flugzeug": 6348,
      "forme": 6349,
      "vorbei": 6350,
      "brü": 6351,
      "pour": 6352,
      "lim": 6353,
      "binden": 6354,
      "tatsäch": 6355,
      "präsentieren": 6356,
      "wertung": 6357,
      "amb": 6358,
      "herrschaft": 6359,
      "pfe": 6360,
      "desig": 6361,
      "geschn": 6362,
      "wissenschaftliche": 6363,
      "verteidig": 6364,
      "64": 6365,
      "teilungen": 6366,
      "objekt": 6367,
      "eigentum": 6368,
      "clean": 6369,
      "einstimm": 6370,
      "kapazität": 6371,
      "ifik": 6372,
      "identifiz": 6373,
      "autobahn": 6374,
      "tennis": 6375,
      "donner": 6376,
      "unent": 6377,
      "noten": 6378,
      "startet": 6379,
      "bilater": 6380,
      "verkaufen": 6381,
      "friendly": 6382,
      "95": 6383,
      "dafr": 6384,
      "toch": 6385,
      "ßern": 6386,
      "bemerkung": 6387,
      "arznei": 6388,
      "umsatz": 6389,
      "ähnliche": 6390,
      "entscheidende": 6391,
      "erinnert": 6392,
      "gezwungen": 6393,
      "assozi": 6394,
      "repar": 6395,
      "umweltschutz": 6396,
      "heutige": 6397,
      "höheren": 6398,
      "had": 6399,
      "kreuz": 6400,
      "abteilung": 6401,
      "madr": 6402,
      "kter": 6403,
      "praktiken": 6404,
      "strecken": 6405,
      "mitarbeitern": 6406,
      "strasse": 6407,
      "fernsehen": 6408,
      "einfacher": 6409,
      "grundlagen": 6410,
      "ausflüge": 6411,
      "däm": 6412,
      "itar": 6413,
      "bewuß": 6414,
      "versprechen": 6415,
      "funk": 6416,
      "reduzierung": 6417,
      "oli": 6418,
      "betreiben": 6419,
      "anischen": 6420,
      "place": 6421,
      "kopen": 6422,
      "alpen": 6423,
      "schlei": 6424,
      "gefügt": 6425,
      "betreiber": 6426,
      "inklusive": 6427,
      "weichen": 6428,
      "bibliothek": 6429,
      "erfolgreiche": 6430,
      "verkauft": 6431,
      "lehrer": 6432,
      "subsidiar": 6433,
      "schüler": 6434,
      "tsch": 6435,
      "wirtschaften": 6436,
      "korruption": 6437,
      "voraussch": 6438,
      "niss": 6439,
      "verringern": 6440,
      "britische": 6441,
      "antwortet": 6442,
      "zeitung": 6443,
      "radik": 6444,
      "pest": 6445,
      "französische": 6446,
      "akzeptabel": 6447,
      "existenz": 6448,
      "übergangs": 6449,
      "kontaktieren": 6450,
      "kulturen": 6451,
      "respekt": 6452,
      "momentan": 6453,
      "tzei": 6454,
      "ansehen": 6455,
      "aufsichts": 6456,
      "beschlüsse": 6457,
      "provinz": 6458,
      "schweren": 6459,
      "ace": 6460,
      "tam": 6461,
      "hoffentlich": 6462,
      "direktor": 6463,
      "nachricht": 6464,
      "kost": 6465,
      "anbe": 6466,
      "mikro": 6467,
      "diag": 6468,
      "varian": 6469,
      "eignet": 6470,
      "e.": 6471,
      "jet": 6472,
      "erstellung": 6473,
      "gap": 6474,
      "verfas": 6475,
      "aufwand": 6476,
      "bestätigung": 6477,
      "beschäftigen": 6478,
      "zeichnungen": 6479,
      "abfall": 6480,
      "ungsverfahren": 6481,
      "rela": 6482,
      "abgesehen": 6483,
      "empfohlen": 6484,
      "fabr": 6485,
      "äußern": 6486,
      "rechtsstaat": 6487,
      "katalog": 6488,
      "wc": 6489,
      "brechen": 6490,
      "yste": 6491,
      "verdient": 6492,
      "organe": 6493,
      "verurteilt": 6494,
      "gewährt": 6495,
      "update": 6496,
      "schil": 6497,
      "läßt": 6498,
      "tech": 6499,
      "nice": 6500,
      "quoten": 6501,
      "burger": 6502,
      "jug": 6503,
      "zusammenarbeiten": 6504,
      "effizient": 6505,
      "airport": 6506,
      "eiter": 6507,
      "tochter": 6508,
      "blin": 6509,
      "rechner": 6510,
      "erstmals": 6511,
      "implemen": 6512,
      "mc": 6513,
      "länge": 6514,
      "wiederholen": 6515,
      "piel": 6516,
      "stur": 6517,
      "kehrt": 6518,
      "energien": 6519,
      "sho": 6520,
      "ersetzt": 6521,
      "verboten": 6522,
      "traditionelle": 6523,
      "systemat": 6524,
      "individuellen": 6525,
      "sammeln": 6526,
      "nachmittag": 6527,
      "urs": 6528,
      "sohn": 6529,
      "vorhandenen": 6530,
      "erbe": 6531,
      "auge": 6532,
      "here": 6533,
      "spf": 6534,
      "tests": 6535,
      "ded": 6536,
      "vorstellen": 6537,
      "rechtzei": 6538,
      "martin": 6539,
      "fußball": 6540,
      "non": 6541,
      "dokumenten": 6542,
      "ansprüche": 6543,
      "bewähr": 6544,
      "fernseh": 6545,
      "anim": 6546,
      "strategischen": 6547,
      "eise": 6548,
      "kontakte": 6549,
      "kleines": 6550,
      "administrat": 6551,
      "tren": 6552,
      "vorsitzenden": 6553,
      "eingerichte": 6554,
      "spakt": 6555,
      "medit": 6556,
      "knapp": 6557,
      "anfän": 6558,
      "44": 6559,
      "übt": 6560,
      "parks": 6561,
      "andal": 6562,
      "selbe": 6563,
      "nom": 6564,
      "menschliche": 6565,
      "subvention": 6566,
      "slowak": 6567,
      "fernen": 6568,
      "reihen": 6569,
      "begrenzt": 6570,
      "bedeutend": 6571,
      "außerordentlich": 6572,
      "dürfte": 6573,
      "reduzieren": 6574,
      "tabak": 6575,
      "ee": 6576,
      "bereitstellung": 6577,
      "sph": 6578,
      "tätigkeiten": 6579,
      "zügigkeit": 6580,
      "übersicht": 6581,
      "vertrages": 6582,
      "reiche": 6583,
      "rechnungshof": 6584,
      "ns": 6585,
      "wehr": 6586,
      "65": 6587,
      "palette": 6588,
      "stammen": 6589,
      "unverzüglich": 6590,
      "männern": 6591,
      "stamm": 6592,
      "kompati": 6593,
      "branchen": 6594,
      "hardware": 6595,
      "aussprechen": 6596,
      "jenen": 6597,
      "frequ": 6598,
      "versuche": 6599,
      "camping": 6600,
      "3d": 6601,
      "bün": 6602,
      "trie": 6603,
      "gess": 6604,
      "investitions": 6605,
      "beruht": 6606,
      "verstärken": 6607,
      "ders": 6608,
      "gespräch": 6609,
      "life": 6610,
      "sicheren": 6611,
      "lobby": 6612,
      "bach": 6613,
      "konsult": 6614,
      "face": 6615,
      "offiziellen": 6616,
      "vorbereitet": 6617,
      "läng": 6618,
      "erfüllung": 6619,
      "niedriger": 6620,
      "info": 6621,
      "istischer": 6622,
      "luxemburg": 6623,
      "unterricht": 6624,
      "anhand": 6625,
      "herum": 6626,
      "abhängigkeit": 6627,
      "frankfurt": 6628,
      "solid": 6629,
      "angegebenen": 6630,
      "modus": 6631,
      "inspir": 6632,
      "beobachten": 6633,
      "entwickelte": 6634,
      "pli": 6635,
      "ual": 6636,
      "eingereicht": 6637,
      "diesbezüglich": 6638,
      "faßt": 6639,
      "teams": 6640,
      "hierfür": 6641,
      "zivilgesellschaft": 6642,
      "finanzierungs": 6643,
      "hein": 6644,
      "weih": 6645,
      "vermitteln": 6646,
      "kirchen": 6647,
      "anzeige": 6648,
      "ese": 6649,
      "gross": 6650,
      "bestellen": 6651,
      "1990": 6652,
      "job": 6653,
      "gänger": 6654,
      "pul": 6655,
      "fertigen": 6656,
      "tha": 6657,
      "jener": 6658,
      "ford": 6659,
      "ael": 6660,
      "fire": 6661,
      "alternativen": 6662,
      "mittlerweile": 6663,
      "figur": 6664,
      "old": 6665,
      "dum": 6666,
      "vorlage": 6667,
      "bestimmter": 6668,
      "klassen": 6669,
      "schlussfolgerungen": 6670,
      "versicherungs": 6671,
      "eien": 6672,
      "empfangen": 6673,
      "ablauf": 6674,
      "31": 6675,
      "armee": 6676,
      "raten": 6677,
      "weich": 6678,
      "wirtschaftlicher": 6679,
      "textil": 6680,
      "kriminalität": 6681,
      "49": 6682,
      "ausmaß": 6683,
      "isierte": 6684,
      "phone": 6685,
      "offene": 6686,
      "pakistan": 6687,
      "ansichten": 6688,
      "etabl": 6689,
      "zeuger": 6690,
      "allzu": 6691,
      "akadem": 6692,
      "schar": 6693,
      "ebenen": 6694,
      "akp": 6695,
      "erlebt": 6696,
      "800": 6697,
      "mehrfach": 6698,
      "mittelalter": 6699,
      "erschien": 6700,
      "herzustellen": 6701,
      "suiten": 6702,
      "bedrohung": 6703,
      "ted": 6704,
      ".de": 6705,
      "schriftliche": 6706,
      "newsletter": 6707,
      "belgien": 6708,
      "erfolgreichen": 6709,
      "korrekt": 6710,
      "angebracht": 6711,
      "leid": 6712,
      "minute": 6713,
      "unvergess": 6714,
      "anwesend": 6715,
      "regulierung": 6716,
      "belar": 6717,
      "augenblick": 6718,
      "album": 6719,
      "ful": 6720,
      "erhielt": 6721,
      "mien": 6722,
      "rechtsgrundlage": 6723,
      "eingehalten": 6724,
      "finanziert": 6725,
      "bush": 6726,
      "ram": 6727,
      "stattdessen": 6728,
      "bell": 6729,
      "ärz": 6730,
      "gor": 6731,
      "flu": 6732,
      "55": 6733,
      "navig": 6734,
      "heißen": 6735,
      "hall": 6736,
      "nukle": 6737,
      "filme": 6738,
      "erzeugung": 6739,
      "dans": 6740,
      "niederlän": 6741,
      "großem": 6742,
      "600": 6743,
      "ita": 6744,
      "kompliz": 6745,
      "namens": 6746,
      "elektronischen": 6747,
      "gewässer": 6748,
      "folglich": 6749,
      "itionen": 6750,
      "angenehm": 6751,
      "gär": 6752,
      "operation": 6753,
      "blau": 6754,
      "gerechtigkeit": 6755,
      "donnerstag": 6756,
      "gebildet": 6757,
      "rechter": 6758,
      "gewährleistung": 6759,
      "sozialer": 6760,
      "alisierten": 6761,
      "beteiligen": 6762,
      "applik": 6763,
      "coun": 6764,
      "alex": 6765,
      "resort": 6766,
      "cript": 6767,
      "nachdrück": 6768,
      "schefs": 6769,
      "kammer": 6770,
      "oom": 6771,
      "betreffend": 6772,
      "integriert": 6773,
      "gebir": 6774,
      "überlegungen": 6775,
      "beigetragen": 6776,
      "drückt": 6777,
      "30.": 6778,
      "faszin": 6779,
      "great": 6780,
      "prob": 6781,
      "riv": 6782,
      "ersetzen": 6783,
      "erzeugt": 6784,
      "isierten": 6785,
      "gewerk": 6786,
      "einbezogen": 6787,
      "wunderschönen": 6788,
      "tarif": 6789,
      "parameter": 6790,
      "gekenn": 6791,
      "kürze": 6792,
      "schläge": 6793,
      "stufen": 6794,
      "ergie": 6795,
      "beantworten": 6796,
      "mund": 6797,
      "sendung": 6798,
      "pay": 6799,
      "inneren": 6800,
      "bulgarien": 6801,
      "üssen": 6802,
      "tenden": 6803,
      "entscheidender": 6804,
      "wissenschaftler": 6805,
      "perspektive": 6806,
      "genauer": 6807,
      "solches": 6808,
      "poly": 6809,
      "zutage": 6810,
      "ausgerichtet": 6811,
      "einzigartigen": 6812,
      "gottes": 6813,
      "optimale": 6814,
      "ua": 6815,
      "comfort": 6816,
      "autos": 6817,
      "verhandlungs": 6818,
      "passwort": 6819,
      "cis": 6820,
      "spitze": 6821,
      "kollegin": 6822,
      "derung": 6823,
      "bereitgestellt": 6824,
      "gemeinschaften": 6825,
      "eads": 6826,
      "becken": 6827,
      "ausgleich": 6828,
      "internen": 6829,
      "lohn": 6830,
      "lieber": 6831,
      "won": 6832,
      "achsen": 6833,
      "ferenzen": 6834,
      "verschär": 6835,
      "konsum": 6836,
      "2011": 6837,
      "anbelangt": 6838,
      "erwähnen": 6839,
      "lar": 6840,
      "geladen": 6841,
      "glaubwürdigkeit": 6842,
      "auswär": 6843,
      "weisungen": 6844,
      "weilen": 6845,
      "verbindet": 6846,
      "rau": 6847,
      "ption": 6848,
      "machte": 6849,
      "brücke": 6850,
      "gö": 6851,
      "ordnungen": 6852,
      "konsequenzen": 6853,
      "vertrieb": 6854,
      "unehmen": 6855,
      "html": 6856,
      "mium": 6857,
      "cha": 6858,
      "vorange": 6859,
      "versicherung": 6860,
      "0.": 6861,
      "gelände": 6862,
      "erstre": 6863,
      "träger": 6864,
      "kroatien": 6865,
      "ques": 6866,
      "gemeinschaftlichen": 6867,
      "verschle": 6868,
      "nien": 6869,
      "47": 6870,
      "trieb": 6871,
      "überprüft": 6872,
      "wiederholt": 6873,
      "bedeutende": 6874,
      "look": 6875,
      "more": 6876,
      "tauchen": 6877,
      "limit": 6878,
      "wohlstand": 6879,
      "bonus": 6880,
      "natürliche": 6881,
      "ari": 6882,
      "ließ": 6883,
      "umen": 6884,
      "büros": 6885,
      "genügend": 6886,
      "optimal": 6887,
      "konflikte": 6888,
      "zwangs": 6889,
      "western": 6890,
      "anlass": 6891,
      "isa": 6892,
      "portugies": 6893,
      "brief": 6894,
      "mys": 6895,
      "index": 6896,
      "gelingt": 6897,
      "stufe": 6898,
      "darstellung": 6899,
      "investieren": 6900,
      "tausend": 6901,
      "entlastung": 6902,
      "fied": 6903,
      "widerspruch": 6904,
      "stay": 6905,
      "konfron": 6906,
      "veränderung": 6907,
      "schreck": 6908,
      "verd": 6909,
      "ender": 6910,
      "reservierung": 6911,
      "anen": 6912,
      "forman": 6913,
      "bestände": 6914,
      "hingegen": 6915,
      "verteidigen": 6916,
      "zenten": 6917,
      "ausrüstung": 6918,
      "gleichstellung": 6919,
      "iner": 6920,
      "wärme": 6921,
      "dchen": 6922,
      "rez": 6923,
      "geburt": 6924,
      "steigerung": 6925,
      "stiftung": 6926,
      "xt": 6927,
      "übernahme": 6928,
      "unabhängigen": 6929,
      "rig": 6930,
      "flash": 6931,
      "insofern": 6932,
      "vertretern": 6933,
      "langfristig": 6934,
      "häusern": 6935,
      "flotte": 6936,
      "voranzu": 6937,
      "lou": 6938,
      "straß": 6939,
      "mrd.": 6940,
      "souverän": 6941,
      "präsenz": 6942,
      "urlaubs": 6943,
      "nachbarschaft": 6944,
      "geführten": 6945,
      "hinweg": 6946,
      "portal": 6947,
      "personenbezogen": 6948,
      "zugangs": 6949,
      "ativer": 6950,
      "bungs": 6951,
      "joh": 6952,
      "weitgehend": 6953,
      "geor": 6954,
      "gehminuten": 6955,
      "geschnitten": 6956,
      "mussten": 6957,
      "reduziert": 6958,
      "beauftragten": 6959,
      "usb": 6960,
      "günstige": 6961,
      "gegner": 6962,
      "listen": 6963,
      "leuten": 6964,
      "worfen": 6965,
      "krieges": 6966,
      "aussehen": 6967,
      "strebt": 6968,
      "ses": 6969,
      "gefäng": 6970,
      "horiz": 6971,
      "wiegend": 6972,
      "geraten": 6973,
      "geschätz": 6974,
      "planeten": 6975,
      "argument": 6976,
      "tit": 6977,
      "dou": 6978,
      "bekommt": 6979,
      "verhältnisse": 6980,
      "spon": 6981,
      "rücken": 6982,
      "vorzulegen": 6983,
      "illegalen": 6984,
      "read": 6985,
      "senkung": 6986,
      "kohlen": 6987,
      "richter": 6988,
      "versichern": 6989,
      "osla": 6990,
      "angepasst": 6991,
      "verwei": 6992,
      "lagerung": 6993,
      "ernsthaft": 6994,
      "hochwertige": 6995,
      "rec": 6996,
      "vorausschau": 6997,
      "ursachen": 6998,
      "santa": 6999,
      "recher": 7000,
      "javas": 7001,
      "abbau": 7002,
      "einzur": 7003,
      "anzen": 7004,
      "lay": 7005,
      "jedenfalls": 7006,
      "wirtschaftlich": 7007,
      "vorstellungen": 7008,
      "herbst": 7009,
      "verteilt": 7010,
      "pakt": 7011,
      "ights": 7012,
      "übung": 7013,
      "überblick": 7014,
      "einzusetzen": 7015,
      "korea": 7016,
      "holl": 7017,
      "handlungs": 7018,
      "strände": 7019,
      "institutionelle": 7020,
      "brasilien": 7021,
      "zins": 7022,
      "aussage": 7023,
      "ward": 7024,
      "tigungen": 7025,
      "py": 7026,
      "diensten": 7027,
      "behinderten": 7028,
      "riere": 7029,
      "roy": 7030,
      "ssig": 7031,
      "alban": 7032,
      "trocken": 7033,
      "plätzen": 7034,
      "genaue": 7035,
      "gedacht": 7036,
      "mauer": 7037,
      "rass": 7038,
      "baby": 7039,
      "erfreut": 7040,
      "zusagen": 7041,
      "which": 7042,
      "montag": 7043,
      "wähler": 7044,
      "unterscheiden": 7045,
      "madrid": 7046,
      "übernachtung": 7047,
      "dei": 7048,
      "hervorgehoben": 7049,
      "ersta": 7050,
      "dauert": 7051,
      "ities": 7052,
      "fantast": 7053,
      "gestattet": 7054,
      "entwickler": 7055,
      "verfügbaren": 7056,
      "dör": 7057,
      "effekt": 7058,
      "unterstreichen": 7059,
      "javascript": 7060,
      "97": 7061,
      "abstimmen": 7062,
      "bildschirm": 7063,
      "künftige": 7064,
      "liberalen": 7065,
      "freizügigkeit": 7066,
      "beendet": 7067,
      "vice": 7068,
      "peter": 7069,
      "aktiviert": 7070,
      "praktische": 7071,
      "dekor": 7072,
      "größeres": 7073,
      "frucht": 7074,
      "zukünftigen": 7075,
      "i.": 7076,
      "umfangreiche": 7077,
      "brenn": 7078,
      "alu": 7079,
      "strategische": 7080,
      "strik": 7081,
      "jes": 7082,
      "tiefen": 7083,
      "ticket": 7084,
      "militärische": 7085,
      "kg": 7086,
      "mart": 7087,
      "angeneh": 7088,
      "michael": 7089,
      "argen": 7090,
      "frühstücksbuffet": 7091,
      "unabhängige": 7092,
      "96": 7093,
      "ec": 7094,
      "wochenende": 7095,
      "potenzie": 7096,
      "0,": 7097,
      "kreativ": 7098,
      "hänomen": 7099,
      "ero": 7100,
      "repräsent": 7101,
      "spreche": 7102,
      "umfassend": 7103,
      "unterzeichnet": 7104,
      "1994": 7105,
      "diagno": 7106,
      "phr": 7107,
      "aufrechter": 7108,
      "mitteilen": 7109,
      "hast": 7110,
      "ong": 7111,
      "rechtlich": 7112,
      "konkurrenz": 7113,
      "pum": 7114,
      "geteilt": 7115,
      "abendessen": 7116,
      "langfristige": 7117,
      "jor": 7118,
      "vorgesehenen": 7119,
      "stätten": 7120,
      "militärischen": 7121,
      "green": 7122,
      "ett": 7123,
      "err": 7124,
      "fähigen": 7125,
      "vertrauens": 7126,
      "belastung": 7127,
      "beobach": 7128,
      "perfekte": 7129,
      "behaupten": 7130,
      "spektrum": 7131,
      "impul": 7132,
      "konfrontiert": 7133,
      "schnee": 7134,
      "sv": 7135,
      "terung": 7136,
      "binnenmarktes": 7137,
      "tas": 7138,
      "enger": 7139,
      "geniessen": 7140,
      "behoben": 7141,
      "übergang": 7142,
      "bildern": 7143,
      "täglichen": 7144,
      "wesenheit": 7145,
      "rückkehr": 7146,
      "england": 7147,
      "unterliegen": 7148,
      "izza": 7149,
      "größen": 7150,
      "vierten": 7151,
      "wirksame": 7152,
      "passag": 7153,
      "sw": 7154,
      "konzentriert": 7155,
      "verfasser": 7156,
      "hot": 7157,
      "produzieren": 7158,
      "mw": 7159,
      "urteil": 7160,
      "kontra": 7161,
      "einheim": 7162,
      "ansprechen": 7163,
      "lehnen": 7164,
      "könnt": 7165,
      "46": 7166,
      "hamburg": 7167,
      "flüchtlinge": 7168,
      "fährt": 7169,
      "spät": 7170,
      "ablehnung": 7171,
      "maga": 7172,
      "hinweise": 7173,
      "registrierung": 7174,
      "baus": 7175,
      "besonderer": 7176,
      "lust": 7177,
      "silber": 7178,
      "iers": 7179,
      "schlacht": 7180,
      "kanal": 7181,
      "vollständigen": 7182,
      "stücke": 7183,
      "vorgeschlagene": 7184,
      "ata": 7185,
      "freundschaft": 7186,
      "bisherigen": 7187,
      "nisses": 7188,
      "phänomen": 7189,
      "erhoben": 7190,
      "einnahmen": 7191,
      "widerstand": 7192,
      "sd": 7193,
      "ree": 7194,
      "indire": 7195,
      "versorg": 7196,
      "leichter": 7197,
      "geprägt": 7198,
      "schaus": 7199,
      "gebra": 7200,
      "aff": 7201,
      "verdienen": 7202,
      "parlamentarischen": 7203,
      "lieferanten": 7204,
      "konkret": 7205,
      "unzur": 7206,
      "reisende": 7207,
      "debatten": 7208,
      "projekts": 7209,
      "office": 7210,
      "zukünftige": 7211,
      "vul": 7212,
      "spiegelt": 7213,
      "asso": 7214,
      "igungen": 7215,
      "gesetzten": 7216,
      "08": 7217,
      "ergibt": 7218,
      "omas": 7219,
      "bevölkerungs": 7220,
      "brachte": 7221,
      "rechnen": 7222,
      "spekt": 7223,
      "gau": 7224,
      "gebeten": 7225,
      "gepf": 7226,
      "schalt": 7227,
      "zuzu": 7228,
      "aufnahmen": 7229,
      "frisch": 7230,
      "beschä": 7231,
      "periode": 7232,
      "effiziente": 7233,
      "spezialitäten": 7234,
      "angekün": 7235,
      "ezb": 7236,
      "rock": 7237,
      "einheitliche": 7238,
      "eventuell": 7239,
      "allianz": 7240,
      "bearbeiten": 7241,
      "24.": 7242,
      "nachhaltigkeit": 7243,
      "ination": 7244,
      "entspannung": 7245,
      "barro": 7246,
      "froh": 7247,
      "stärk": 7248,
      "anzuzeigen": 7249,
      "kanada": 7250,
      "mängel": 7251,
      "garanti": 7252,
      "gewähren": 7253,
      "ock": 7254,
      "ktiert": 7255,
      "nachbarn": 7256,
      "beeindruck": 7257,
      "generell": 7258,
      "25.": 7259,
      "touren": 7260,
      "gewisser": 7261,
      "07": 7262,
      "any": 7263,
      "krebs": 7264,
      "komfortable": 7265,
      "zar": 7266,
      "usion": 7267,
      "erstes": 7268,
      "total": 7269,
      "palästinensischen": 7270,
      "abschaffung": 7271,
      "chinas": 7272,
      "05": 7273,
      "31.": 7274,
      "beun": 7275,
      "fernse": 7276,
      "nachts": 7277,
      "hilfr": 7278,
      "experi": 7279,
      "volkes": 7280,
      "berater": 7281,
      "konstruktion": 7282,
      "slowen": 7283,
      "pur": 7284,
      "anhän": 7285,
      "dankbar": 7286,
      "23.": 7287,
      "sieg": 7288,
      "reinigung": 7289,
      "lü": 7290,
      "uche": 7291,
      "potenzial": 7292,
      "verfolgung": 7293,
      "entfernen": 7294,
      "mandat": 7295,
      "schwere": 7296,
      "technisch": 7297,
      "rollen": 7298,
      "sensor": 7299,
      "corpor": 7300,
      "humanitäre": 7301,
      "enthaltenen": 7302,
      "vorliegende": 7303,
      "volumen": 7304,
      "kontrollieren": 7305,
      "besitzer": 7306,
      "tiefe": 7307,
      "beschränkungen": 7308,
      "pg": 7309,
      "trieben": 7310,
      "fok": 7311,
      "komplette": 7312,
      "oliven": 7313,
      "grossen": 7314,
      "handy": 7315,
      "benachteil": 7316,
      "beamten": 7317,
      "gelesen": 7318,
      "budget": 7319,
      "anbau": 7320,
      "22.": 7321,
      "sun": 7322,
      "ane": 7323,
      "wirtschaftswachstum": 7324,
      "fix": 7325,
      "truppen": 7326,
      "arbeitungs": 7327,
      "generationen": 7328,
      "museen": 7329,
      "anzig": 7330,
      "sichtbar": 7331,
      "katal": 7332,
      "beseitigung": 7333,
      "derer": 7334,
      "hervorragenden": 7335,
      "engine": 7336,
      "anmeldung": 7337,
      "geplant": 7338,
      "kostenlose": 7339,
      "freundlichen": 7340,
      "ystem": 7341,
      "verbraucherschutz": 7342,
      "festzulegen": 7343,
      "vereinbart": 7344,
      "rab": 7345,
      "barroso": 7346,
      "erinnerung": 7347,
      "feind": 7348,
      "designer": 7349,
      "regierungschefs": 7350,
      "außenminister": 7351,
      "massage": 7352,
      "tschechischen": 7353,
      "zukommen": 7354,
      "verband": 7355,
      "korrig": 7356,
      "gewe": 7357,
      "dargestellt": 7358,
      "jugosla": 7359,
      "hie": 7360,
      "schall": 7361,
      "sogenannten": 7362,
      "side": 7363,
      "heiligen": 7364,
      "dule": 7365,
      "abilität": 7366,
      "erweitern": 7367,
      "42": 7368,
      "skr": 7369,
      "volksgesundheit": 7370,
      "normalen": 7371,
      "ümer": 7372,
      "wiederaufbau": 7373,
      "greift": 7374,
      "entdeckt": 7375,
      "schalten": 7376,
      "amtieren": 7377,
      "romanti": 7378,
      "nachdrücklich": 7379,
      "wood": 7380,
      "gewiss": 7381,
      "gleichermaßen": 7382,
      "sträger": 7383,
      "festen": 7384,
      "jetzigen": 7385,
      "objekte": 7386,
      "fuss": 7387,
      "kalen": 7388,
      "ric": 7389,
      "ney": 7390,
      "schnellen": 7391,
      "kture": 7392,
      "beschränken": 7393,
      "ordnungsgemäß": 7394,
      "verweisen": 7395,
      "sendet": 7396,
      "legit": 7397,
      "wanderung": 7398,
      "geworfen": 7399,
      "bewegungen": 7400,
      "samstag": 7401,
      "edel": 7402,
      "paul": 7403,
      "gewünschten": 7404,
      "garantien": 7405,
      "gefragt": 7406,
      "emissions": 7407,
      "serbien": 7408,
      "aufenthalts": 7409,
      "exzellen": 7410,
      "arbeitete": 7411,
      "heut": 7412,
      "überaus": 7413,
      "verwende": 7414,
      "enten": 7415,
      "geblieben": 7416,
      "ehren": 7417,
      "winkel": 7418,
      "akzept": 7419,
      "blen": 7420,
      "wahren": 7421,
      "rahmens": 7422,
      "luxuriö": 7423,
      "cons": 7424,
      "brid": 7425,
      "wirtschaftspolitik": 7426,
      "qualitativ": 7427,
      "offizielle": 7428,
      "verank": 7429,
      "konsolid": 7430,
      "visa": 7431,
      "hohem": 7432,
      "senken": 7433,
      "begleitet": 7434,
      "09": 7435,
      "hig": 7436,
      "kernel": 7437,
      "olo": 7438,
      "löschen": 7439,
      "sorganisation": 7440,
      "point": 7441,
      "250": 7442,
      "zugrunde": 7443,
      "werkzeuge": 7444,
      "serien": 7445,
      "bru": 7446,
      "bedanken": 7447,
      "mix": 7448,
      "wü": 7449,
      "beenden": 7450,
      "fahrrad": 7451,
      "türkischen": 7452,
      "anreise": 7453,
      "performan": 7454,
      "mmern": 7455,
      "aux": 7456,
      "umsetzen": 7457,
      "result": 7458,
      "storn": 7459,
      "klassischen": 7460,
      "innenstadt": 7461,
      "erzeugen": 7462,
      "schauspiel": 7463,
      "aufgebaut": 7464,
      "multilater": 7465,
      "verkaufs": 7466,
      "zell": 7467,
      "first": 7468,
      "überleben": 7469,
      "marok": 7470,
      "zür": 7471,
      "buil": 7472,
      "klimat": 7473,
      "meilen": 7474,
      "wirtschaftskrise": 7475,
      "benutzung": 7476,
      "thr": 7477,
      "ordnet": 7478,
      "kodex": 7479,
      "korrektur": 7480,
      "lub": 7481,
      "zurückzuführen": 7482,
      "anhalten": 7483,
      "statist": 7484,
      "untersucht": 7485,
      "besonderes": 7486,
      "premierminister": 7487,
      "feder": 7488,
      "oto": 7489,
      "kreditkarte": 7490,
      "existiert": 7491,
      "parallel": 7492,
      "ía": 7493,
      "kleidung": 7494,
      "irischen": 7495,
      "mädchen": 7496,
      "vorgaben": 7497,
      "problematik": 7498,
      "blatt": 7499,
      "externen": 7500,
      "seele": 7501,
      "anpass": 7502,
      "zufriedenheit": 7503,
      "wandern": 7504,
      "issen": 7505,
      "wellen": 7506,
      "resol": 7507,
      "eingestellt": 7508,
      "äher": 7509,
      "level": 7510,
      "wäch": 7511,
      "mming": 7512,
      "festgelegten": 7513,
      "full": 7514,
      "futter": 7515,
      "heutzutage": 7516,
      "sender": 7517,
      "prävention": 7518,
      "ötz": 7519,
      "gemel": 7520,
      "andern": 7521,
      "jack": 7522,
      "appartements": 7523,
      "tial": 7524,
      "sterben": 7525,
      "zugelassen": 7526,
      "besorgt": 7527,
      "eiteten": 7528,
      "digitalen": 7529,
      "handlungen": 7530,
      "rennen": 7531,
      "aden": 7532,
      "frischen": 7533,
      "parkplätze": 7534,
      "ey": 7535,
      "wat": 7536,
      "vereinfachung": 7537,
      "bezahlt": 7538,
      "lounge": 7539,
      "missbrauch": 7540,
      "mult": 7541,
      "alisierte": 7542,
      "ergänzt": 7543,
      "gesetzlichen": 7544,
      "vermut": 7545,
      "funktions": 7546,
      "nützlich": 7547,
      "hilfreich": 7548,
      "2,": 7549,
      "enge": 7550,
      "defizit": 7551,
      "dokumentation": 7552,
      "ökonomischen": 7553,
      "schicht": 7554,
      "base": 7555,
      "johann": 7556,
      "68": 7557,
      "plat": 7558,
      "trau": 7559,
      "maria": 7560,
      "bedauern": 7561,
      "trock": 7562,
      "fahrten": 7563,
      "toler": 7564,
      "cir": 7565,
      "opol": 7566,
      "ugen": 7567,
      "bezeichnung": 7568,
      "bezir": 7569,
      "konjun": 7570,
      "resul": 7571,
      "berliner": 7572,
      "kopenhagen": 7573,
      "ausbau": 7574,
      "gelö": 7575,
      "training": 7576,
      "appartement": 7577,
      "image": 7578,
      "sem": 7579,
      "auftrags": 7580,
      "qui": 7581,
      "spolitischen": 7582,
      "berühmte": 7583,
      "hir": 7584,
      "avec": 7585,
      "yr": 7586,
      "steigt": 7587,
      "erfordern": 7588,
      "verantwortlichen": 7589,
      "tonnen": 7590,
      "investoren": 7591,
      "mur": 7592,
      "vornehmen": 7593,
      "eigener": 7594,
      "berichterstatters": 7595,
      "jugendlichen": 7596,
      "eigentums": 7597,
      "wonach": 7598,
      "quote": 7599,
      "südafr": 7600,
      "ras": 7601,
      "unglaub": 7602,
      "umge": 7603,
      "town": 7604,
      "integrierten": 7605,
      "wirksamkeit": 7606,
      "afrikanischen": 7607,
      "rechtsstaatlichkeit": 7608,
      "stammt": 7609,
      "unzureich": 7610,
      "ankün": 7611,
      "bier": 7612,
      "einzuführen": 7613,
      "zusch": 7614,
      "ille": 7615,
      "fähige": 7616,
      "niedrig": 7617,
      "nit": 7618,
      "lädt": 7619,
      "bedürfnissen": 7620,
      "langer": 7621,
      "ferienwohnung": 7622,
      "án": 7623,
      "griechischen": 7624,
      "dingen": 7625,
      "inhaber": 7626,
      "flo": 7627,
      "statut": 7628,
      "erhaltung": 7629,
      "angewendet": 7630,
      "2013": 7631,
      "keinem": 7632,
      "köst": 7633,
      "wände": 7634,
      "großteil": 7635,
      "glicher": 7636,
      "sonntag": 7637,
      "überlassen": 7638,
      "stritten": 7639,
      "herberge": 7640,
      "ingung": 7641,
      "gastr": 7642,
      "lor": 7643,
      "pse": 7644,
      "stü": 7645,
      "kompetenzen": 7646,
      "drittel": 7647,
      "differenz": 7648,
      "ereignis": 7649,
      "straßburg": 7650,
      "ausblick": 7651,
      "kennzeichnung": 7652,
      "modified": 7653,
      "unentgel": 7654,
      "wunden": 7655,
      "freier": 7656,
      "erzeuger": 7657,
      "selber": 7658,
      "stattfindet": 7659,
      "verwirklich": 7660,
      "module": 7661,
      "dialogs": 7662,
      "geäußert": 7663,
      "zusammenzu": 7664,
      "hauptbahnhof": 7665,
      "amerikaner": 7666,
      "space": 7667,
      "m2": 7668,
      "swerte": 7669,
      "anson": 7670,
      "geeignete": 7671,
      "1000": 7672,
      "einheiten": 7673,
      "dein": 7674,
      "gestärkt": 7675,
      "belg": 7676,
      "erran": 7677,
      "schafts": 7678,
      "entschä": 7679,
      "ergebnissen": 7680,
      "herrlichen": 7681,
      "register": 7682,
      "herstell": 7683,
      "rechtzeitig": 7684,
      "versorgungs": 7685,
      "haftet": 7686,
      "arbeitgeber": 7687,
      "sorti": 7688,
      "hindernisse": 7689,
      "f.": 7690,
      "kie": 7691,
      "abenteuer": 7692,
      "only": 7693,
      "who": 7694,
      "ansonsten": 7695,
      "ufer": 7696,
      "arma": 7697,
      "älteren": 7698,
      "06": 7699,
      "verzer": 7700,
      "gegenwärtige": 7701,
      "kapazitäten": 7702,
      "bewältigen": 7703,
      "tigkeiten": 7704,
      "philosophie": 7705,
      "rien": 7706,
      "neutr": 7707,
      "mont": 7708,
      "dauern": 7709,
      "auflösung": 7710,
      "sichergestellt": 7711,
      "clubs": 7712,
      "niederlanden": 7713,
      "überwinden": 7714,
      "bahnen": 7715,
      "politisches": 7716,
      "enorme": 7717,
      "ländliche": 7718,
      "spezialisiert": 7719,
      "ingenie": 7720,
      "verstö": 7721,
      "integrierte": 7722,
      "maximal": 7723,
      "palästinenser": 7724,
      "anony": 7725,
      "finanzkrise": 7726,
      "energieeffizienz": 7727,
      "unions": 7728,
      "ulation": 7729,
      "parlamente": 7730,
      "echt": 7731,
      "schlimm": 7732,
      "ador": 7733,
      "content": 7734,
      "gültig": 7735,
      "beruhen": 7736,
      "colle": 7737,
      "äum": 7738,
      "quadr": 7739,
      "anden": 7740,
      "produzenten": 7741,
      "hô": 7742,
      "bewerber": 7743,
      "wachsenden": 7744,
      "ragend": 7745,
      "imper": 7746,
      "steigern": 7747,
      "zerstört": 7748,
      "journalisten": 7749,
      "weine": 7750,
      "denjenigen": 7751,
      "pens": 7752,
      "fans": 7753,
      "tär": 7754,
      "qualifik": 7755,
      "cro": 7756,
      "phan": 7757,
      "bares": 7758,
      "data": 7759,
      "found": 7760,
      "einspar": 7761,
      "krist": 7762,
      "het": 7763,
      "frühen": 7764,
      "mysql": 7765,
      "anhör": 7766,
      "pir": 7767,
      "asiat": 7768,
      "bres": 7769,
      "stärkere": 7770,
      "kontrolliert": 7771,
      "schan": 7772,
      "fahrzeugen": 7773,
      "feste": 7774,
      "java": 7775,
      "cast": 7776,
      "entfernung": 7777,
      "anerkann": 7778,
      "schlimmer": 7779,
      "schmerz": 7780,
      "toll": 7781,
      "wirkungs": 7782,
      "brun": 7783,
      "elles": 7784,
      "benutzern": 7785,
      "unmittelbarer": 7786,
      "dert": 7787,
      "mangeln": 7788,
      "iano": 7789,
      "beachtung": 7790,
      "instrumenten": 7791,
      "belarus": 7792,
      "schte": 7793,
      "ialen": 7794,
      "isierungs": 7795,
      "commer": 7796,
      "wörter": 7797,
      "behält": 7798,
      "drin": 7799,
      "tools": 7800,
      "labor": 7801,
      "gon": 7802,
      "mittel-": 7803,
      "leidenschaft": 7804,
      "ursache": 7805,
      "lings": 7806,
      "besucht": 7807,
      "swimming": 7808,
      "däne": 7809,
      "ennt": 7810,
      "angt": 7811,
      "dasselbe": 7812,
      "zwanzig": 7813,
      "tü": 7814,
      "ips": 7815,
      "dü": 7816,
      "fried": 7817,
      "oftmals": 7818,
      "900": 7819,
      "gärten": 7820,
      "kanz": 7821,
      "konzert": 7822,
      "bewahren": 7823,
      "ktro": 7824,
      "meldung": 7825,
      "wälder": 7826,
      "angemessenen": 7827,
      "they": 7828,
      "währungsunion": 7829,
      "empfänger": 7830,
      "arabischen": 7831,
      "kes": 7832,
      "reichhal": 7833,
      "französisch": 7834,
      "zertifik": 7835,
      "digitale": 7836,
      "ves": 7837,
      "85": 7838,
      "inten": 7839,
      "dates": 7840,
      "italienische": 7841,
      "veranstaltungs": 7842,
      "profess": 7843,
      "gratis": 7844,
      "gelegenen": 7845,
      "zustande": 7846,
      "unterlagen": 7847,
      "hydr": 7848,
      "planen": 7849,
      "verschmutzung": 7850,
      "tätigen": 7851,
      "professionelle": 7852,
      "zuverlässigkeit": 7853,
      "annehmlichkeiten": 7854,
      "monte": 7855,
      "anzubieten": 7856,
      "geschickt": 7857,
      "stich": 7858,
      "03": 7859,
      "auffordern": 7860,
      "innere": 7861,
      "120": 7862,
      "errichtet": 7863,
      "zurzeit": 7864,
      "produz": 7865,
      "wärts": 7866,
      "bedeutenden": 7867,
      "fugen": 7868,
      "umzu": 7869,
      "jahrzehnten": 7870,
      "ji": 7871,
      "einfuhr": 7872,
      "ausrichtung": 7873,
      "cock": 7874,
      "ckets": 7875,
      "zwecken": 7876,
      "fügt": 7877,
      "maus": 7878,
      "sicherheitspolitik": 7879,
      "lässig": 7880,
      "ermutigen": 7881,
      "änen": 7882,
      "erkunden": 7883,
      "heiz": 7884,
      "entschul": 7885,
      "untersuchen": 7886,
      "zusammenhalt": 7887,
      "jean": 7888,
      "blü": 7889,
      "elektro": 7890,
      "gebiets": 7891,
      "wäsche": 7892,
      "roman": 7893,
      "arzt": 7894,
      "dynamik": 7895,
      "unentgeltlich": 7896,
      "illegale": 7897,
      "beabsichtigt": 7898,
      "unterkünfte": 7899,
      "begünst": 7900,
      "etik": 7901,
      "ring": 7902,
      "soeben": 7903,
      "inspe": 7904,
      "elt": 7905,
      "vereinigung": 7906,
      "tragt": 7907,
      "pod": 7908,
      "negativen": 7909,
      "sl": 7910,
      "soldaten": 7911,
      "offiziell": 7912,
      "a5": 7913,
      "anton": 7914,
      "aufzug": 7915,
      "konzip": 7916,
      "selb": 7917,
      "1992": 7918,
      "chern": 7919,
      "grafik": 7920,
      "grüne": 7921,
      "chi": 7922,
      "müß": 7923,
      "melden": 7924,
      "aktions": 7925,
      "materie": 7926,
      "brech": 7927,
      "plötz": 7928,
      "venedig": 7929,
      "kümmern": 7930,
      "montage": 7931,
      "gekennzeichnet": 7932,
      "strukture": 7933,
      "hügel": 7934,
      "skype": 7935,
      "zwöl": 7936,
      "eurozone": 7937,
      "angenehmen": 7938,
      "hinzugefügt": 7939,
      "messer": 7940,
      "begleiten": 7941,
      "todesstrafe": 7942,
      "yn": 7943,
      "hilf": 7944,
      "gefasst": 7945,
      "vorgestellt": 7946,
      "unterbrochen": 7947,
      "bewohner": 7948,
      "count": 7949,
      "ctr": 7950,
      "innovationen": 7951,
      "derzeitige": 7952,
      "black": 7953,
      "close": 7954,
      "ista": 7955,
      "verwan": 7956,
      "g.": 7957,
      "verwö": 7958,
      "frühjahr": 7959,
      "aufs": 7960,
      "schrank": 7961,
      "vergnügen": 7962,
      "authen": 7963,
      "berechnet": 7964,
      "umstruktur": 7965,
      "schengen": 7966,
      "beschluß": 7967,
      "uchs": 7968,
      "typischen": 7969,
      "ule": 7970,
      "praktischen": 7971,
      "verwirklichung": 7972,
      "flughäfen": 7973,
      "wohnzimmer": 7974,
      "getränke": 7975,
      "statistiken": 7976,
      "hungs": 7977,
      "realer": 7978,
      "beinhalten": 7979,
      "wesentlicher": 7980,
      "gebau": 7981,
      "sekretär": 7982,
      "sig": 7983,
      "erwor": 7984,
      "import": 7985,
      "cookies": 7986,
      "schwan": 7987,
      "wartet": 7988,
      "print": 7989,
      "mexiko": 7990,
      "pflichten": 7991,
      "bsp": 7992,
      "entscheidenden": 7993,
      "ehrgeizi": 7994,
      "zahn": 7995,
      "resolution": 7996,
      "his": 7997,
      "music": 7998,
      "publikum": 7999,
      "igem": 8000,
      "tanz": 8001,
      "sekunden": 8002,
      "obst": 8003,
      "festzustellen": 8004,
      "fließen": 8005,
      "aqu": 8006,
      "desto": 8007,
      "gesammel": 8008,
      "vulkan": 8009,
      "kanä": 8010,
      "terra": 8011,
      "geräumt": 8012,
      "kohäsionspolitik": 8013,
      "effektive": 8014,
      "flag": 8015,
      "ago": 8016,
      "finnland": 8017,
      "yo": 8018,
      "befasst": 8019,
      "sieb": 8020,
      "ausbe": 8021,
      "diges": 8022,
      "grav": 8023,
      "pia": 8024,
      "wasch": 8025,
      "verletzt": 8026,
      "ausgewählt": 8027,
      "müsste": 8028,
      "enthalt": 8029,
      "phrase": 8030,
      "ès": 8031,
      "beschei": 8032,
      "helpf": 8033,
      "schwung": 8034,
      "wirkliche": 8035,
      "note": 8036,
      "bezeichnen": 8037,
      "anzunehmen": 8038,
      "umweltfragen": 8039,
      "02": 8040,
      "mitzu": 8041,
      "nehme": 8042,
      "mehrwertsteuer": 8043,
      "erung": 8044,
      "chef": 8045,
      "wende": 8046,
      "wechs": 8047,
      "renoviert": 8048,
      "reparatur": 8049,
      "scre": 8050,
      "hafter": 8051,
      "geführte": 8052,
      "than": 8053,
      "gewid": 8054,
      "ladung": 8055,
      "graph": 8056,
      "uen": 8057,
      "ali": 8058,
      "dän": 8059,
      "rio": 8060,
      "eintritt": 8061,
      "befrie": 8062,
      "vermittlungs": 8063,
      "außen-": 8064,
      "iii": 8065,
      "zweiter": 8066,
      "streifen": 8067,
      "amerikas": 8068,
      "preises": 8069,
      "nachteil": 8070,
      "sagten": 8071,
      "bühne": 8072,
      "unes": 8073,
      "uth": 8074,
      "sitzungen": 8075,
      "gefährdet": 8076,
      "virus": 8077,
      "brä": 8078,
      "ordner": 8079,
      "studi": 8080,
      "aspekten": 8081,
      "uchen": 8082,
      "grenzung": 8083,
      "43": 8084,
      "köl": 8085,
      "saint": 8086,
      "wf": 8087,
      "zäh": 8088,
      "ray": 8089,
      "festlegen": 8090,
      "umgehen": 8091,
      "oblig": 8092,
      "indik": 8093,
      "zeile": 8094,
      "ganzes": 8095,
      "bist": 8096,
      "ausüben": 8097,
      "els": 8098,
      "hervorragend": 8099,
      "angewandt": 8100,
      "source": 8101,
      "günstigen": 8102,
      "getreten": 8103,
      "ruhige": 8104,
      "beliebt": 8105,
      "dün": 8106,
      "ruß": 8107,
      "genuss": 8108,
      "same": 8109,
      "migration": 8110,
      "seen": 8111,
      "hinein": 8112,
      "express": 8113,
      "kauft": 8114,
      "steil": 8115,
      "pfeiler": 8116,
      "unglück": 8117,
      "ultur": 8118,
      "modernisierung": 8119,
      "standes": 8120,
      "religion": 8121,
      "här": 8122,
      "gemütliche": 8123,
      "mediterran": 8124,
      "bag": 8125,
      "geregelt": 8126,
      "zeitplan": 8127,
      "nl": 8128,
      "tai": 8129,
      "bewerten": 8130,
      "konzepte": 8131,
      "errichtung": 8132,
      "ots": 8133,
      "arbeitnehmern": 8134,
      "kompliziert": 8135,
      "miner": 8136,
      "schwierige": 8137,
      "o.": 8138,
      "finanzieren": 8139,
      "erklärte": 8140,
      "fernseher": 8141,
      "doppelzimmer": 8142,
      "kalender": 8143,
      "gewählten": 8144,
      "humanitären": 8145,
      "waff": 8146,
      "hielten": 8147,
      "metro": 8148,
      "luftfahrt": 8149,
      "müssten": 8150,
      "verteidigungs": 8151,
      "verblei": 8152,
      "referend": 8153,
      "stitution": 8154,
      "wartung": 8155,
      "scheitern": 8156,
      "nutzungs": 8157,
      "anzuwenden": 8158,
      "traditionen": 8159,
      "universit": 8160,
      "galerie": 8161,
      "tail": 8162,
      "41": 8163,
      "tee": 8164,
      "graben": 8165,
      "referenz": 8166,
      "gemeinden": 8167,
      "night": 8168,
      "walt": 8169,
      "staats-": 8170,
      "argumente": 8171,
      "gir": 8172,
      "matischen": 8173,
      "längst": 8174,
      "klarheit": 8175,
      "ausgegeben": 8176,
      "trat": 8177,
      "siver": 8178,
      "empfang": 8179,
      "spekul": 8180,
      "geliefert": 8181,
      "ret": 8182,
      "trek": 8183,
      "konjunktur": 8184,
      "annäher": 8185,
      "emotion": 8186,
      "ious": 8187,
      "performance": 8188,
      "excell": 8189,
      "1993": 8190,
      "überraschen": 8191,
      "pharma": 8192,
      "evalu": 8193,
      "feiern": 8194,
      "zuverläs": 8195,
      "plant": 8196,
      "anwenden": 8197,
      "iet": 8198,
      "urch": 8199,
      "angeschlossen": 8200,
      "beeinflussen": 8201,
      "p.": 8202,
      "einsei": 8203,
      "ausflug": 8204,
      "fäll": 8205,
      "dritter": 8206,
      "erkrank": 8207,
      "angabe": 8208,
      "pression": 8209,
      "abgegeben": 8210,
      "nachweis": 8211,
      "kali": 8212,
      "logistik": 8213,
      "gerechte": 8214,
      "ausarbeitung": 8215,
      "tri": 8216,
      "ratschlag": 8217,
      "verhandlung": 8218,
      "angehörigen": 8219,
      "strafen": 8220,
      "treib": 8221,
      "erhöh": 8222,
      "konferenzen": 8223,
      "heits": 8224,
      "merkt": 8225,
      "verluste": 8226,
      "rap": 8227,
      "weiterentwicklung": 8228,
      "holt": 8229,
      "ktoren": 8230,
      "souveränität": 8231,
      "lärm": 8232,
      "aussagen": 8233,
      "gewöhnlich": 8234,
      "florenz": 8235,
      "visum": 8236,
      "secur": 8237,
      "gigen": 8238,
      "gemeinsames": 8239,
      "spanische": 8240,
      "gegebenenfalls": 8241,
      "stechnik": 8242,
      "abschließen": 8243,
      "erstklas": 8244,
      "überwachen": 8245,
      "läufig": 8246,
      "herstellen": 8247,
      "besatz": 8248,
      "jag": 8249,
      "berichterstattern": 8250,
      "langfristigen": 8251,
      "spektak": 8252,
      "auftritt": 8253,
      "bereichs": 8254,
      "eb": 8255,
      "vorzunehmen": 8256,
      "erwachsene": 8257,
      "ehemalige": 8258,
      "börse": 8259,
      "entwicklungshilfe": 8260,
      "erneu": 8261,
      "ites": 8262,
      "sentwurf": 8263,
      "laser": 8264,
      "arier": 8265,
      "setzte": 8266,
      "merkmale": 8267,
      "herbei": 8268,
      "geschäften": 8269,
      "plenar": 8270,
      "existieren": 8271,
      "versteht": 8272,
      "party": 8273,
      "bedienung": 8274,
      "spam": 8275,
      "akteure": 8276,
      "04": 8277,
      "baden": 8278,
      "erwiesen": 8279,
      "genz": 8280,
      "anner": 8281,
      "tip": 8282,
      "schienen": 8283,
      "anreg": 8284,
      "zürich": 8285,
      "nizza": 8286,
      "umin": 8287,
      "elektronische": 8288,
      "bestell": 8289,
      "veröffentlichen": 8290,
      "leger": 8291,
      "schreibt": 8292,
      "excellent": 8293,
      "ader": 8294,
      "water": 8295,
      "revision": 8296,
      "teste": 8297,
      "vorsorge": 8298,
      "700": 8299,
      "igungs": 8300,
      "übergreifen": 8301,
      "lenken": 8302,
      "wart": 8303,
      "public": 8304,
      "eto": 8305,
      "weltweite": 8306,
      "ianischen": 8307,
      "ava": 8308,
      "vergabe": 8309,
      "gefährlich": 8310,
      "spezialisten": 8311,
      "verbreitet": 8312,
      "equ": 8313,
      "fliegen": 8314,
      "wunderschöne": 8315,
      "konfiguration": 8316,
      "schreib": 8317,
      "central": 8318,
      "cour": 8319,
      "uel": 8320,
      "stik": 8321,
      "gio": 8322,
      "meldungen": 8323,
      "lichem": 8324,
      "listings": 8325,
      "ägypten": 8326,
      "unterhalt": 8327,
      "verträgen": 8328,
      "mittlung": 8329,
      "definieren": 8330,
      "komplexe": 8331,
      "uk": 8332,
      "erteilt": 8333,
      "grab": 8334,
      "ère": 8335,
      "gewer": 8336,
      "uv": 8337,
      "aria": 8338,
      "nutzt": 8339,
      "mäßigen": 8340,
      "drängen": 8341,
      "eta": 8342,
      "aktivität": 8343,
      "workshop": 8344,
      "andre": 8345,
      "frag": 8346,
      "südlichen": 8347,
      "ehre": 8348,
      "lines": 8349,
      "schlechte": 8350,
      "negativ": 8351,
      "bestellungen": 8352,
      "vertraut": 8353,
      "miet": 8354,
      "beweisen": 8355,
      "eck": 8356,
      "würdigen": 8357,
      "gehende": 8358,
      "edition": 8359,
      "mäßige": 8360,
      "blumen": 8361,
      "vorgelegten": 8362,
      "dell": 8363,
      "komfor": 8364,
      "easy": 8365,
      "erschein": 8366,
      "kontextuellen": 8367,
      "beseitigen": 8368,
      "aufzubauen": 8369,
      "tlicher": 8370,
      "entdeckst": 8371,
      "find": 8372,
      "internetzugang": 8373,
      "events": 8374,
      "vordergrund": 8375,
      "ew": 8376,
      "seel": 8377,
      "rubr": 8378,
      "kaiser": 8379,
      "spaziergang": 8380,
      "ileg": 8381,
      "kontextuell": 8382,
      "summe": 8383,
      "airbus": 8384,
      "state": 8385,
      "techniken": 8386,
      "jose": 8387,
      "unab": 8388,
      "dänemark": 8389,
      "umso": 8390,
      "dublin": 8391,
      "vereinigte": 8392,
      "steuerzahl": 8393,
      "tzeit": 8394,
      "road": 8395,
      "tickets": 8396,
      "welle": 8397,
      "diff": 8398,
      "theore": 8399,
      "österreichischen": 8400,
      "konsequent": 8401,
      "a3": 8402,
      "eingebracht": 8403,
      "moun": 8404,
      "come": 8405,
      "verkäufer": 8406,
      "grammatisch": 8407,
      "area": 8408,
      "hinzufugen": 8409,
      "verringert": 8410,
      "ão": 8411,
      "dringlichkeit": 8412,
      "reten": 8413,
      "26.": 8414,
      "hit": 8415,
      "solch": 8416,
      "ng": 8417,
      "screen": 8418,
      "späte": 8419,
      "spüren": 8420,
      "vorn": 8421,
      "gehe": 8422,
      "plaza": 8423,
      "kooperations": 8424,
      "pilot": 8425,
      "dau": 8426,
      "oe": 8427,
      "nächster": 8428,
      "elegante": 8429,
      "schwimmb": 8430,
      "helpful": 8431,
      "schlusselwort": 8432,
      "petition": 8433,
      "schlusselphrase": 8434,
      "eintrag": 8435,
      "manchen": 8436,
      "aufgezahlt": 8437,
      "professionellen": 8438,
      "chinesische": 8439,
      "schwedischen": 8440,
      "zwölf": 8441,
      "steckt": 8442,
      "gesucht": 8443,
      "moderner": 8444,
      "kloster": 8445,
      "argentin": 8446,
      "führungen": 8447,
      "verbrauchern": 8448,
      "vertretung": 8449,
      "konsul": 8450,
      "nic": 8451,
      "led": 8452,
      "charme": 8453,
      "protokolls": 8454,
      "small": 8455,
      "beantwortet": 8456,
      "cus": 8457,
      "ios": 8458,
      "mithilfe": 8459,
      "verwendeten": 8460,
      "alitäten": 8461,
      "effizienter": 8462,
      "aufbauen": 8463,
      "verstehe": 8464,
      "studium": 8465,
      "stable": 8466,
      "sternen": 8467,
      "folgendes": 8468,
      "fanden": 8469,
      "fass": 8470,
      "eintreten": 8471,
      "legitim": 8472,
      "eingeleitet": 8473,
      "auswählen": 8474,
      "vorsitzender": 8475,
      "sätzen": 8476,
      "privileg": 8477,
      "landwirtschaftlichen": 8478,
      "ausweit": 8479,
      "ausbildungs": 8480,
      "typisch": 8481,
      "steck": 8482,
      "kohär": 8483,
      "sports": 8484,
      "schalter": 8485,
      "gewidmet": 8486,
      "glichkeit": 8487,
      "universitäten": 8488,
      "ées": 8489,
      "flach": 8490,
      "englischen": 8491,
      "entschlossenheit": 8492,
      "keineswegs": 8493,
      "großzüg": 8494,
      "erfolge": 8495,
      "hôtel": 8496,
      "eröffnung": 8497,
      "wies": 8498,
      "protest": 8499,
      "berufen": 8500,
      "prodi": 8501,
      "zeilen": 8502,
      "stabilitäts": 8503,
      "anbetracht": 8504,
      "mem": 8505,
      "theorie": 8506,
      "reagiert": 8507,
      "mallor": 8508,
      "cho": 8509,
      "entstand": 8510,
      "negative": 8511,
      "digungen": 8512,
      "gnu": 8513,
      "spenden": 8514,
      "kyoto": 8515,
      "gin": 8516,
      "orche": 8517,
      "alem": 8518,
      "komit": 8519,
      "zentrums": 8520,
      "fremd": 8521,
      "arzneimittel": 8522,
      "hohes": 8523,
      "erfolgs": 8524,
      "28.": 8525,
      "stick": 8526,
      "perman": 8527,
      "unzu": 8528,
      "steine": 8529,
      "erreichung": 8530,
      "literatur": 8531,
      "inhalten": 8532,
      "durchsetzung": 8533,
      "29.": 8534,
      "brochen": 8535,
      "erheben": 8536,
      "gier": 8537,
      "inf": 8538,
      "versehen": 8539,
      "ience": 8540,
      "ausweitung": 8541,
      "fic": 8542,
      "schwellen": 8543,
      "niederlande": 8544,
      "hochwertigen": 8545,
      "atember": 8546,
      "nachdenken": 8547,
      "ökologischen": 8548,
      "ahe": 8549,
      "geograph": 8550,
      "überlegen": 8551,
      "benen": 8552,
      "inflation": 8553,
      "öch": 8554,
      "blicken": 8555,
      "wahrung": 8556,
      "atemberauben": 8557,
      "schnittstelle": 8558,
      "sichtig": 8559,
      "bewußt": 8560,
      "atem": 8561,
      "gewinne": 8562,
      "control": 8563,
      "taxi": 8564,
      "zugeben": 8565,
      "rake": 8566,
      "unterdrück": 8567,
      "schweigen": 8568,
      "most": 8569,
      "updates": 8570,
      "innovativen": 8571,
      "rotary": 8572,
      "kommentare": 8573,
      "karriere": 8574,
      "verordnungen": 8575,
      "gentoo": 8576,
      "heer": 8577,
      "stuhl": 8578,
      "dienstes": 8579,
      "netzes": 8580,
      "fremdenverkehr": 8581,
      "anerkennen": 8582,
      "bouti": 8583,
      "inclu": 8584,
      "ichtet": 8585,
      "einigt": 8586,
      "some": 8587,
      "ablehnen": 8588,
      "lagern": 8589,
      "vielsei": 8590,
      "gton": 8591,
      "exe": 8592,
      "präsentation": 8593,
      "sphase": 8594,
      "ein-": 8595,
      "attraktiv": 8596,
      "einkommens": 8597,
      "ratifizierung": 8598,
      "drucker": 8599,
      "panorama": 8600,
      "food": 8601,
      "kleinere": 8602,
      "shutt": 8603,
      "fabrik": 8604,
      "splä": 8605,
      "bevorzu": 8606,
      "ärmsten": 8607,
      "utes": 8608,
      "finger": 8609,
      "stattgefunden": 8610,
      "logik": 8611,
      "motoren": 8612,
      "bürokratie": 8613,
      "puer": 8614,
      "hong": 8615,
      "erwerben": 8616,
      "sches": 8617,
      "rufe": 8618,
      "ausschüsse": 8619,
      "famili": 8620,
      "handlung": 8621,
      "dienstleistung": 8622,
      "ungeachtet": 8623,
      "anmerkungen": 8624,
      "zog": 8625,
      "größter": 8626,
      "vermittlung": 8627,
      "borg": 8628,
      "govern": 8629,
      "konzentration": 8630,
      "vollem": 8631,
      "wohnern": 8632,
      "schönes": 8633,
      "bewegt": 8634,
      "davor": 8635,
      "taste": 8636,
      "sifiz": 8637,
      "relax": 8638,
      "hs": 8639,
      "sec": 8640,
      "maßgeb": 8641,
      "alla": 8642,
      "inbegriffen": 8643,
      "volles": 8644,
      "verschlechter": 8645,
      "iwf": 8646,
      "flexibel": 8647,
      "langem": 8648,
      "volkspartei": 8649,
      "blan": 8650,
      "erhalt": 8651,
      "alltag": 8652,
      "dampf": 8653,
      "nichtraucherzimmer": 8654,
      "schneiden": 8655,
      "eingabe": 8656,
      "ktop": 8657,
      "tirol": 8658,
      "deutschlands": 8659,
      "file": 8660,
      "sap": 8661,
      "gesellschaftlichen": 8662,
      "geschenk": 8663,
      "sis": 8664,
      "inkraft": 8665,
      "bezü": 8666,
      "david": 8667,
      "aku": 8668,
      "leser": 8669,
      "27.": 8670,
      "zise": 8671,
      "sprung": 8672,
      "lehren": 8673,
      "automatische": 8674,
      "befürworten": 8675,
      "gemä": 8676,
      "single": 8677,
      "zza": 8678,
      "höhen": 8679,
      "vorüber": 8680,
      "funktionalität": 8681,
      "mittwoch": 8682,
      "widmen": 8683,
      "türen": 8684,
      "ansprech": 8685,
      "einladen": 8686,
      "geschlechter": 8687,
      "uneingeschränkt": 8688,
      "stärksten": 8689,
      "trib": 8690,
      "verurteilen": 8691,
      "erstaun": 8692,
      "stal": 8693,
      "schär": 8694,
      "liban": 8695,
      "medizinische": 8696,
      "erer": 8697,
      "anbindung": 8698,
      "squ": 8699,
      "beibehalten": 8700,
      "gefängnis": 8701,
      "gelern": 8702,
      "seitdem": 8703,
      "kostenlosen": 8704,
      "ferienwohnungen": 8705,
      "schwarzen": 8706,
      "swiss": 8707,
      "roten": 8708,
      "instruments": 8709,
      "streich": 8710,
      "grenzüberschreitenden": 8711,
      "vermutlich": 8712,
      "gno": 8713,
      "alischen": 8714,
      "berichtet": 8715,
      "ning": 8716,
      "desktop": 8717,
      "aktualisiert": 8718,
      "ulen": 8719,
      "tho": 8720,
      "besteuerung": 8721,
      "fau": 8722,
      "klam": 8723,
      "effektiver": 8724,
      "rung": 8725,
      "mahl": 8726,
      "beruh": 8727,
      "formulierung": 8728,
      "tigem": 8729,
      "tischer": 8730,
      "gum": 8731,
      "klagen": 8732,
      "erlassen": 8733,
      "legiti": 8734,
      "flugzeuge": 8735,
      "gerichten": 8736,
      "null": 8737,
      "cau": 8738,
      "ehrlich": 8739,
      "verpflichten": 8740,
      "flügel": 8741,
      "nar": 8742,
      "rückgang": 8743,
      "jü": 8744,
      "kurzer": 8745,
      "falsche": 8746,
      "tax": 8747,
      "engen": 8748,
      "erteilen": 8749,
      "renom": 8750,
      "slowakei": 8751,
      "schad": 8752,
      "160": 8753,
      "adressen": 8754,
      "about": 8755,
      "öss": 8756,
      "hände": 8757,
      "begrei": 8758,
      "million": 8759,
      "cts": 8760,
      "dicht": 8761,
      "ecke": 8762,
      "manip": 8763,
      "ij": 8764,
      "buda": 8765,
      "leitungen": 8766,
      "eigentümer": 8767,
      "kombiniert": 8768,
      "probieren": 8769,
      "obligator": 8770,
      "unzäh": 8771,
      "bogen": 8772,
      "comfortable": 8773,
      "gemeinsamer": 8774,
      "ausübung": 8775,
      "autonomie": 8776,
      "would": 8777,
      "ville": 8778,
      "gebäuden": 8779,
      "schuh": 8780,
      "basieren": 8781,
      "speed": 8782,
      "kommissionspräsident": 8783,
      "synchron": 8784,
      "gebraucht": 8785,
      "quell": 8786,
      "optimierung": 8787,
      "objektiv": 8788,
      "beobacht": 8789,
      "ologisch": 8790,
      "aufrecht": 8791,
      "umstände": 8792,
      "vorbild": 8793,
      "deinen": 8794,
      "gehenden": 8795,
      "herausragen": 8796,
      "aga": 8797,
      "finanzen": 8798,
      "indones": 8799,
      "prozessen": 8800,
      "lassungen": 8801,
      "autoren": 8802,
      "ueber": 8803,
      "äußerung": 8804,
      "vertritt": 8805,
      "portfol": 8806,
      "beschäftigten": 8807,
      "ziger": 8808,
      "abwechs": 8809,
      "schicksal": 8810,
      "festplatte": 8811,
      "arbeitslosen": 8812,
      "stationen": 8813,
      "technischer": 8814,
      "ausländischen": 8815,
      "unfall": 8816,
      "monitor": 8817,
      "russische": 8818,
      "batter": 8819,
      "rhein": 8820,
      "lles": 8821,
      "utung": 8822,
      "üblichen": 8823,
      "enormen": 8824,
      "schenken": 8825,
      "präzise": 8826,
      "grünbuch": 8827,
      "eingetragen": 8828,
      "nap": 8829,
      "lateinamerika": 8830,
      "kohle": 8831,
      "nötigen": 8832,
      "erarbeitet": 8833,
      "bedroht": 8834,
      "hd": 8835,
      "empfind": 8836,
      "unterschiedlicher": 8837,
      "devel": 8838,
      "umgehend": 8839,
      "cion": 8840,
      "matische": 8841,
      "übermitteln": 8842,
      "lade": 8843,
      "heran": 8844,
      "lock": 8845,
      "game": 8846,
      "vermittelt": 8847,
      "fristen": 8848,
      "vergeben": 8849,
      "ippe": 8850,
      "bse": 8851,
      "beleuch": 8852,
      "nachdruck": 8853,
      "öffentlicher": 8854,
      "conne": 8855,
      "wächst": 8856,
      "einiges": 8857,
      "teur": 8858,
      "tabelle": 8859,
      "erober": 8860,
      "unterhaltung": 8861,
      "anna": 8862,
      "australien": 8863,
      "jar": 8864,
      "spiegeln": 8865,
      "zeitgen": 8866,
      "bewertet": 8867,
      "1989": 8868,
      "vielfach": 8869,
      "wichtigkeit": 8870,
      "orientierung": 8871,
      "ursprungs": 8872,
      "attraktionen": 8873,
      "schwächen": 8874,
      "kampagnen": 8875,
      "ous": 8876,
      "zentraler": 8877,
      "szene": 8878,
      "eitete": 8879,
      "opfern": 8880,
      "zubehör": 8881,
      "transaktionen": 8882,
      ".org": 8883,
      "anträge": 8884,
      "lingen": 8885,
      "bewältigung": 8886,
      "verlängerung": 8887,
      "mität": 8888,
      "fortsetzung": 8889,
      "erlangen": 8890,
      "stete": 8891,
      "marina": 8892,
      "arbeitszeit": 8893,
      "verbindlich": 8894,
      "try": 8895,
      "gangenen": 8896,
      "respektieren": 8897,
      "überrascht": 8898,
      "anpassen": 8899,
      "minderheit": 8900,
      "bun": 8901,
      "gg": 8902,
      "einstellen": 8903,
      "übersch": 8904,
      "getrennt": 8905,
      "klären": 8906,
      "abgeordneter": 8907,
      "leder": 8908,
      "küchen": 8909,
      "zerstörung": 8910,
      "exklusiv": 8911,
      "vorgang": 8912,
      "kong": 8913,
      "1991": 8914,
      "verschlüssel": 8915,
      "photo": 8916,
      "every": 8917,
      "chemische": 8918,
      "begründet": 8919,
      "gelang": 8920,
      "ception": 8921,
      "ewi": 8922,
      "abends": 8923,
      "zeigte": 8924,
      "ausgestattete": 8925,
      "mails": 8926,
      "domain": 8927,
      "ausgehend": 8928,
      "abstimmungen": 8929,
      "strengen": 8930,
      "spirit": 8931,
      "mmer": 8932,
      "retten": 8933,
      "anzupassen": 8934,
      "freiwilligen": 8935,
      "meta": 8936,
      "umfangreichen": 8937,
      "angenehme": 8938,
      "auswirken": 8939,
      "institute": 8940,
      "geehrte": 8941,
      "golden": 8942,
      "behauptet": 8943,
      "washin": 8944,
      "klärt": 8945,
      "leichte": 8946,
      "tunes": 8947,
      "kameras": 8948,
      "produktivität": 8949,
      "einzelheiten": 8950,
      "komplexen": 8951,
      "gemütlichen": 8952,
      "ikt": 8953,
      "ens": 8954,
      "imes": 8955,
      "vorgehensweise": 8956,
      "dieselbe": 8957,
      "ausländische": 8958,
      "sofor": 8959,
      "gewachsen": 8960,
      "zimmerbeschreibung": 8961,
      "jährlichen": 8962,
      "transatlan": 8963,
      "zugs": 8964,
      "ähnlichen": 8965,
      "sebene": 8966,
      "freihandels": 8967,
      "stätigkeit": 8968,
      "spunkte": 8969,
      "beau": 8970,
      "lehre": 8971,
      "gelingen": 8972,
      "erforderliche": 8973,
      "transparent": 8974,
      "kreatur": 8975,
      "menschheit": 8976,
      "wöch": 8977,
      "derart": 8978,
      "games": 8979,
      "inhalts": 8980,
      "sclub": 8981,
      "casa": 8982,
      "chat": 8983,
      "einher": 8984,
      "erarbeiten": 8985,
      "freundlichkeit": 8986,
      "head": 8987,
      "fortsetzen": 8988,
      "hiermit": 8989,
      "reiz": 8990,
      "highl": 8991,
      "mond": 8992,
      "schiffen": 8993,
      "angriffe": 8994,
      "gestartet": 8995,
      "offenheit": 8996,
      "lebensmittelsicherheit": 8997,
      "beider": 8998,
      "leihen": 8999,
      "gesetzgeber": 9000,
      "geringen": 9001,
      "gegenstände": 9002,
      "kritischen": 9003,
      "alarm": 9004,
[...]
