{
  "version": "1.0",
  "truncation": null,
  "padding": null,
  "added_tokens": [
    {
      "id": 0,
      "content": "[PAD]",
      "single_word": false,
      "lstrip": false,
      "rstrip": false,
      "normalized": false,
      "special": true
    }
  ],
  "normalizer": {
    "type": "Lowercase"
  },
  "pre_tokenizer": {
    "type": "WhitespaceSplit"
  },
  "post_processor": null,
  "decoder": null,
  "model": {
    "type": "BPE",
    "dropout": null,
    "unk_token": null,
    "continuing_subword_prefix": null,
    "end_of_word_suffix": null,
    "fuse_unk": false,
    "vocab": {
      "[PAD]": 0,
      "!": 1,
      "#": 2,
      "$": 3,
      "%": 4,
      "&": 5,
      "(": 6,
      ")": 7,
      "+": 8,
      ",": 9,
      "-": 10,
      ".": 11,
      "/": 12,
      "0": 13,
      "1": 14,
      "2": 15,
      "3": 16,
      "4": 17,
      "5": 18,
      "6": 19,
      "7": 20,
      "8": 21,
      "9": 22,
      ":": 23,
      ";": 24,
      "=": 25,
      "?": 26,
      "\\": 27,
      "a": 28,
      "b": 29,
      "c": 30,
      "d": 31,
      "e": 32,
      "f": 33,
      "g": 34,
      "h": 35,
      "i": 36,
      "j": 37,
      "k": 38,
      "l": 39,
      "m": 40,
      "n": 41,
      "o": 42,
      "p": 43,
      "q": 44,
      "r": 45,
      "s": 46,
      "t": 47,
      "u": 48,
      "v": 49,
      "w": 50,
      "x": 51,
      "y": 52,
      "z": 53,
      "{": 54,
      "}": 55,
      "~": 56,
      "": 57,
      "": 58,
      "": 59,
      "": 60,
      "£": 61,
      "¤": 62,
      "§": 63,
      "©": 64,
      "«": 65,
      "­": 66,
      "®": 67,
      "°": 68,
      "²": 69,
      "³": 70,
      "´": 71,
      "¶": 72,
      "·": 73,
      "º": 74,
      "»": 75,
      "¼": 76,
      "½": 77,
      "¿": 78,
      "ß": 79,
      "à": 80,
      "á": 81,
      "â": 82,
      "ã": 83,
      "ä": 84,
      "å": 85,
      "æ": 86,
      "ç": 87,
      "è": 88,
      "é": 89,
      "ê": 90,
      "ë": 91,
      "ì": 92,
      "í": 93,
      "î": 94,
      "ï": 95,
      "ð": 96,
      "ñ": 97,
      "ò": 98,
      "ó": 99,
      "ô": 100,
      "õ": 101,
      "ö": 102,
      "ø": 103,
      "ù": 104,
      "ú": 105,
      "û": 106,
      "ü": 107,
      "ý": 108,
      "ā": 109,
      "ă": 110,
      "ą": 111,
      "ć": 112,
      "č": 113,
      "ę": 114,
      "ě": 115,
      "ğ": 116,
      "ı": 117,
      "ł": 118,
      "ń": 119,
      "ň": 120,
      "ő": 121,
      "ř": 122,
      "ś": 123,
      "ş": 124,
      "š": 125,
      "ż": 126,
      "ž": 127,
      "α": 128,
      "β": 129,
      "ε": 130,
      "ι": 131,
      "λ": 132,
      "μ": 133,
      "ν": 134,
      "ο": 135,
      "π": 136,
      "ρ": 137,
      "σ": 138,
      "τ": 139,
      "а": 140,
      "б": 141,
      "в": 142,
      "г": 143,
      "д": 144,
      "е": 145,
      "ж": 146,
      "з": 147,
      "и": 148,
      "й": 149,
      "к": 150,
      "л": 151,
      "м": 152,
      "н": 153,
      "о": 154,
      "п": 155,
      "р": 156,
      "с": 157,
      "т": 158,
      "у": 159,
      "ф": 160,
      "х": 161,
      "ц": 162,
      "ч": 163,
      "ш": 164,
      "щ": 165,
      "ы": 166,
      "ь": 167,
      "ю": 168,
      "я": 169,
      "і": 170,
      "ј": 171,
      "ا": 172,
      "ل": 173,
      "–": 174,
      "—": 175,
      "‘": 176,
      "’": 177,
      "‚": 178,
      "“": 179,
      "”": 180,
      "„": 181,
      "†": 182,
      "•": 183,
      "…": 184,
      "€": 185,
      "™": 186,
      "�": 187,
      "th": 188,
      "in": 189,
      "the": 190,
      "an": 191,
      "re": 192,
      "at": 193,
      "on": 194,
      "er": 195,
      "en": 196,
      "is": 197,
      "or": 198,
      "al": 199,
      "es": 200,
      "ou": 201,
      "of": 202,
      "to": 203,
      "it": 204,
      "and": 205,
      "ion": 206,
      "##": 207,
      "ar": 208,
      "ed": 209,
      "st": 210,
      "ing": 211,
      "ro": 212,
      "ic": 213,
      "as": 214,
      "le": 215,
      "ent": 216,
      "om": 217,
      "se": 218,
      "il": 219,
      "be": 220,
      "ac": 221,
      "ve": 222,
      "for": 223,
      "at##": 224,
      "##at##": 225,
      "de": 226,
      "po": 227,
      "ly": 228,
      "we": 229,
      "ot": 230,
      "ation": 231,
      "ch": 232,
      "that": 233,
      "am": 234,
      "com": 235,
      "con": 236,
      "wh": 237,
      "pe": 238,
      "pro": 239,
      "ct": 240,
      "un": 241,
      "im": 242,
      "su": 243,
      "are": 244,
      "lo": 245,
      "wi": 246,
      "our": 247,
      "ad": 248,
      "res": 249,
      "ver": 250,
      "li": 251,
      "ce": 252,
      "with": 253,
      "ment": 254,
      "ut": 255,
      "ag": 256,
      "ab": 257,
      "tr": 258,
      "qu": 259,
      "ur": 260,
      "us": 261,
      "-##at##": 262,
      "##at##-##at##": 263,
      "pos": 264,
      "ne": 265,
      "this": 266,
      "ter": 267,
      "ay": 268,
      "ig": 269,
      "ir": 270,
      "id": 271,
      "ld": 272,
      "so": 273,
      "te": 274,
      "ul": 275,
      "mo": 276,
      "ill": 277,
      "ha": 278,
      "me": 279,
      "ke": 280,
      "all": 281,
      "por": 282,
      "ate": 283,
      "ex": 284,
      "ts": 285,
      "oun": 286,
      "ers": 287,
      "ies": 288,
      "not": 289,
      "par": 290,
      "if": 291,
      "ity": 292,
      "ess": 293,
      "eu": 294,
      "op": 295,
      "ow": 296,
      "sh": 297,
      "you": 298,
      "by": 299,
      "ain": 300,
      "ap": 301,
      "fe": 302,
      "co": 303,
      "have": 304,
      "ge": 305,
      "he": 306,
      "comm": 307,
      "port": 308,
      "ive": 309,
      "pl": 310,
      "ich": 311,
      "est": 312,
      "apos": 313,
      "&apos": 314,
      "&apos;": 315,
      "ther": 316,
      "ould": 317,
      "rom": 318,
      "euro": 319,
      "will": 320,
      "wor": 321,
      "which": 322,
      "ci": 323,
      "ant": 324,
      "act": 325,
      "from": 326,
      "europe": 327,
      "pr": 328,
      "can": 329,
      "man": 330,
      "ust": 331,
      "igh": 332,
      "pres": 333,
      "ma": 334,
      "out": 335,
      "has": 336,
      "iv": 337,
      "end": 338,
      "gr": 339,
      "one": 340,
      "ions": 341,
      "ol": 342,
      "el": 343,
      "ist": 344,
      "ard": 345,
      "per": 346,
      "mb": 347,
      "able": 348,
      "coun": 349,
      "ib": 350,
      "cl": 351,
      "ind": 352,
      "ren": 353,
      "sion": 354,
      "do": 355,
      "em": 356,
      "ast": 357,
      "00": 358,
      "ie": 359,
      "go": 360,
      "part": 361,
      "du": 362,
      "ure": 363,
      "ll": 364,
      "no": 365,
      "was": 366,
      "european": 367,
      "der": 368,
      "au": 369,
      "there": 370,
      "ally": 371,
      "ta": 372,
      "gh": 373,
      "ple": 374,
      "age": 375,
      "fo": 376,
      "its": 377,
      "ated": 378,
      "also": 379,
      "ho": 380,
      "very": 381,
      "but": 382,
      "af": 383,
      "quot": 384,
      "ous": 385,
      "ans": 386,
      "form": 387,
      "king": 388,
      "cr": 389,
      "od": 390,
      "ser": 391,
      "&quot": 392,
      "&quot;": 393,
      "ish": 394,
      "ire": 395,
      "str": 396,
      "your": 397,
      "ach": 398,
      "ree": 399,
      "lic": 400,
      "reg": 401,
      "tim": 402,
      "ission": 403,
      "cess": 404,
      "ations": 405,
      "dis": 406,
      "&apos;s": 407,
      "more": 408,
      "up": 409,
      "ction": 410,
      "ine": 411,
      "other": 412,
      "ice": 413,
      "cre": 414,
      "now": 415,
      "ip": 416,
      "pre": 417,
      "ical": 418,
      "mar": 419,
      "commission": 420,
      "ia": 421,
      "inter": 422,
      "av": 423,
      "mber": 424,
      "mr": 425,
      "ide": 426,
      "cont": 427,
      "ud": 428,
      "new": 429,
      "ye": 430,
      "bo": 431,
      "would": 432,
      "ary": 433,
      "work": 434,
      "ome": 435,
      "ments": 436,
      "ident": 437,
      "their": 438,
      "ance": 439,
      "ates": 440,
      "ition": 441,
      "gu": 442,
      "iz": 443,
      "spe": 444,
      "been": 445,
      "any": 446,
      "low": 447,
      "ough": 448,
      "ong": 449,
      "cial": 450,
      "cent": 451,
      "day": 452,
      "fr": 453,
      "ace": 454,
      "ight": 455,
      "they": 456,
      "off": 457,
      "ame": 458,
      "should": 459,
      "..": 460,
      "ial": 461,
      "int": 462,
      "way": 463,
      "ev": 464,
      "sp": 465,
      "ite": 466,
      "um": 467,
      "la": 468,
      "who": 469,
      "fore": 470,
      "ful": 471,
      "prov": 472,
      "ound": 473,
      "br": 474,
      "ty": 475,
      "ign": 476,
      "ack": 477,
      "je": 478,
      "ass": 479,
      "countr": 480,
      "ase": 481,
      "min": 482,
      "like": 483,
      "red": 484,
      "ence": 485,
      "hot": 486,
      "ament": 487,
      "must": 488,
      "ef": 489,
      "comp": 490,
      "these": 491,
      "produ": 492,
      "fin": 493,
      "time": 494,
      "some": 495,
      "sy": 496,
      "ens": 497,
      "reat": 498,
      "ting": 499,
      "president": 500,
      "only": 501,
      "than": 502,
      "year": 503,
      "ational": 504,
      "need": 505,
      "ities": 506,
      "sup": 507,
      "serv": 508,
      "200": 509,
      "own": 510,
      "hotel": 511,
      "fir": 512,
      "cer": 513,
      "cur": 514,
      "des": 515,
      "ub": 516,
      "ob": 517,
      "ted": 518,
      "what": 519,
      "about": 520,
      "ult": 521,
      "cor": 522,
      "sib": 523,
      "whe": 524,
      "dr": 525,
      "use": 526,
      "my": 527,
      "sa": 528,
      "ject": 529,
      "loc": 530,
      "ian": 531,
      "bet": 532,
      "lop": 533,
      "ks": 534,
      "enc": 535,
      "over": 536,
      "deve": 537,
      "air": 538,
      "when": 539,
      "ise": 540,
      "tw": 541,
      "develop": 542,
      "parli": 543,
      "parliament": 544,
      "national": 545,
      "most": 546,
      "ious": 547,
      "trans": 548,
      "art": 549,
      "rent": 550,
      "many": 551,
      "und": 552,
      "cus": 553,
      "ail": 554,
      "union": 555,
      "member": 556,
      "room": 557,
      "peop": 558,
      "ution": 559,
      "leg": 560,
      "ener": 561,
      "tain": 562,
      "import": 563,
      "ility": 564,
      "get": 565,
      "states": 566,
      "under": 567,
      "rest": 568,
      "just": 569,
      "pt": 570,
      "vie": 571,
      "ms": 572,
      "people": 573,
      "well": 574,
      "sub": 575,
      "mon": 576,
      "gy": 577,
      "lit": 578,
      "first": 579,
      "stem": 580,
      "dif": 581,
      "&#": 582,
      "them": 583,
      "add": 584,
      "thing": 585,
      "chan": 586,
      "ause": 587,
      "system": 588,
      "come": 589,
      "ors": 590,
      "into": 591,
      "ific": 592,
      "report": 593,
      "cle": 594,
      "mat": 595,
      "19": 596,
      "high": 597,
      "ular": 598,
      "polic": 599,
      "such": 600,
      "ced": 601,
      "ating": 602,
      "ures": 603,
      "sel": 604,
      "view": 605,
      "fect": 606,
      "inte": 607,
      "bec": 608,
      "ile": 609,
      "med": 610,
      "ue": 611,
      "ak": 612,
      "inform": 613,
      "world": 614,
      "ger": 615,
      "dire": 616,
      "ose": 617,
      "were": 618,
      "his": 619,
      "inst": 620,
      "cil": 621,
      "vis": 622,
      "inv": 623,
      "main": 624,
      "lect": 625,
      "ces": 626,
      "bas": 627,
      "econ": 628,
      "pub": 629,
      "ices": 630,
      "econom": 631,
      "land": 632,
      "requ": 633,
      "incl": 634,
      "oper": 635,
      "countries": 636,
      "support": 637,
      "cond": 638,
      "ative": 639,
      "present": 640,
      "know": 641,
      "partic": 642,
      "where": 643,
      "read": 644,
      "ble": 645,
      "lin": 646,
      "council": 647,
      "sit": 648,
      "stand": 649,
      "bu": 650,
      "&#9": 651,
      "pect": 652,
      "ual": 653,
      "ning": 654,
      "marke": 655,
      "again": 656,
      "lar": 657,
      "stru": 658,
      "make": 659,
      "ild": 660,
      "fact": 661,
      "here": 662,
      "important": 663,
      "take": 664,
      "because": 665,
      "ber": 666,
      "car": 667,
      "ory": 668,
      "ep": 669,
      "direct": 670,
      "ied": 671,
      "rel": 672,
      "ok": 673,
      "xt": 674,
      "fic": 675,
      "ween": 676,
      "between": 677,
      "possib": 678,
      "tra": 679,
      "oup": 680,
      "after": 681,
      "may": 682,
      "propos": 683,
      "see": 684,
      "cour": 685,
      "cons": 686,
      "jo": 687,
      "every": 688,
      "set": 689,
      "ph": 690,
      "col": 691,
      "thr": 692,
      "vel": 693,
      "even": 694,
      "ten": 695,
      "group": 696,
      "commun": 697,
      "pon": 698,
      "ra": 699,
      "information": 700,
      "commit": 701,
      "great": 702,
      "et": 703,
      "hu": 704,
      "agree": 705,
      "two": 706,
      "ress": 707,
      "made": 708,
      "ality": 709,
      "row": 710,
      "product": 711,
      "good": 712,
      "pers": 713,
      "ural": 714,
      "then": 715,
      "order": 716,
      "long": 717,
      "through": 718,
      "sul": 719,
      "public": 720,
      "nu": 721,
      "those": 722,
      "sur": 723,
      "play": 724,
      "ards": 725,
      "policy": 726,
      "bus": 727,
      "tur": 728,
      "polit": 729,
      "right": 730,
      "sure": 731,
      "arch": 732,
      "issu": 733,
      "gram": 734,
      "years": 735,
      "being": 736,
      "val": 737,
      "dec": 738,
      "ights": 739,
      "...": 740,
      "lish": 741,
      "had": 742,
      "als": 743,
      "net": 744,
      "ages": 745,
      "respon": 746,
      "bal": 747,
      "clear": 748,
      "ents": 749,
      "20": 750,
      "eng": 751,
      "ustr": 752,
      "howe": 753,
      "however": 754,
      "tech": 755,
      "point": 756,
      "how": 757,
      "place": 758,
      "aw": 759,
      "led": 760,
      "peri": 761,
      "program": 762,
      "ck": 763,
      "vot": 764,
      "proble": 765,
      "tom": 766,
      "sum": 767,
      "less": 768,
      "emp": 769,
      "gan": 770,
      "les": 771,
      "hel": 772,
      "fur": 773,
      "tee": 774,
      "ited": 775,
      "sch": 776,
      "gover": 777,
      "att": 778,
      "cept": 779,
      "ater": 780,
      "fund": 781,
      "process": 782,
      "quest": 783,
      "amp": 784,
      "particular": 785,
      "includ": 786,
      "used": 787,
      "sol": 788,
      "char": 789,
      "economic": 790,
      "io": 791,
      "ran": 792,
      "alth": 793,
      "find": 794,
      "vir": 795,
      "state": 796,
      "want": 797,
      "call": 798,
      "wer": 799,
      "fer": 800,
      "concer": 801,
      "ives": 802,
      "govern": 803,
      "ital": 804,
      "deb": 805,
      "market": 806,
      "therefore": 807,
      "sim": 808,
      "vers": 809,
      "gener": 810,
      "international": 811,
      "rights": 812,
      "development": 813,
      "possible": 814,
      "10": 815,
      "area": 816,
      "say": 817,
      "uring": 818,
      "ving": 819,
      "person": 820,
      "diffe": 821,
      "free": 822,
      "put": 823,
      "clo": 824,
      "star": 825,
      "ict": 826,
      "prote": 827,
      "ves": 828,
      "mu": 829,
      "situ": 830,
      "men": 831,
      "comple": 832,
      "sin": 833,
      "cap": 834,
      "vent": 835,
      "log": 836,
      "social": 837,
      "contr": 838,
      "ban": 839,
      "her": 840,
      "ligh": 841,
      "human": 842,
      "mot": 843,
      "access": 844,
      "incre": 845,
      "help": 846,
      "ric": 847,
      "ss": 848,
      "equ": 849,
      "provid": 850,
      "contin": 851,
      "line": 852,
      "pet": 853,
      "bar": 854,
      "self": 855,
      "political": 856,
      "does": 857,
      "within": 858,
      "ved": 859,
      "ency": 860,
      "both": 861,
      "far": 862,
      "ca": 863,
      "same": 864,
      "dat": 865,
      "sm": 866,
      "ouse": 867,
      "country": 868,
      "ism": 869,
      "tow": 870,
      "effect": 871,
      "last": 872,
      "tal": 873,
      "ick": 874,
      "plic": 875,
      "could": 876,
      "open": 877,
      "beli": 878,
      "oc": 879,
      "appro": 880,
      "interest": 881,
      "lu": 882,
      "fort": 883,
      "nor": 884,
      "level": 885,
      "ings": 886,
      "ort": 887,
      "avail": 888,
      "iness": 889,
      "organ": 890,
      "ply": 891,
      "ext": 892,
      "ready": 893,
      "real": 894,
      "finan": 895,
      "exam": 896,
      "ily": 897,
      "fam": 898,
      "resul": 899,
      "press": 900,
      "against": 901,
      "ink": 902,
      "services": 903,
      "today": 904,
      "mbers": 905,
      "much": 906,
      "var": 907,
      "war": 908,
      "since": 909,
      "ner": 910,
      "tak": 911,
      "ability": 912,
      "fol": 913,
      "key": 914,
      "back": 915,
      "fac": 916,
      "without": 917,
      "cord": 918,
      "down": 919,
      "nat": 920,
      "ters": 921,
      "service": 922,
      "sign": 923,
      "ath": 924,
      "top": 925,
      "lead": 926,
      "ason": 927,
      "house": 928,
      "allow": 929,
      "bre": 930,
      "business": 931,
      "large": 932,
      "itions": 933,
      "utions": 934,
      "envir": 935,
      "environ": 936,
      "treat": 937,
      "different": 938,
      "spec": 939,
      "site": 940,
      "meas": 941,
      "plan": 942,
      "hand": 943,
      "iven": 944,
      "sk": 945,
      "mit": 946,
      "rooms": 947,
      "amend": 948,
      "hap": 949,
      "let": 950,
      "web": 951,
      "demo": 952,
      "cit": 953,
      "number": 954,
      "word": 955,
      "before": 956,
      "ised": 957,
      "follow": 958,
      "committee": 959,
      "di": 960,
      "eve": 961,
      "pri": 962,
      "environment": 963,
      "ional": 964,
      "ute": 965,
      "still": 966,
      "sing": 967,
      "during": 968,
      "search": 969,
      "che": 970,
      "bud": 971,
      "cu": 972,
      "special": 973,
      "too": 974,
      "available": 975,
      "change": 976,
      "12": 977,
      "design": 978,
      "fut": 979,
      "city": 980,
      "current": 981,
      "law": 982,
      "rap": 983,
      "certain": 984,
      "industr": 985,
      "soci": 986,
      "project": 987,
      "emplo": 988,
      "contro": 989,
      "require": 990,
      "ient": 991,
      "members": 992,
      "que": 993,
      "struct": 994,
      "ask": 995,
      "course": 996,
      "ways": 997,
      "vi": 998,
      "offer": 999,
      "aff": 1000,
      "small": 1001,
      "wel": 1002,
      "show": 1003,
      "quality": 1004,
      "cho": 1005,
      "cy": 1006,
      "further": 1007,
      "ists": 1008,
      "ven": 1009,
      "data": 1010,
      "future": 1011,
      "dep": 1012,
      "ics": 1013,
      "already": 1014,
      "ord": 1015,
      "cas": 1016,
      "believe": 1017,
      "exp": 1018,
      "custom": 1019,
      "democr": 1020,
      "products": 1021,
      "thor": 1022,
      "operation": 1023,
      "decis": 1024,
      "question": 1025,
      "second": 1026,
      "ned": 1027,
      "sw": 1028,
      "1;": 1029,
      "&#91;": 1030,
      "compet": 1031,
      "uni": 1032,
      "3;": 1033,
      "prof": 1034,
      "&#93;": 1035,
      "regard": 1036,
      "pur": 1037,
      "ulation": 1038,
      "think": 1039,
      "ness": 1040,
      "position": 1041,
      "case": 1042,
      "text": 1043,
      "best": 1044,
      "instit": 1045,
      "secur": 1046,
      "action": 1047,
      "cost": 1048,
      "each": 1049,
      "eas": 1050,
      "del": 1051,
      "wr": 1052,
      "suc": 1053,
      "plement": 1054,
      "aim": 1055,
      "government": 1056,
      "minis": 1057,
      "financial": 1058,
      "cannot": 1059,
      "responsib": 1060,
      "ports": 1061,
      "ically": 1062,
      "ix": 1063,
      "cal": 1064,
      "lan": 1065,
      "while": 1066,
      "list": 1067,
      "citiz": 1068,
      "conf": 1069,
      "pare": 1070,
      "maj": 1071,
      "safe": 1072,
      "agreement": 1073,
      "pay": 1074,
      "adv": 1075,
      "terr": 1076,
      "sof": 1077,
      "offers": 1078,
      "found": 1079,
      "commissioner": 1080,
      "elect": 1081,
      "community": 1082,
      "feren": 1083,
      "ately": 1084,
      "road": 1085,
      "fun": 1086,
      "child": 1087,
      "tern": 1088,
      "gent": 1089,
      "fil": 1090,
      "amer": 1091,
      "cult": 1092,
      "fully": 1093,
      "reason": 1094,
      "respect": 1095,
      "ry": 1096,
      "power": 1097,
      "ship": 1098,
      "issue": 1099,
      "applic": 1100,
      "necess": 1101,
      "security": 1102,
      "dem": 1103,
      "experi": 1104,
      "ges": 1105,
      "major": 1106,
      "ider": 1107,
      "lim": 1108,
      "centr": 1109,
      "tem": 1110,
      "author": 1111,
      "ear": 1112,
      "grow": 1113,
      "hist": 1114,
      "debate": 1115,
      "sect": 1116,
      "achie": 1117,
      "common": 1118,
      "based": 1119,
      "energy": 1120,
      "priv": 1121,
      "company": 1122,
      "said": 1123,
      "legal": 1124,
      "tour": 1125,
      "gen": 1126,
      "ri": 1127,
      "proposal": 1128,
      "199": 1129,
      "resol": 1130,
      "hal": 1131,
      "life": 1132,
      "cell": 1133,
      "implement": 1134,
      "means": 1135,
      "az": 1136,
      "ible": 1137,
      "build": 1138,
      "ben": 1139,
      "example": 1140,
      "techno": 1141,
      "why": 1142,
      "light": 1143,
      "activ": 1144,
      "got": 1145,
      "opt": 1146,
      "strate": 1147,
      "pli": 1148,
      "invest": 1149,
      "represent": 1150,
      "mer": 1151,
      "pass": 1152,
      "situation": 1153,
      "including": 1154,
      "isl": 1155,
      "located": 1156,
      "health": 1157,
      "three": 1158,
      "old": 1159,
      "object": 1160,
      "ina": 1161,
      "next": 1162,
      "taken": 1163,
      "stud": 1164,
      "isation": 1165,
      "prin": 1166,
      "stay": 1167,
      "ivid": 1168,
      "count": 1169,
      "addition": 1170,
      "glo": 1171,
      "consider": 1172,
      "ude": 1173,
      "ird": 1174,
      "ants": 1175,
      "ized": 1176,
      "employ": 1177,
      "using": 1178,
      "citizens": 1179,
      "trade": 1180,
      "specific": 1181,
      "aut": 1182,
      "ins": 1183,
      "success": 1184,
      "depend": 1185,
      "give": 1186,
      "acy": 1187,
      "estab": 1188,
      "measures": 1189,
      "os": 1190,
      "pen": 1191,
      "ilities": 1192,
      "areas": 1193,
      "redu": 1194,
      "bl": 1195,
      "given": 1196,
      "ys": 1197,
      "bur": 1198,
      "rece": 1199,
      "discus": 1200,
      "trad": 1201,
      "atic": 1202,
      "illion": 1203,
      "ref": 1204,
      "control": 1205,
      "aid": 1206,
      "few": 1207,
      "establish": 1208,
      "logy": 1209,
      "budget": 1210,
      "tle": 1211,
      "necessary": 1212,
      "provide": 1213,
      "train": 1214,
      "protection": 1215,
      "lad": 1216,
      "fast": 1217,
      "omen": 1218,
      "manage": 1219,
      "ensure": 1220,
      "ged": 1221,
      "init": 1222,
      "ield": 1223,
      "problem": 1224,
      "den": 1225,
      "cooperation": 1226,
      "ris": 1227,
      "15": 1228,
      "const": 1229,
      "centre": 1230,
      "wish": 1231,
      "itive": 1232,
      "ues": 1233,
      "ines": 1234,
      "ize": 1235,
      "increas": 1236,
      "tail": 1237,
      "reed": 1238,
      "sal": 1239,
      "portun": 1240,
      "hope": 1241,
      "care": 1242,
      "opportun": 1243,
      "accord": 1244,
      "ann": 1245,
      "pract": 1246,
      "har": 1247,
      "ru": 1248,
      "ually": 1249,
      "research": 1250,
      "fl": 1251,
      "oking": 1252,
      "enjo": 1253,
      "ium": 1254,
      "gest": 1255,
      "pop": 1256,
      "general": 1257,
      "problems": 1258,
      "princi": 1259,
      "mus": 1260,
      "ination": 1261,
      "close": 1262,
      "name": 1263,
      "mone": 1264,
      "vote": 1265,
      "unt": 1266,
      "another": 1267,
      "enter": 1268,
      "complete": 1269,
      "mis": 1270,
      "ft": 1271,
      "shall": 1272,
      "ross": 1273,
      "ier": 1274,
      "full": 1275,
      "moder": 1276,
      "conne": 1277,
      "pat": 1278,
      "turn": 1279,
      "half": 1280,
      "did": 1281,
      "ential": 1282,
      "please": 1283,
      "rul": 1284,
      "united": 1285,
      "working": 1286,
      "iting": 1287,
      "water": 1288,
      "sou": 1289,
      "compan": 1290,
      "she": 1291,
      "whether": 1292,
      "comb": 1293,
      "third": 1294,
      "look": 1295,
      "invol": 1296,
      "reach": 1297,
      "legisl": 1298,
      "global": 1299,
      "consum": 1300,
      "fri": 1301,
      "non": 1302,
      "toge": 1303,
      "together": 1304,
      "production": 1305,
      "always": 1306,
      "fish": 1307,
      "directive": 1308,
      "step": 1309,
      "individ": 1310,
      "range": 1311,
      "transport": 1312,
      "integr": 1313,
      "bed": 1314,
      "move": 1315,
      "hold": 1316,
      "head": 1317,
      "ward": 1318,
      "reco": 1319,
      "needs": 1320,
      "enjoy": 1321,
      "deal": 1322,
      "30": 1323,
      "cially": 1324,
      "friend": 1325,
      "terms": 1326,
      "pal": 1327,
      "ests": 1328,
      "run": 1329,
      "times": 1330,
      "ners": 1331,
      "better": 1332,
      "systems": 1333,
      "aur": 1334,
      "fav": 1335,
      "field": 1336,
      "recent": 1337,
      "wee": 1338,
      "mad": 1339,
      "subject": 1340,
      "utes": 1341,
      "bon": 1342,
      "mal": 1343,
      "thank": 1344,
      "sc": 1345,
      "fa": 1346,
      "remain": 1347,
      "appe": 1348,
      "met": 1349,
      "crit": 1350,
      "wide": 1351,
      "days": 1352,
      "gress": 1353,
      "children": 1354,
      "making": 1355,
      "bod": 1356,
      "ought": 1357,
      "around": 1358,
      "wal": 1359,
      "ime": 1360,
      "cing": 1361,
      "sto": 1362,
      "try": 1363,
      "uss": 1364,
      "modern": 1365,
      "don": 1366,
      "mil": 1367,
      "&amp": 1368,
      "&amp;": 1369,
      "kes": 1370,
      "lig": 1371,
      "dom": 1372,
      "ference": 1373,
      "page": 1374,
      "account": 1375,
      "000": 1376,
      "women": 1377,
      "ped": 1378,
      "conditions": 1379,
      "ified": 1380,
      "americ": 1381,
      "porte": 1382,
      "town": 1383,
      "proper": 1384,
      "internet": 1385,
      "sen": 1386,
      "proced": 1387,
      "short": 1388,
      "pack": 1389,
      "home": 1390,
      "prove": 1391,
      "particularly": 1392,
      "gin": 1393,
      "restaur": 1394,
      "central": 1395,
      "industry": 1396,
      "aran": 1397,
      "ling": 1398,
      "him": 1399,
      "management": 1400,
      "ele": 1401,
      "once": 1402,
      "mor": 1403,
      "18": 1404,
      "visit": 1405,
      "porteur": 1406,
      "individual": 1407,
      "going": 1408,
      "rapporteur": 1409,
      "ources": 1410,
      "become": 1411,
      "tax": 1412,
      "mee": 1413,
      "rele": 1414,
      "break": 1415,
      "local": 1416,
      "cut": 1417,
      "food": 1418,
      "mrs": 1419,
      "techn": 1420,
      "exist": 1421,
      "diffic": 1422,
      "views": 1423,
      "issues": 1424,
      "contain": 1425,
      "term": 1426,
      "grap": 1427,
      "distr": 1428,
      "apart": 1429,
      "promot": 1430,
      "role": 1431,
      "accept": 1432,
      "50": 1433,
      "experience": 1434,
      "initi": 1435,
      "result": 1436,
      "uc": 1437,
      "ention": 1438,
      "programme": 1439,
      "vol": 1440,
      "load": 1441,
      "ton": 1442,
      "decision": 1443,
      "dist": 1444,
      "contrib": 1445,
      "rules": 1446,
      "ming": 1447,
      "address": 1448,
      "near": 1449,
      "ave": 1450,
      "clus": 1451,
      "whole": 1452,
      "equip": 1453,
      "shop": 1454,
      "vious": 1455,
      "live": 1456,
      "espe": 1457,
      "companies": 1458,
      "plac": 1459,
      "various": 1460,
      "frame": 1461,
      "round": 1462,
      "orig": 1463,
      "among": 1464,
      "german": 1465,
      "share": 1466,
      "tware": 1467,
      "gn": 1468,
      "sector": 1469,
      "wind": 1470,
      "software": 1471,
      "sever": 1472,
      "vo": 1473,
      "tar": 1474,
      "guaran": 1475,
      "feat": 1476,
      "ensive": 1477,
      "especially": 1478,
      "cris": 1479,
      "communic": 1480,
      "post": 1481,
      "mail": 1482,
      "coming": 1483,
      "active": 1484,
      "benef": 1485,
      "ator": 1486,
      "beaut": 1487,
      "ended": 1488,
      "pho": 1489,
      "ury": 1490,
      "draw": 1491,
      "welcome": 1492,
      "location": 1493,
      "gre": 1494,
      "month": 1495,
      "docu": 1496,
      "region": 1497,
      "ising": 1498,
      "effective": 1499,
      "class": 1500,
      "ground": 1501,
      "basis": 1502,
      "selves": 1503,
      "mod": 1504,
      "hard": 1505,
      "employment": 1506,
      "matter": 1507,
      "following": 1508,
      "personal": 1509,
      "create": 1510,
      "comes": 1511,
      "nal": 1512,
      "taking": 1513,
      "mater": 1514,
      "single": 1515,
      "several": 1516,
      "called": 1517,
      "ste": 1518,
      "concern": 1519,
      "dou": 1520,
      "prior": 1521,
      "goti": 1522,
      "negoti": 1523,
      "hip": 1524,
      "treaty": 1525,
      "done": 1526,
      "side": 1527,
      "meeting": 1528,
      "langu": 1529,
      "origin": 1530,
      "excell": 1531,
      "itor": 1532,
      "yet": 1533,
      "strong": 1534,
      "graph": 1535,
      "express": 1536,
      "really": 1537,
      "demand": 1538,
      "ably": 1539,
      "paren": 1540,
      "network": 1541,
      "private": 1542,
      "family": 1543,
      "kind": 1544,
      "lat": 1545,
      "improve": 1546,
      "gentle": 1547,
      "job": 1548,
      "pose": 1549,
      "difficult": 1550,
      "ade": 1551,
      "ko": 1552,
      "peace": 1553,
      "east": 1554,
      "test": 1555,
      "period": 1556,
      "protect": 1557,
      "start": 1558,
      "sea": 1559,
      "resolution": 1560,
      "favour": 1561,
      "never": 1562,
      "due": 1563,
      "dam": 1564,
      "pot": 1565,
      "face": 1566,
      "colle": 1567,
      "intro": 1568,
      "approach": 1569,
      "something": 1570,
      "force": 1571,
      "sed": 1572,
      "ont": 1573,
      "ences": 1574,
      "material": 1575,
      "profess": 1576,
      "million": 1577,
      "feel": 1578,
      "understand": 1579,
      "vil": 1580,
      "comfort": 1581,
      "big": 1582,
      "ster": 1583,
      "introdu": 1584,
      "inde": 1585,
      "keep": 1586,
      "continue": 1587,
      "russ": 1588,
      "office": 1589,
      "iving": 1590,
      "photo": 1591,
      "reform": 1592,
      "mult": 1593,
      "install": 1594,
      "ficient": 1595,
      "na": 1596,
      "sequ": 1597,
      "stat": 1598,
      "ladies": 1599,
      "abo": 1600,
      "detail": 1601,
      "ze": 1602,
      "mind": 1603,
      "ization": 1604,
      "bi": 1605,
      "forward": 1606,
      "itself": 1607,
      "def": 1608,
      "11": 1609,
      "safety": 1610,
      "often": 1611,
      "dan": 1612,
      "suf": 1613,
      "prevent": 1614,
      "ron": 1615,
      "four": 1616,
      "gar": 1617,
      "germany": 1618,
      "gentlemen": 1619,
      "progress": 1620,
      "partners": 1621,
      "until": 1622,
      "date": 1623,
      "staff": 1624,
      "known": 1625,
      "framework": 1626,
      "amendments": 1627,
      "excellent": 1628,
      "adop": 1629,
      "opin": 1630,
      "according": 1631,
      "mention": 1632,
      "technology": 1633,
      "thus": 1634,
      "host": 1635,
      "mark": 1636,
      "particip": 1637,
      "serious": 1638,
      "ours": 1639,
      "vill": 1640,
      "away": 1641,
      "pleas": 1642,
      "beach": 1643,
      "having": 1644,
      "expect": 1645,
      "ify": 1646,
      "minutes": 1647,
      "crisis": 1648,
      "constit": 1649,
      "ither": 1650,
      "ping": 1651,
      "agric": 1652,
      "lines": 1653,
      "price": 1654,
      "educ": 1655,
      "least": 1656,
      "money": 1657,
      "towards": 1658,
      "agricult": 1659,
      "flo": 1660,
      "function": 1661,
      "fle": 1662,
      "customers": 1663,
      "artic": 1664,
      "ging": 1665,
      "book": 1666,
      "nam": 1667,
      "recogn": 1668,
      "ug": 1669,
      "growth": 1670,
      "things": 1671,
      "aud": 1672,
      "presid": 1673,
      "little": 1674,
      "institutions": 1675,
      "defin": 1676,
      "rather": 1677,
      "lot": 1678,
      "mean": 1679,
      "bel": 1680,
      "inno": 1681,
      "ash": 1682,
      "ances": 1683,
      "extre": 1684,
      "madam": 1685,
      "cast": 1686,
      "reser": 1687,
      "sci": 1688,
      "although": 1689,
      "ats": 1690,
      "begin": 1691,
      "tradition": 1692,
      "bring": 1693,
      "stain": 1694,
      "regulation": 1695,
      "moun": 1696,
      "ians": 1697,
      "strategy": 1698,
      "aged": 1699,
      "crim": 1700,
      "version": 1701,
      "ago": 1702,
      "quite": 1703,
      "cli": 1704,
      "mid": 1705,
      "tool": 1706,
      "party": 1707,
      "contact": 1708,
      "left": 1709,
      "building": 1710,
      "tic": 1711,
      "imate": 1712,
      "&apos;t": 1713,
      "increase": 1714,
      "ints": 1715,
      "regul": 1716,
      "airs": 1717,
      "opportunity": 1718,
      "activities": 1719,
      "2009": 1720,
      "team": 1721,
      "along": 1722,
      "content": 1723,
      "achieve": 1724,
      "instru": 1725,
      "sions": 1726,
      "user": 1727,
      "ons": 1728,
      "resources": 1729,
      "sat": 1730,
      "mob": 1731,
      "body": 1732,
      "lands": 1733,
      "past": 1734,
      "board": 1735,
      "presidency": 1736,
      "freed": 1737,
      "check": 1738,
      "above": 1739,
      "core": 1740,
      "anim": 1741,
      "actions": 1742,
      "signific": 1743,
      "ived": 1744,
      "histor": 1745,
      "focus": 1746,
      "istic": 1747,
      "iful": 1748,
      "provided": 1749,
      "might": 1750,
      "easy": 1751,
      "liber": 1752,
      "value": 1753,
      "bit": 1754,
      "event": 1755,
      "tre": 1756,
      "foreign": 1757,
      "cover": 1758,
      "request": 1759,
      "solution": 1760,
      "finally": 1761,
      "website": 1762,
      "ples": 1763,
      "week": 1764,
      "freedom": 1765,
      "seem": 1766,
      "tion": 1767,
      "points": 1768,
      "ending": 1769,
      "cred": 1770,
      "gue": 1771,
      "14": 1772,
      "sun": 1773,
      "card": 1774,
      "holi": 1775,
      "proposals": 1776,
      "ps": 1777,
      "mic": 1778,
      "viol": 1779,
      "anal": 1780,
      "include": 1781,
      "rad": 1782,
      "ety": 1783,
      "stren": 1784,
      "fundament": 1785,
      "crip": 1786,
      "sty": 1787,
      "aft": 1788,
      "san": 1789,
      "ctions": 1790,
      "arr": 1791,
      "ever": 1792,
      "recomm": 1793,
      "16": 1794,
      "beautiful": 1795,
      "bor": 1796,
      "lid": 1797,
      "society": 1798,
      "night": 1799,
      "lab": 1800,
      "appropri": 1801,
      "music": 1802,
      "ret": 1803,
      "application": 1804,
      "chall": 1805,
      "extreme": 1806,
      "ik": 1807,
      "adminis": 1808,
      "tele": 1809,
      "economy": 1810,
      "mach": 1811,
      "innov": 1812,
      "auto": 1813,
      "streng": 1814,
      "fail": 1815,
      "costs": 1816,
      "simply": 1817,
      "south": 1818,
      "mes": 1819,
      "gree": 1820,
      "others": 1821,
      "amendment": 1822,
      "via": 1823,
      "offic": 1824,
      "adopted": 1825,
      "youn": 1826,
      "cop": 1827,
      "associ": 1828,
      "station": 1829,
      "relation": 1830,
      "logical": 1831,
      "ches": 1832,
      "idence": 1833,
      "words": 1834,
      "breakfast": 1835,
      "lear": 1836,
      "ification": 1837,
      "model": 1838,
      "medi": 1839,
      "mag": 1840,
      "attr": 1841,
      "natural": 1842,
      "legislation": 1843,
      "opinion": 1844,
      "projects": 1845,
      "atives": 1846,
      "13": 1847,
      "makes": 1848,
      "fair": 1849,
      "questions": 1850,
      "park": 1851,
      "entire": 1852,
      "rich": 1853,
      "mig": 1854,
      "manu": 1855,
      "sid": 1856,
      "groups": 1857,
      "environmental": 1858,
      "responsibility": 1859,
      "speak": 1860,
      "charac": 1861,
      "perfect": 1862,
      "table": 1863,
      "behalf": 1864,
      "guests": 1865,
      "training": 1866,
      "attention": 1867,
      "results": 1868,
      "ones": 1869,
      "ival": 1870,
      "ises": 1871,
      "imp": 1872,
      "won": 1873,
      "continu": 1874,
      "front": 1875,
      "bank": 1876,
      "standard": 1877,
      "online": 1878,
      "prom": 1879,
      "provides": 1880,
      "univers": 1881,
      "ec": 1882,
      "camp": 1883,
      ".com": 1884,
      "internal": 1885,
      "restaurant": 1886,
      "exper": 1887,
      "clearly": 1888,
      "wa": 1889,
      "cir": 1890,
      "concerned": 1891,
      "amoun": 1892,
      "civil": 1893,
      "rela": 1894,
      "cultural": 1895,
      "technical": 1896,
      "regis": 1897,
      "accom": 1898,
      "eur": 1899,
      "xim": 1900,
      "24": 1901,
      "policies": 1902,
      "greater": 1903,
      "ler": 1904,
      "super": 1905,
      "indeed": 1906,
      "ars": 1907,
      "outs": 1908,
      "facilities": 1909,
      "china": 1910,
      "heart": 1911,
      "importance": 1912,
      "typ": 1913,
      "quick": 1914,
      "administr": 1915,
      "cat": 1916,
      "bath": 1917,
      "proved": 1918,
      "fundamental": 1919,
      "meth": 1920,
      "looking": 1921,
      "standards": 1922,
      "context": 1923,
      "ledge": 1924,
      "distrib": 1925,
      "court": 1926,
      "25": 1927,
      "select": 1928,
      "17": 1929,
      "assist": 1930,
      "voted": 1931,
      "ool": 1932,
      "increasing": 1933,
      "funds": 1934,
      "ba": 1935,
      "link": 1936,
      "124": 1937,
      "currently": 1938,
      "manufact": 1939,
      "jun": 1940,
      "ories": 1941,
      "capital": 1942,
      "nel": 1943,
      "vision": 1944,
      "independ": 1945,
      "space": 1946,
      "procedure": 1947,
      "significant": 1948,
      "termin": 1949,
      "nature": 1950,
      "pool": 1951,
      "sustain": 1952,
      "changes": 1953,
      "ceed": 1954,
      "regional": 1955,
      "solutions": 1956,
      "principle": 1957,
      "ju": 1958,
      "stop": 1959,
      "century": 1960,
      "history": 1961,
      "gl": 1962,
      "plain": 1963,
      "risk": 1964,
      "responsible": 1965,
      "dial": 1966,
      "guest": 1967,
      "rect": 1968,
      "convent": 1969,
      "though": 1970,
      "mitted": 1971,
      "posed": 1972,
      "aware": 1973,
      "solid": 1974,
      "&#124": 1975,
      "&#124;": 1976,
      "window": 1977,
      "pan": 1978,
      "essential": 1979,
      "forts": 1980,
      "spect": 1981,
      "later": 1982,
      "pages": 1983,
      "young": 1984,
      "ently": 1985,
      "required": 1986,
      "uses": 1987,
      "situated": 1988,
      "ared": 1989,
      "relax": 1990,
      "authorities": 1991,
      "wo": 1992,
      "uk": 1993,
      "school": 1994,
      "education": 1995,
      "cate": 1996,
      "iter": 1997,
      "uary": 1998,
      "conference": 1999,
      "flu": 2000,
      "democratic": 2001,
      "ds": 2002,
      "2010": 2003,
      "tru": 2004,
      "record": 2005,
      "cise": 2006,
      "firm": 2007,
      "comput": 2008,
      "upon": 2009,
      "decl": 2010,
      "ished": 2011,
      "democracy": 2012,
      "deli": 2013,
      "regions": 2014,
      "sug": 2015,
      "clean": 2016,
      "mess": 2017,
      "provis": 2018,
      "yes": 2019,
      "ilt": 2020,
      "hy": 2021,
      "competition": 2022,
      "language": 2023,
      "suit": 2024,
      "aspect": 2025,
      "sound": 2026,
      "events": 2027,
      "directly": 2028,
      "austr": 2029,
      "total": 2030,
      "positive": 2031,
      "lling": 2032,
      "gard": 2033,
      "mom": 2034,
      "subst": 2035,
      "requirements": 2036,
      "lis": 2037,
      "hib": 2038,
      "hon": 2039,
      "proposed": 2040,
      "longer": 2041,
      "maintain": 2042,
      "mountain": 2043,
      "ators": 2044,
      "ker": 2045,
      "unders": 2046,
      "center": 2047,
      "developed": 2048,
      "months": 2049,
      "lon": 2050,
      "apply": 2051,
      "note": 2052,
      "parties": 2053,
      "fight": 2054,
      "related": 2055,
      "ead": 2056,
      "categ": 2057,
      "method": 2058,
      "consul": 2059,
      "document": 2060,
      "affect": 2061,
      "article": 2062,
      "fall": 2063,
      "2008": 2064,
      "green": 2065,
      "mass": 2066,
      "interests": 2067,
      "type": 2068,
      "everything": 2069,
      "arity": 2070,
      "implementation": 2071,
      "character": 2072,
      "appli": 2073,
      "guarantee": 2074,
      "enough": 2075,
      "customer": 2076,
      "item": 2077,
      "fortun": 2078,
      "hor": 2079,
      "aging": 2080,
      "tary": 2081,
      "ung": 2082,
      "media": 2083,
      "involved": 2084,
      "refer": 2085,
      "travel": 2086,
      "markets": 2087,
      "needed": 2088,
      "km": 2089,
      "sec": 2090,
      "afric": 2091,
      "soon": 2092,
      "commer": 2093,
      "climate": 2094,
      "consequ": 2095,
      "themselves": 2096,
      "broad": 2097,
      "efforts": 2098,
      "emb": 2099,
      "corpor": 2100,
      "sens": 2101,
      "download": 2102,
      "happen": 2103,
      "gam": 2104,
      "100": 2105,
      "jan": 2106,
      "ined": 2107,
      "vide": 2108,
      "click": 2109,
      "condition": 2110,
      "extremely": 2111,
      "file": 2112,
      "prepare": 2113,
      "perfor": 2114,
      "cases": 2115,
      "claim": 2116,
      "final": 2117,
      "rate": 2118,
      "additional": 2119,
      "either": 2120,
      "terror": 2121,
      "affairs": 2122,
      "previous": 2123,
      "stree": 2124,
      "aper": 2125,
      "true": 2126,
      "communication": 2127,
      "setting": 2128,
      "itch": 2129,
      "ordin": 2130,
      "anced": 2131,
      "pict": 2132,
      "held": 2133,
      "rench": 2134,
      "seen": 2135,
      "russia": 2136,
      "option": 2137,
      "negotiations": 2138,
      "els": 2139,
      "north": 2140,
      "ided": 2141,
      "performan": 2142,
      "appropriate": 2143,
      "advant": 2144,
      "ww": 2145,
      "unique": 2146,
      "prices": 2147,
      "cru": 2148,
      "indic": 2149,
      "milit": 2150,
      "almost": 2151,
      "living": 2152,
      "thanks": 2153,
      "og": 2154,
      "anti": 2155,
      "developing": 2156,
      "professional": 2157,
      "send": 2158,
      "aste": 2159,
      "surround": 2160,
      "culture": 2161,
      "acts": 2162,
      "win": 2163,
      "jud": 2164,
      "offe": 2165,
      "dest": 2166,
      "sites": 2167,
      "works": 2168,
      "phone": 2169,
      "unch": 2170,
      "atory": 2171,
      "actually": 2172,
      "created": 2173,
      "etc": 2174,
      "ibility": 2175,
      "tv": 2176,
      "happ": 2177,
      "five": 2178,
      "friendly": 2179,
      "club": 2180,
      "ogue": 2181,
      "investment": 2182,
      "transparen": 2183,
      "lux": 2184,
      "knowledge": 2185,
      "cross": 2186,
      "asse": 2187,
      "publish": 2188,
      "parts": 2189,
      "recommend": 2190,
      "vic": 2191,
      "meet": 2192,
      "immedi": 2193,
      "famous": 2194,
      "ii": 2195,
      "accommod": 2196,
      "airport": 2197,
      "french": 2198,
      "users": 2199,
      "included": 2200,
      "explo": 2201,
      "suggest": 2202,
      "2007": 2203,
      "comfortable": 2204,
      "charge": 2205,
      "built": 2206,
      "dig": 2207,
      "joint": 2208,
      "cep": 2209,
      "designed": 2210,
      "ideal": 2211,
      "workers": 2212,
      "ses": 2213,
      "except": 2214,
      "avo": 2215,
      "correct": 2216,
      "ires": 2217,
      "bour": 2218,
      "utional": 2219,
      "dev": 2220,
      "holiday": 2221,
      "ured": 2222,
      "collect": 2223,
      "receive": 2224,
      "ino": 2225,
      "game": 2226,
      "certainly": 2227,
      "relations": 2228,
      "die": 2229,
      "throughout": 2230,
      "ables": 2231,
      "brit": 2232,
      "son": 2233,
      "flex": 2234,
      "idea": 2235,
      "grat": 2236,
      "encour": 2237,
      "connect": 2238,
      "sent": 2239,
      "ried": 2240,
      "mentioned": 2241,
      "hes": 2242,
      "nice": 2243,
      "haps": 2244,
      "return": 2245,
      "hotels": 2246,
      "ski": 2247,
      "leading": 2248,
      "perhaps": 2249,
      "abled": 2250,
      "vert": 2251,
      "smo": 2252,
      "exclus": 2253,
      "ang": 2254,
      "guide": 2255,
      "ired": 2256,
      "dut": 2257,
      "qual": 2258,
      "40": 2259,
      "engine": 2260,
      "monitor": 2261,
      "ery": 2262,
      "outside": 2263,
      "2000": 2264,
      "takes": 2265,
      "fill": 2266,
      "early": 2267,
      "bro": 2268,
      "ource": 2269,
      "ese": 2270,
      "moment": 2271,
      "ded": 2272,
      "e.": 2273,
      "france": 2274,
      "majority": 2275,
      "mission": 2276,
      "strict": 2277,
      "features": 2278,
      "spir": 2279,
      "doing": 2280,
      "gets": 2281,
      "print": 2282,
      "image": 2283,
      "rule": 2284,
      "1.": 2285,
      "ira": 2286,
      "rail": 2287,
      "traditional": 2288,
      "nothing": 2289,
      "across": 2290,
      "walk": 2291,
      "ulate": 2292,
      "emphas": 2293,
      "speed": 2294,
      "wat": 2295,
      "enterpr": 2296,
      "cture": 2297,
      "performance": 2298,
      "satis": 2299,
      "eder": 2300,
      "amount": 2301,
      "colleag": 2302,
      "news": 2303,
      "connection": 2304,
      "concerning": 2305,
      "regarding": 2306,
      "fran": 2307,
      "lock": 2308,
      "dy": 2309,
      "constru": 2310,
      "ham": 2311,
      "hol": 2312,
      "hours": 2313,
      "objective": 2314,
      "existing": 2315,
      "demon": 2316,
      "american": 2317,
      "took": 2318,
      "rist": 2319,
      "lay": 2320,
      "official": 2321,
      "##star": 2322,
      "##star##": 2323,
      "ilar": 2324,
      "code": 2325,
      "writing": 2326,
      "transl": 2327,
      "reli": 2328,
      "farm": 2329,
      "writ": 2330,
      "initiative": 2331,
      "agreements": 2332,
      "assess": 2333,
      "ternal": 2334,
      "basic": 2335,
      "complex": 2336,
      "forms": 2337,
      "west": 2338,
      "programmes": 2339,
      "60": 2340,
      "ket": 2341,
      "hear": 2342,
      "instead": 2343,
      "ken": 2344,
      "orders": 2345,
      "concerns": 2346,
      "six": 2347,
      "military": 2348,
      "original": 2349,
      "series": 2350,
      "wood": 2351,
      "impact": 2352,
      "pression": 2353,
      "sphere": 2354,
      "industrial": 2355,
      "fel": 2356,
      "ands": 2357,
      "gas": 2358,
      "construction": 2359,
      "ison": 2360,
      "decisions": 2361,
      "usu": 2362,
      "turkey": 2363,
      "mp": 2364,
      "ration": 2365,
      "completely": 2366,
      "hind": 2367,
      "conflic": 2368,
      "justice": 2369,
      "established": 2370,
      "files": 2371,
      "ga": 2372,
      "exchange": 2373,
      "sess": 2374,
      "practice": 2375,
      "island": 2376,
      "80": 2377,
      "purch": 2378,
      "threat": 2379,
      "separ": 2380,
      "muse": 2381,
      "da": 2382,
      "sil": 2383,
      "zer": 2384,
      "reasons": 2385,
      "unfortun": 2386,
      "english": 2387,
      "ense": 2388,
      "population": 2389,
      "everyone": 2390,
      "box": 2391,
      "strateg": 2392,
      "extra": 2393,
      "mun": 2394,
      "ov": 2395,
      "agricultural": 2396,
      "desp": 2397,
      "package": 2398,
      "minim": 2399,
      "allows": 2400,
      "computer": 2401,
      "wise": 2402,
      "applications": 2403,
      "below": 2404,
      "thern": 2405,
      "emer": 2406,
      "similar": 2407,
      "burg": 2408,
      "flow": 2409,
      "wes": 2410,
      "lack": 2411,
      "iet": 2412,
      "includes": 2413,
      "equipment": 2414,
      "capac": 2415,
      "infr": 2416,
      "equipped": 2417,
      "choose": 2418,
      "contract": 2419,
      "conclus": 2420,
      "quar": 2421,
      "christ": 2422,
      "ream": 2423,
      "jobs": 2424,
      "rid": 2425,
      "tell": 2426,
      "consumer": 2427,
      "objectives": 2428,
      "external": 2429,
      "transfer": 2430,
      "minister": 2431,
      "values": 2432,
      "recently": 2433,
      "scient": 2434,
      "limited": 2435,
      "fit": 2436,
      "integration": 2437,
      "ining": 2438,
      "choice": 2439,
      "2.": 2440,
      "mechan": 2441,
      "display": 2442,
      "foot": 2443,
      "sense": 2444,
      "automat": 2445,
      "2006": 2446,
      "benefit": 2447,
      "oil": 2448,
      "copy": 2449,
      "style": 2450,
      "dle": 2451,
      "appear": 2452,
      "reports": 2453,
      "simple": 2454,
      "video": 2455,
      "efficient": 2456,
      "pa": 2457,
      "suppli": 2458,
      "museum": 2459,
      "ley": 2460,
      "regular": 2461,
      "bad": 2462,
      "former": 2463,
      "lisbon": 2464,
      "goods": 2465,
      "border": 2466,
      "received": 2467,
      "influ": 2468,
      "double": 2469,
      "convention": 2470,
      "stability": 2471,
      "grad": 2472,
      "answer": 2473,
      "23": 2474,
      "respond": 2475,
      "wall": 2476,
      "vin": 2477,
      "sav": 2478,
      "famil": 2479,
      "bot": 2480,
      "booking": 2481,
      "popular": 2482,
      ",000": 2483,
      "vered": 2484,
      "pain": 2485,
      "isra": 2486,
      "underscore": 2487,
      "treatment": 2488,
      "wers": 2489,
      "congrat": 2490,
      "beginning": 2491,
      "squ": 2492,
      "stage": 2493,
      "cup": 2494,
      "america": 2495,
      "berlin": 2496,
      "quickly": 2497,
      "successful": 2498,
      "antic": 2499,
      "windows": 2500,
      "sho": 2501,
      "gg": 2502,
      "##underscore": 2503,
      "consist": 2504,
      "##underscore##": 2505,
      "traf": 2506,
      "spo": 2507,
      "prim": 2508,
      "buy": 2509,
      "agend": 2510,
      "dialogue": 2511,
      "bul": 2512,
      "creation": 2513,
      "promise": 2514,
      "despite": 2515,
      "jour": 2516,
      "server": 2517,
      "consumers": 2518,
      "added": 2519,
      "summer": 2520,
      "num": 2521,
      "love": 2522,
      "ond": 2523,
      "potential": 2524,
      "hab": 2525,
      "governments": 2526,
      "doub": 2527,
      "absol": 2528,
      "huge": 2529,
      "gain": 2530,
      "exhib": 2531,
      "contains": 2532,
      "leaders": 2533,
      "middle": 2534,
      "achieved": 2535,
      "duct": 2536,
      "highly": 2537,
      "traffic": 2538,
      "eries": 2539,
      "commercial": 2540,
      "carry": 2541,
      "enlarge": 2542,
      "floor": 2543,
      "avoid": 2544,
      "sustainable": 2545,
      "concept": 2546,
      "fu": 2547,
      "placed": 2548,
      "western": 2549,
      "nuclear": 2550,
      "circ": 2551,
      "scre": 2552,
      "credit": 2553,
      "seems": 2554,
      "coll": 2555,
      "boo": 2556,
      "ern": 2557,
      "hic": 2558,
      "mobile": 2559,
      "rain": 2560,
      "rop": 2561,
      "section": 2562,
      "keyword": 2563,
      "furn": 2564,
      "increased": 2565,
      "iveness": 2566,
      "june": 2567,
      "depart": 2568,
      "roy": 2569,
      "spac": 2570,
      "relev": 2571,
      "review": 2572,
      "optim": 2573,
      "absolute": 2574,
      "acqu": 2575,
      "presented": 2576,
      "multi": 2577,
      "analys": 2578,
      "iss": 2579,
      "supply": 2580,
      "levels": 2581,
      "mac": 2582,
      "balance": 2583,
      "tered": 2584,
      "agenda": 2585,
      "differen": 2586,
      "places": 2587,
      "fire": 2588,
      "attem": 2589,
      "eria": 2590,
      "plat": 2591,
      "modif": 2592,
      "asked": 2593,
      "liberal": 2594,
      "agreed": 2595,
      "nations": 2596,
      "unfortunately": 2597,
      "ously": 2598,
      "higher": 2599,
      "enable": 2600,
      "street": 2601,
      "atmo": 2602,
      "fig": 2603,
      "principles": 2604,
      "reviews": 2605,
      "theless": 2606,
      "crimin": 2607,
      "attack": 2608,
      "subsid": 2609,
      "ature": 2610,
      "feder": 2611,
      "carried": 2612,
      "ief": 2613,
      "vehic": 2614,
      "obvious": 2615,
      "map": 2616,
      "opportunities": 2617,
      "harmon": 2618,
      "arian": 2619,
      "ti": 2620,
      "rates": 2621,
      "preh": 2622,
      "tempor": 2623,
      "covered": 2624,
      "ka": 2625,
      "lies": 2626,
      "dece": 2627,
      "challeng": 2628,
      "shows": 2629,
      "size": 2630,
      "direction": 2631,
      "republic": 2632,
      "ior": 2633,
      "commitment": 2634,
      "ensu": 2635,
      "organis": 2636,
      "possibility": 2637,
      "neigh": 2638,
      "whose": 2639,
      "matters": 2640,
      "submitted": 2641,
      "behind": 2642,
      "ties": 2643,
      "sep": 2644,
      "black": 2645,
      "obtain": 2646,
      "tit": 2647,
      "materials": 2648,
      "white": 2649,
      "study": 2650,
      "effects": 2651,
      "acc": 2652,
      "wonder": 2653,
      "tor": 2654,
      "reflect": 2655,
      "idered": 2656,
      "death": 2657,
      "archite": 2658,
      "hous": 2659,
      "span": 2660,
      "crib": 2661,
      "ively": 2662,
      "stress": 2663,
      "came": 2664,
      "roman": 2665,
      "rup": 2666,
      "shown": 2667,
      "capacity": 2668,
      "considered": 2669,
      "ush": 2670,
      "aspects": 2671,
      "pie": 2672,
      "promote": 2673,
      "ills": 2674,
      "appoint": 2675,
      "olf": 2676,
      "prepared": 2677,
      "written": 2678,
      "latest": 2679,
      "preci": 2680,
      "dict": 2681,
      "pressure": 2682,
      "march": 2683,
      "iation": 2684,
      "enlargement": 2685,
      "sufficient": 2686,
      "property": 2687,
      "accommodation": 2688,
      "closed": 2689,
      "accep": 2690,
      "consult": 2691,
      "garden": 2692,
      "paper": 2693,
      "sl": 2694,
      "intel": 2695,
      "numer": 2696,
      "providing": 2697,
      "ends": 2698,
      "bes": 2699,
      "partner": 2700,
      "independent": 2701,
      "labour": 2702,
      "details": 2703,
      "bey": 2704,
      "response": 2705,
      "fest": 2706,
      "worth": 2707,
      "deep": 2708,
      "coast": 2709,
      "rane": 2710,
      "base": 2711,
      "precise": 2712,
      "apartment": 2713,
      "ides": 2714,
      "immig": 2715,
      "fici": 2716,
      "compreh": 2717,
      "chur": 2718,
      "electron": 2719,
      "spain": 2720,
      "conduct": 2721,
      "tember": 2722,
      "talk": 2723,
      "source": 2724,
      "oblig": 2725,
      "2005": 2726,
      "easily": 2727,
      "summit": 2728,
      "ech": 2729,
      "van": 2730,
      "curren": 2731,
      "dim": 2732,
      "track": 2733,
      "regulations": 2734,
      "ption": 2735,
      "ering": 2736,
      "apartments": 2737,
      "reached": 2738,
      "ware": 2739,
      "micro": 2740,
      "movement": 2741,
      "iety": 2742,
      "employe": 2743,
      "priority": 2744,
      "maxim": 2745,
      "door": 2746,
      "digital": 2747,
      "grant": 2748,
      "reduce": 2749,
      "decided": 2750,
      "ring": 2751,
      "eth": 2752,
      "assistance": 2753,
      "fix": 2754,
      "stor": 2755,
      "hn": 2756,
      "produced": 2757,
      "leave": 2758,
      "determin": 2759,
      "encies": 2760,
      "funding": 2761,
      "ball": 2762,
      "za": 2763,
      "loss": 2764,
      "aking": 2765,
      "sor": 2766,
      "ff": 2767,
      "relevant": 2768,
      "thous": 2769,
      "manufacture": 2770,
      "guarante": 2771,
      "italy": 2772,
      "gives": 2773,
      "path": 2774,
      "arily": 2775,
      "supported": 2776,
      "atmosphere": 2777,
      "purpose": 2778,
      "70": 2779,
      "creating": 2780,
      "cause": 2781,
      "adap": 2782,
      "prepar": 2783,
      "announ": 2784,
      "learn": 2785,
      "resh": 2786,
      "ls": 2787,
      "september": 2788,
      "instruments": 2789,
      "plant": 2790,
      "lection": 2791,
      "december": 2792,
      "alu": 2793,
      "partnership": 2794,
      "furthermore": 2795,
      "logies": 2796,
      "apan": 2797,
      "remains": 2798,
      "university": 2799,
      "film": 2800,
      "africa": 2801,
      "structural": 2802,
      "mediter": 2803,
      "rely": 2804,
      "player": 2805,
      "inc": 2806,
      "fishing": 2807,
      "div": 2808,
      "conven": 2809,
      "2004": 2810,
      "standing": 2811,
      "acceptable": 2812,
      "scal": 2813,
      "clud": 2814,
      "tober": 2815,
      "s.": 2816,
      "drive": 2817,
      "liance": 2818,
      "billion": 2819,
      "repe": 2820,
      "activity": 2821,
      "istics": 2822,
      "produce": 2823,
      "counter": 2824,
      "sco": 2825,
      "wine": 2826,
      "italian": 2827,
      "categories": 2828,
      "steps": 2829,
      "ny": 2830,
      "village": 2831,
      "altern": 2832,
      "neg": 2833,
      "games": 2834,
      "ranean": 2835,
      "measure": 2836,
      "equal": 2837,
      "mill": 2838,
      "solidarity": 2839,
      "astic": 2840,
      "pover": 2841,
      "else": 2842,
      "istan": 2843,
      "antly": 2844,
      "payment": 2845,
      "ased": 2846,
      "message": 2847,
      "secre": 2848,
      "22": 2849,
      "japan": 2850,
      "perform": 2851,
      "pleased": 2852,
      "statement": 2853,
      "discussion": 2854,
      "brought": 2855,
      "mediterranean": 2856,
      "interesting": 2857,
      "compon": 2858,
      "instrument": 2859,
      "una": 2860,
      "january": 2861,
      "danger": 2862,
      "arm": 2863,
      "explain": 2864,
      "agriculture": 2865,
      "distribution": 2866,
      "soft": 2867,
      "secondly": 2868,
      "strengthen": 2869,
      "sport": 2870,
      "variety": 2871,
      "largest": 2872,
      "grand": 2873,
      "status": 2874,
      "october": 2875,
      "construct": 2876,
      "medium": 2877,
      "relationship": 2878,
      "warm": 2879,
      "award": 2880,
      "giving": 2881,
      "cand": 2882,
      "forget": 2883,
      "rat": 2884,
      "limit": 2885,
      "enh": 2886,
      "swim": 2887,
      "prob": 2888,
      "regards": 2889,
      "allowed": 2890,
      "camer": 2891,
      "iture": 2892,
      "reserv": 2893,
      "documents": 2894,
      "minor": 2895,
      "task": 2896,
      "procedures": 2897,
      "tools": 2898,
      "rs": 2899,
      "integrated": 2900,
      "sometimes": 2901,
      "lives": 2902,
      "structure": 2903,
      "nic": 2904,
      "sales": 2905,
      "ficiency": 2906,
      "ake": 2907,
      "moreover": 2908,
      "violence": 2909,
      "paid": 2910,
      "2003": 2911,
      "launch": 2912,
      "remo": 2913,
      "demonstr": 2914,
      "aug": 2915,
      "advantage": 2916,
      "restaurants": 2917,
      "compromise": 2918,
      "became": 2919,
      "nation": 2920,
      "exact": 2921,
      "british": 2922,
      "relig": 2923,
      "started": 2924,
      "operating": 2925,
      "effort": 2926,
      "agency": 2927,
      "reading": 2928,
      "types": 2929,
      "firstly": 2930,
      "exer": 2931,
      "198": 2932,
      "damage": 2933,
      "contribution": 2934,
      "fine": 2935,
      "enge": 2936,
      "secure": 2937,
      "ada": 2938,
      "spr": 2939,
      "numerous": 2940,
      "sha": 2941,
      "21": 2942,
      "spanish": 2943,
      "transparency": 2944,
      "cert": 2945,
      "historical": 2946,
      "ouch": 2947,
      "ially": 2948,
      "links": 2949,
      "provisions": 2950,
      "lake": 2951,
      "draft": 2952,
      "nove": 2953,
      "scientific": 2954,
      "quiet": 2955,
      "sports": 2956,
      "amb": 2957,
      "cro": 2958,
      "dail": 2959,
      "thin": 2960,
      "happy": 2961,
      "square": 2962,
      "legislative": 2963,
      "ht": 2964,
      "stock": 2965,
      "daily": 2966,
      "hour": 2967,
      "spirit": 2968,
      "gold": 2969,
      "criteria": 2970,
      "forest": 2971,
      "forces": 2972,
      "distance": 2973,
      "chance": 2974,
      "dry": 2975,
      "lled": 2976,
      "friends": 2977,
      "beyond": 2978,
      "temporary": 2979,
      "trip": 2980,
      "ourselves": 2981,
      "poverty": 2982,
      "association": 2983,
      "starting": 2984,
      "aries": 2985,
      "analysis": 2986,
      "lower": 2987,
      "m.": 2988,
      "email": 2989,
      "enced": 2990,
      "hi": 2991,
      "immediately": 2992,
      "late": 2993,
      "sam": 2994,
      "evalu": 2995,
      "elements": 2996,
      "july": 2997,
      "bear": 2998,
      "poses": 2999,
      "applied": 3000,
      "teach": 3001,
      "poor": 3002,
      "verse": 3003,
      "served": 3004,
      "ril": 3005,
      "tourism": 3006,
      "mand": 3007,
      "serve": 3008,
      "gal": 3009,
      "monitoring": 3010,
      "fi": 3011,
      "employees": 3012,
      "benefits": 3013,
      "pread": 3014,
      "ager": 3015,
      "cape": 3016,
      "sels": 3017,
      "machine": 3018,
      "27": 3019,
      "ilit": 3020,
      "brow": 3021,
      "technologies": 3022,
      "ith": 3023,
      "tomor": 3024,
      "ange": 3025,
      "reject": 3026,
      "exe": 3027,
      "growing": 3028,
      "brid": 3029,
      "2001": 3030,
      "tomorrow": 3031,
      "chair": 3032,
      "desk": 3033,
      "offering": 3034,
      "phil": 3035,
      "highest": 3036,
      "cript": 3037,
      "parking": 3038,
      "annual": 3039,
      "rac": 3040,
      "season": 3041,
      "reality": 3042,
      "lights": 3043,
      "screen": 3044,
      "argu": 3045,
      "organisation": 3046,
      "goes": 3047,
      "useful": 3048,
      "persons": 3049,
      "changed": 3050,
      "institutional": 3051,
      "practical": 3052,
      "historic": 3053,
      "colleagues": 3054,
      "elections": 3055,
      "comprehensive": 3056,
      "processes": 3057,
      "ama": 3058,
      "frequ": 3059,
      "conflict": 3060,
      "challenges": 3061,
      "occas": 3062,
      "cide": 3063,
      "guard": 3064,
      "swed": 3065,
      "ivers": 3066,
      "november": 3067,
      "terrorism": 3068,
      "iraq": 3069,
      "uted": 3070,
      "reference": 3071,
      "victim": 3072,
      "monetary": 3073,
      "cohes": 3074,
      "motor": 3075,
      "alternative": 3076,
      "ultim": 3077,
      "hun": 3078,
      "israel": 3079,
      "river": 3080,
      "ana": 3081,
      "trust": 3082,
      "astru": 3083,
      "paris": 3084,
      "saying": 3085,
      "options": 3086,
      "renew": 3087,
      "pret": 3088,
      "vere": 3089,
      "slo": 3090,
      "infrastru": 3091,
      "innovation": 3092,
      "adjust": 3093,
      "waste": 3094,
      "los": 3095,
      "band": 3096,
      "players": 3097,
      "consequences": 3098,
      "ien": 3099,
      "minimum": 3100,
      "las": 3101,
      "ays": 3102,
      "efficiency": 3103,
      "advert": 3104,
      "ideas": 3105,
      "bio": 3106,
      "voting": 3107,
      "cam": 3108,
      "brand": 3109,
      "ah": 3110,
      "cd": 3111,
      "clients": 3112,
      "thought": 3113,
      "heav": 3114,
      "iment": 3115,
      "aign": 3116,
      "client": 3117,
      "rapid": 3118,
      "organisations": 3119,
      "phys": 3120,
      "weak": 3121,
      "--": 3122,
      "dol": 3123,
      "april": 3124,
      "config": 3125,
      "accession": 3126,
      "campaign": 3127,
      "mi": 3128,
      "occur": 3129,
      "augh": 3130,
      "palest": 3131,
      "otherwise": 3132,
      "requires": 3133,
      "cks": 3134,
      "rural": 3135,
      "implemented": 3136,
      "published": 3137,
      "org": 3138,
      "maximum": 3139,
      "ception": 3140,
      "pursu": 3141,
      "church": 3142,
      "sell": 3143,
      "mart": 3144,
      "cription": 3145,
      "shopping": 3146,
      "err": 3147,
      "offered": 3148,
      "eastern": 3149,
      "ivity": 3150,
      "congratulate": 3151,
      "mous": 3152,
      "berg": 3153,
      "convin": 3154,
      "2002": 3155,
      "hall": 3156,
      "sole": 3157,
      "pictures": 3158,
      "reduction": 3159,
      "release": 3160,
      "administration": 3161,
      "doubt": 3162,
      "vital": 3163,
      "weeks": 3164,
      "crucial": 3165,
      "circum": 3166,
      "images": 3167,
      "challenge": 3168,
      "visitors": 3169,
      "ites": 3170,
      "farmers": 3171,
      "join": 3172,
      "worldwide": 3173,
      "cohesion": 3174,
      "spa": 3175,
      "wanted": 3176,
      "w.": 3177,
      "cul": 3178,
      "swimming": 3179,
      "fisheries": 3180,
      "powers": 3181,
      "zone": 3182,
      "sex": 3183,
      "virt": 3184,
      "relating": 3185,
      "morning": 3186,
      "drug": 3187,
      "probably": 3188,
      "iran": 3189,
      "usion": 3190,
      "tro": 3191,
      "ni": 3192,
      "interested": 3193,
      "ades": 3194,
      "terrace": 3195,
      "meaning": 3196,
      "fre": 3197,
      "critic": 3198,
      "session": 3199,
      "earth": 3200,
      "anything": 3201,
      "constitution": 3202,
      "ots": 3203,
      "innovative": 3204,
      "ano": 3205,
      "turned": 3206,
      "languages": 3207,
      "overall": 3208,
      "budgetary": 3209,
      "500": 3210,
      "ky": 3211,
      "nevertheless": 3212,
      "marks": 3213,
      "shops": 3214,
      "authority": 3215,
      "ilater": 3216,
      "lier": 3217,
      "strategic": 3218,
      "soph": 3219,
      "processing": 3220,
      "surance": 3221,
      "selection": 3222,
      "caused": 3223,
      "ney": 3224,
      "improv": 3225,
      "tourist": 3226,
      "shar": 3227,
      "ux": 3228,
      "ony": 3229,
      "kitch": 3230,
      "expert": 3231,
      "ension": 3232,
      "ague": 3233,
      "remind": 3234,
      "accordance": 3235,
      "itarian": 3236,
      "disast": 3237,
      "medic": 3238,
      "methods": 3239,
      "opening": 3240,
      "candid": 3241,
      "emis": 3242,
      "pc": 3243,
      "nes": 3244,
      "occup": 3245,
      "arrange": 3246,
      "ado": 3247,
      "businesses": 3248,
      "lost": 3249,
      "execut": 3250,
      "bathroom": 3251,
      "upd": 3252,
      "extent": 3253,
      "honour": 3254,
      "winter": 3255,
      "fresh": 3256,
      "dar": 3257,
      "fields": 3258,
      "currency": 3259,
      "resort": 3260,
      "craft": 3261,
      "scale": 3262,
      "estic": 3263,
      "valid": 3264,
      "cities": 3265,
      "pi": 3266,
      "concentr": 3267,
      "discover": 3268,
      "scen": 3269,
      "a.": 3270,
      "describ": 3271,
      "rou": 3272,
      "austria": 3273,
      "sectors": 3274,
      "alone": 3275,
      "competit": 3276,
      "feed": 3277,
      "calls": 3278,
      "representatives": 3279,
      "hom": 3280,
      "born": 3281,
      "usually": 3282,
      "sche": 3283,
      "decor": 3284,
      "corporate": 3285,
      "sky": 3286,
      "sis": 3287,
      "collection": 3288,
      "target": 3289,
      "walking": 3290,
      "90": 3291,
      "watch": 3292,
      "assemb": 3293,
      "gt": 3294,
      "borders": 3295,
      "genu": 3296,
      "menu": 3297,
      "absolutely": 3298,
      "encourage": 3299,
      "suring": 3300,
      "parag": 3301,
      "sitting": 3302,
      "golf": 3303,
      "extensive": 3304,
      "ale": 3305,
      "electronic": 3306,
      "appreci": 3307,
      "investig": 3308,
      "din": 3309,
      "poll": 3310,
      "mir": 3311,
      "likely": 3312,
      "zo": 3313,
      "eleg": 3314,
      "ane": 3315,
      "installation": 3316,
      "genuine": 3317,
      "prime": 3318,
      "minute": 3319,
      "raised": 3320,
      "parliamentary": 3321,
      "accepted": 3322,
      "26": 3323,
      "plus": 3324,
      "datab": 3325,
      "ford": 3326,
      "trying": 3327,
      "perspect": 3328,
      "color": 3329,
      "restrict": 3330,
      "rant": 3331,
      "surpr": 3332,
      "operate": 3333,
      "police": 3334,
      "urgent": 3335,
      "inese": 3336,
      "delivery": 3337,
      "tex": 3338,
      "spend": 3339,
      "va": 3340,
      "affected": 3341,
      "influence": 3342,
      "adopt": 3343,
      "ireland": 3344,
      "lum": 3345,
      "letter": 3346,
      "namely": 3347,
      "ease": 3348,
      "planning": 3349,
      "proceed": 3350,
      "demands": 3351,
      "g.": 3352,
      "kitchen": 3353,
      "banks": 3354,
      "mix": 3355,
      "oud": 3356,
      "asy": 3357,
      "involve": 3358,
      "mut": 3359,
      "critical": 3360,
      "mas": 3361,
      "god": 3362,
      "medical": 3363,
      "defence": 3364,
      "ening": 3365,
      "ini": 3366,
      "geo": 3367,
      "1999": 3368,
      "radio": 3369,
      "iling": 3370,
      "illegal": 3371,
      "mbh": 3372,
      "plans": 3373,
      "intended": 3374,
      "initiatives": 3375,
      "cou": 3376,
      "hr": 3377,
      "comments": 3378,
      "suitable": 3379,
      "electric": 3380,
      "running": 3381,
      "syn": 3382,
      "vit": 3383,
      "28": 3384,
      "master": 3385,
      "crime": 3386,
      "save": 3387,
      "worked": 3388,
      "heard": 3389,
      "russian": 3390,
      "orient": 3391,
      "3.": 3392,
      "command": 3393,
      "wrong": 3394,
      "tun": 3395,
      "laws": 3396,
      "remember": 3397,
      "chinese": 3398,
      "fellow": 3399,
      "automatically": 3400,
      "cry": 3401,
      "abor": 3402,
      "improved": 3403,
      "izing": 3404,
      "tren": 3405,
      "motion": 3406,
      "hood": 3407,
      "yourself": 3408,
      "students": 3409,
      "talking": 3410,
      "eco": 3411,
      "federal": 3412,
      "ilateral": 3413,
      "aver": 3414,
      "fru": 3415,
      "sn": 3416,
      "circumst": 3417,
      "expected": 3418,
      "expressed": 3419,
      "deliver": 3420,
      "founded": 3421,
      "vac": 3422,
      "london": 3423,
      "entr": 3424,
      "forced": 3425,
      "goal": 3426,
      "ns": 3427,
      "marketing": 3428,
      "export": 3429,
      "conver": 3430,
      "ax": 3431,
      "channel": 3432,
      "mainly": 3433,
      "confidence": 3434,
      "families": 3435,
      "committed": 3436,
      "scope": 3437,
      "si": 3438,
      "itude": 3439,
      "evening": 3440,
      "approved": 3441,
      "accoun": 3442,
      "scr": 3443,
      "rise": 3444,
      "criminal": 3445,
      "bac": 3446,
      "coordin": 3447,
      "ift": 3448,
      "gmbh": 3449,
      "kar": 3450,
      "fis": 3451,
      "cele": 3452,
      "blue": 3453,
      "hop": 3454,
      "sand": 3455,
      "speaking": 3456,
      "preser": 3457,
      "proto": 3458,
      "assu": 3459,
      "specifically": 3460,
      "competitive": 3461,
      "feature": 3462,
      "deleg": 3463,
      "tu": 3464,
      "suffer": 3465,
      "dynam": 3466,
      "domin": 3467,
      "infrastructure": 3468,
      "forum": 3469,
      "protected": 3470,
      "dead": 3471,
      "ender": 3472,
      "celebr": 3473,
      "mann": 3474,
      "august": 3475,
      "blo": 3476,
      "decide": 3477,
      "conclusion": 3478,
      "divers": 3479,
      "chem": 3480,
      "ients": 3481,
      "unemployment": 3482,
      "reduced": 3483,
      "comment": 3484,
      "catal": 3485,
      "hund": 3486,
      "circumstances": 3487,
      "emissions": 3488,
      "stra": 3489,
      "helpful": 3490,
      "increasingly": 3491,
      "declar": 3492,
      "understanding": 3493,
      "perman": 3494,
      "district": 3495,
      "reforms": 3496,
      "functions": 3497,
      "35": 3498,
      "participation": 3499,
      "kers": 3500,
      "ensuring": 3501,
      "roll": 3502,
      "sold": 3503,
      "foundation": 3504,
      "detailed": 3505,
      "priorities": 3506,
      "swit": 3507,
      "supports": 3508,
      "whom": 3509,
      "www.": 3510,
      "satisf": 3511,
      "hundred": 3512,
      "leav": 3513,
      "trave": 3514,
      "victims": 3515,
      "hosp": 3516,
      "storage": 3517,
      "cze": 3518,
      ".00": 3519,
      "uge": 3520,
      "contribute": 3521,
      "getting": 3522,
      "powerful": 3523,
      "phas": 3524,
      "oral": 3525,
      "plants": 3526,
      "separate": 3527,
      "tas": 3528,
      "raph": 3529,
      "inside": 3530,
      "seven": 3531,
      "animals": 3532,
      "45": 3533,
      "regime": 3534,
      "introduced": 3535,
      "stable": 3536,
      "entry": 3537,
      "defined": 3538,
      "tan": 3539,
      "tabled": 3540,
      "prefer": 3541,
      "assessment": 3542,
      "opened": 3543,
      "compar": 3544,
      "umb": 3545,
      "enterprise": 3546,
      "pu": 3547,
      "resist": 3548,
      "palestin": 3549,
      "deser": 3550,
      "fet": 3551,
      "frank": 3552,
      "ision": 3553,
      "administrative": 3554,
      "paragraph": 3555,
      "began": 3556,
      "29": 3557,
      "effectively": 3558,
      "sources": 3559,
      "says": 3560,
      "precisely": 3561,
      "guidelines": 3562,
      "camera": 3563,
      "thousands": 3564,
      "tip": 3565,
      "listed": 3566,
      "kill": 3567,
      "regret": 3568,
      "kets": 3569,
      "clar": 3570,
      "button": 3571,
      "introduction": 3572,
      "cycl": 3573,
      "managed": 3574,
      "played": 3575,
      "izes": 3576,
      "manner": 3577,
      "discuss": 3578,
      "vict": 3579,
      "yor": 3580,
      "crete": 3581,
      "amic": 3582,
      "villa": 3583,
      "linked": 3584,
      "larger": 3585,
      "exactly": 3586,
      "dish": 3587,
      "audio": 3588,
      "197": 3589,
      "inary": 3590,
      "programs": 3591,
      "bat": 3592,
      "buf": 3593,
      "confirm": 3594,
      "belong": 3595,
      "willing": 3596,
      "houses": 3597,
      "stated": 3598,
      "gall": 3599,
      "mem": 3600,
      "normal": 3601,
      "operations": 3602,
      "networks": 3603,
      "bay": 3604,
      "asia": 3605,
      "ather": 3606,
      "fif": 3607,
      "itation": 3608,
      "selected": 3609,
      "generally": 3610,
      "exclusive": 3611,
      "purposes": 3612,
      "earlier": 3613,
      "aimed": 3614,
      "discussions": 3615,
      "ordination": 3616,
      "ür": 3617,
      "attle": 3618,
      "science": 3619,
      "picture": 3620,
      "enterprises": 3621,
      "enty": 3622,
      "smoking": 3623,
      "dedic": 3624,
      "advanced": 3625,
      "alle": 3626,
      "developments": 3627,
      "symb": 3628,
      "referred": 3629,
      "anyone": 3630,
      "weap": 3631,
      "brief": 3632,
      "prison": 3633,
      "satisfact": 3634,
      "nav": 3635,
      "discussed": 3636,
      "immigration": 3637,
      "experts": 3638,
      "pleasant": 3639,
      "becoming": 3640,
      "positions": 3641,
      "none": 3642,
      "cards": 3643,
      "p.": 3644,
      "mist": 3645,
      "febr": 3646,
      "format": 3647,
      "represents": 3648,
      "ques": 3649,
      "touch": 3650,
      "exhibition": 3651,
      "i.": 3652,
      "cers": 3653,
      "usa": 3654,
      "spread": 3655,
      "quate": 3656,
      "refuge": 3657,
      "risks": 3658,
      "stream": 3659,
      "natur": 3660,
      "generation": 3661,
      "ferences": 3662,
      "wants": 3663,
      "animal": 3664,
      "crimination": 3665,
      "profit": 3666,
      "wonderful": 3667,
      "prem": 3668,
      "itory": 3669,
      "barce": 3670,
      "northern": 3671,
      "libr": 3672,
      "imag": 3673,
      "provision": 3674,
      "weight": 3675,
      "obviously": 3676,
      "swiss": 3677,
      "ened": 3678,
      "ique": 3679,
      "photograph": 3680,
      "improving": 3681,
      "discrimination": 3682,
      "supporting": 3683,
      "february": 3684,
      "brus": 3685,
      "ukrain": 3686,
      "purchase": 3687,
      "spl": 3688,
      "unless": 3689,
      "ministers": 3690,
      "cluded": 3691,
      "reception": 3692,
      "300": 3693,
      "facilit": 3694,
      "india": 3695,
      "closely": 3696,
      "urs": 3697,
      "stone": 3698,
      "zz": 3699,
      "kingdom": 3700,
      "compens": 3701,
      "sized": 3702,
      "estate": 3703,
      "components": 3704,
      "temper": 3705,
      "fixed": 3706,
      "saw": 3707,
      "coffe": 3708,
      "autom": 3709,
      "degree": 3710,
      "anci": 3711,
      "playing": 3712,
      "connected": 3713,
      "rome": 3714,
      "urban": 3715,
      "block": 3716,
      "tration": 3717,
      "switzer": 3718,
      "ica": 3719,
      "buildings": 3720,
      "communications": 3721,
      "speech": 3722,
      "facing": 3723,
      "telephone": 3724,
      "duty": 3725,
      "depos": 3726,
      "organization": 3727,
      "actual": 3728,
      "typical": 3729,
      "switzerland": 3730,
      "enna": 3731,
      "neighbour": 3732,
      "coordination": 3733,
      "impress": 3734,
      "considerable": 3735,
      "went": 3736,
      "convenient": 3737,
      "sle": 3738,
      "followed": 3739,
      "fare": 3740,
      "relative": 3741,
      "suite": 3742,
      "uration": 3743,
      "metres": 3744,
      "combat": 3745,
      "cham": 3746,
      "studies": 3747,
      "competitiveness": 3748,
      "debian": 3749,
      "czech": 3750,
      "spacious": 3751,
      "accur": 3752,
      "element": 3753,
      "bs": 3754,
      "bind": 3755,
      "bab": 3756,
      "representative": 3757,
      "lying": 3758,
      "race": 3759,
      "income": 3760,
      "revol": 3761,
      "compat": 3762,
      "pas": 3763,
      "ja": 3764,
      "translation": 3765,
      "0.": 3766,
      "financing": 3767,
      "properly": 3768,
      "pun": 3769,
      "director": 3770,
      "finance": 3771,
      "flexible": 3772,
      "dv": 3773,
      "valu": 3774,
      "slow": 3775,
      "barcelon": 3776,
      "alp": 3777,
      "legit": 3778,
      "items": 3779,
      "&apos;ll": 3780,
      "machines": 3781,
      "thinking": 3782,
      "beds": 3783,
      "ensions": 3784,
      "ell": 3785,
      "delay": 3786,
      "bure": 3787,
      "studio": 3788,
      "presence": 3789,
      "christian": 3790,
      "voice": 3791,
      "rig": 3792,
      "teen": 3793,
      "ram": 3794,
      "owned": 3795,
      "barcelona": 3796,
      "drawn": 3797,
      "ordinary": 3798,
      "southern": 3799,
      "habit": 3800,
      "entit": 3801,
      "settle": 3802,
      "hostels": 3803,
      "e.g.": 3804,
      "dealing": 3805,
      "tot": 3806,
      "bag": 3807,
      "greece": 3808,
      "loy": 3809,
      "gi": 3810,
      "database": 3811,
      "jav": 3812,
      "expand": 3813,
      "advance": 3814,
      "relate": 3815,
      "gency": 3816,
      "leader": 3817,
      "entirely": 3818,
      "advis": 3819,
      "pil": 3820,
      "description": 3821,
      "custo": 3822,
      "tack": 3823,
      "intervent": 3824,
      "railway": 3825,
      "castle": 3826,
      "modified": 3827,
      "flexibility": 3828,
      "store": 3829,
      "xic": 3830,
      "hands": 3831,
      "coffee": 3832,
      "champ": 3833,
      "sq": 3834,
      "brussels": 3835,
      "learning": 3836,
      "bureau": 3837,
      "york": 3838,
      "meetings": 3839,
      "vehicles": 3840,
      "difficulties": 3841,
      "kil": 3842,
      "linux": 3843,
      "cars": 3844,
      "bound": 3845,
      "trading": 3846,
      "fant": 3847,
      "consideration": 3848,
      "lighted": 3849,
      "debt": 3850,
      "neither": 3851,
      "approv": 3852,
      "glass": 3853,
      "destroy": 3854,
      "song": 3855,
      "politics": 3856,
      "informed": 3857,
      "courses": 3858,
      "mountains": 3859,
      "gro": 3860,
      "beauty": 3861,
      "entertain": 3862,
      "average": 3863,
      "clude": 3864,
      "cel": 3865,
      "portion": 3866,
      "gave": 3867,
      "enor": 3868,
      "continent": 3869,
      "poland": 3870,
      "analy": 3871,
      "agen": 3872,
      "ength": 3873,
      "turk": 3874,
      "applies": 3875,
      "experienced": 3876,
      "membership": 3877,
      "fault": 3878,
      "rein": 3879,
      "beha": 3880,
      "bir": 3881,
      "failure": 3882,
      "cuis": 3883,
      "ered": 3884,
      "rock": 3885,
      "ases": 3886,
      "valley": 3887,
      "atell": 3888,
      "islands": 3889,
      "percent": 3890,
      "numbers": 3891,
      "hit": 3892,
      "dimension": 3893,
      "domestic": 3894,
      "ancient": 3895,
      "platform": 3896,
      "wards": 3897,
      "humanitarian": 3898,
      "pol": 3899,
      "television": 3900,
      "believ": 3901,
      "reasonable": 3902,
      "abilities": 3903,
      "update": 3904,
      "owners": 3905,
      "promoting": 3906,
      "establishment": 3907,
      "symbol": 3908,
      "era": 3909,
      "peaceful": 3910,
      "196": 3911,
      "tension": 3912,
      "arrival": 3913,
      "practices": 3914,
      "architecture": 3915,
      "rout": 3916,
      "bodies": 3917,
      "belg": 3918,
      "protocol": 3919,
      "statements": 3920,
      "dream": 3921,
      "mode": 3922,
      "idents": 3923,
      "shower": 3924,
      "appears": 3925,
      "chemical": 3926,
      "yester": 3927,
      "signed": 3928,
      "democrats": 3929,
      "becomes": 3930,
      "nis": 3931,
      "calling": 3932,
      "father": 3933,
      "mur": 3934,
      "perspective": 3935,
      "unit": 3936,
      "proof": 3937,
      "elim": 3938,
      "itors": 3939,
      "fear": 3940,
      "aims": 3941,
      "tes": 3942,
      "succeed": 3943,
      "amster": 3944,
      "subsidi": 3945,
      "ml": 3946,
      "amsterdam": 3947,
      "instance": 3948,
      "confir": 3949,
      "structures": 3950,
      "concrete": 3951,
      "mm": 3952,
      "sets": 3953,
      "penal": 3954,
      "31": 3955,
      "zu": 3956,
      "sale": 3957,
      "books": 3958,
      "lla": 3959,
      "simpli": 3960,
      "lie": 3961,
      "reservation": 3962,
      "match": 3963,
      "told": 3964,
      "cuisine": 3965,
      "attempt": 3966,
      "implementing": 3967,
      "yesterday": 3968,
      "insurance": 3969,
      "myself": 3970,
      "easier": 3971,
      "gs": 3972,
      "reducing": 3973,
      "seriously": 3974,
      "ibe": 3975,
      "charged": 3976,
      "negative": 3977,
      "acknow": 3978,
      "himself": 3979,
      "models": 3980,
      "background": 3981,
      "names": 3982,
      "pul": 3983,
      "producers": 3984,
      "bia": 3985,
      "attractive": 3986,
      "changing": 3987,
      "differences": 3988,
      "vul": 3989,
      "arab": 3990,
      "kept": 3991,
      "associated": 3992,
      "spring": 3993,
      "han": 3994,
      "iso": 3995,
      "organiz": 3996,
      "continued": 3997,
      "attach": 3998,
      "iver": 3999,
      "recognition": 4000,
      "opposition": 4001,
      "carefully": 4002,
      "availability": 4003,
      "collabor": 4004,
      "fold": 4005,
      "lt": 4006,
      "length": 4007,
      "rer": 4008,
      "aint": 4009,
      "improvement": 4010,
      "ids": 4011,
      "festival": 4012,
      "satell": 4013,
      "drop": 4014,
      "gir": 4015,
      "adoption": 4016,
      "agencies": 4017,
      "fab": 4018,
      "votes": 4019,
      "vari": 4020,
      "quant": 4021,
      "rants": 4022,
      "initial": 4023,
      "observ": 4024,
      "nearby": 4025,
      "graphic": 4026,
      "ki": 4027,
      "icial": 4028,
      "tel": 4029,
      "isms": 4030,
      "taste": 4031,
      "keeping": 4032,
      "atl": 4033,
      "memory": 4034,
      "combination": 4035,
      "balanced": 4036,
      "claims": 4037,
      "doct": 4038,
      "cot": 4039,
      "approxim": 4040,
      "ifying": 4041,
      "register": 4042,
      "ahead": 4043,
      "constitutional": 4044,
      "evidence": 4045,
      "ein": 4046,
      "conserv": 4047,
      "shared": 4048,
      "happened": 4049,
      "immediate": 4050,
      "ding": 4051,
      "condem": 4052,
      "mother": 4053,
      "attemp": 4054,
      "packages": 4055,
      "behavi": 4056,
      "pure": 4057,
      "hair": 4058,
      "beaches": 4059,
      "spent": 4060,
      "difference": 4061,
      "religious": 4062,
      "released": 4063,
      "dered": 4064,
      "wil": 4065,
      "assembly": 4066,
      "visual": 4067,
      "dangerous": 4068,
      "stu": 4069,
      "st.": 4070,
      "impossible": 4071,
      "registered": 4072,
      "guarantees": 4073,
      "combined": 4074,
      "cook": 4075,
      "beg": 4076,
      "replace": 4077,
      "governmental": 4078,
      "elegant": 4079,
      "goals": 4080,
      "von": 4081,
      "propose": 4082,
      "cher": 4083,
      "youth": 4084,
      "territory": 4085,
      "introduce": 4086,
      "truly": 4087,
      "resto": 4088,
      "excess": 4089,
      "koso": 4090,
      "naturally": 4091,
      "passed": 4092,
      "ato": 4093,
      "compared": 4094,
      "devices": 4095,
      "transition": 4096,
      "capable": 4097,
      "transparent": 4098,
      "ón": 4099,
      "ulated": 4100,
      "equality": 4101,
      "substant": 4102,
      "permanent": 4103,
      "holidays": 4104,
      "described": 4105,
      "announced": 4106,
      "wishes": 4107,
      "asylum": 4108,
      "asc": 4109,
      "figures": 4110,
      "glad": 4111,
      "manager": 4112,
      "possibilities": 4113,
      "steel": 4114,
      "surve": 4115,
      "chamber": 4116,
      "aus": 4117,
      "herit": 4118,
      "noon": 4119,
      "allowing": 4120,
      "marked": 4121,
      "unacceptable": 4122,
      "contrary": 4123,
      "moving": 4124,
      "icians": 4125,
      "delic": 4126,
      "interface": 4127,
      "cold": 4128,
      "reliable": 4129,
      "len": 4130,
      "notice": 4131,
      "luxury": 4132,
      "tasks": 4133,
      "consumption": 4134,
      "bridge": 4135,
      "patent": 4136,
      "african": 4137,
      "profession": 4138,
      "sight": 4139,
      "story": 4140,
      "advertising": 4141,
      "europeans": 4142,
      "forth": 4143,
      "appeal": 4144,
      "promis": 4145,
      "surface": 4146,
      "participate": 4147,
      "ships": 4148,
      "seek": 4149,
      "privacy": 4150,
      "fruit": 4151,
      "desire": 4152,
      "citizen": 4153,
      "&gt": 4154,
      "installed": 4155,
      "&gt;": 4156,
      "4.": 4157,
      "alb": 4158,
      "blog": 4159,
      "snow": 4160,
      "communities": 4161,
      "metro": 4162,
      "correspond": 4163,
      "respective": 4164,
      "ito": 4165,
      "enables": 4166,
      "device": 4167,
      "seeing": 4168,
      "closer": 4169,
      "flight": 4170,
      "restr": 4171,
      "irish": 4172,
      "write": 4173,
      "completed": 4174,
      "greatest": 4175,
      "oppos": 4176,
      "piece": 4177,
      "voc": 4178,
      "raise": 4179,
      "tests": 4180,
      "election": 4181,
      "skills": 4182,
      "spending": 4183,
      "blood": 4184,
      "category": 4185,
      "continues": 4186,
      "department": 4187,
      "strongly": 4188,
      "transform": 4189,
      "vice": 4190,
      "institution": 4191,
      "fash": 4192,
      "poly": 4193,
      "sides": 4194,
      "tenance": 4195,
      "expend": 4196,
      "iles": 4197,
      "sensitive": 4198,
      "acking": 4199,
      "loo": 4200,
      "notes": 4201,
      "extended": 4202,
      "turkish": 4203,
      "sort": 4204,
      "charter": 4205,
      "hostel": 4206,
      "chain": 4207,
      "definition": 4208,
      "title": 4209,
      "establishing": 4210,
      "journal": 4211,
      "honourable": 4212,
      "dedicated": 4213,
      "viet": 4214,
      "wash": 4215,
      "prospect": 4216,
      "dispos": 4217,
      "engineering": 4218,
      "surrounding": 4219,
      "concil": 4220,
      "divid": 4221,
      "surrounded": 4222,
      "buffet": 4223,
      "edge": 4224,
      "totally": 4225,
      "meters": 4226,
      "entitled": 4227,
      "route": 4228,
      "dipl": 4229,
      "artists": 4230,
      "maintenance": 4231,
      "elected": 4232,
      "signal": 4233,
      "cs": 4234,
      "relaxing": 4235,
      "disease": 4236,
      "stri": 4237,
      "wit": 4238,
      "booking.com": 4239,
      "photos": 4240,
      "wto": 4241,
      "individuals": 4242,
      "exercise": 4243,
      "extr": 4244,
      "sched": 4245,
      "fashion": 4246,
      "colour": 4247,
      "labor": 4248,
      "prevention": 4249,
      "enormous": 4250,
      "cool": 4251,
      "conclusions": 4252,
      "promotion": 4253,
      "payments": 4254,
      "controls": 4255,
      "pm": 4256,
      "stands": 4257,
      "ilst": 4258,
      "liter": 4259,
      "registration": 4260,
      "whilst": 4261,
      "ensus": 4262,
      "organised": 4263,
      "ukraine": 4264,
      "convinced": 4265,
      "independence": 4266,
      "nether": 4267,
      "1998": 4268,
      "ugal": 4269,
      "zen": 4270,
      "diplom": 4271,
      "fuel": 4272,
      "cab": 4273,
      "loun": 4274,
      "dum": 4275,
      "wealth": 4276,
      "kr": 4277,
      "granted": 4278,
      "heating": 4279,
      "parent": 4280,
      "meant": 4281,
      "vehicle": 4282,
      "kosovo": 4283,
      "philo": 4284,
      "ai": 4285,
      "ying": 4286,
      "renov": 4287,
      "residence": 4288,
      "label": 4289,
      "fraud": 4290,
      "accessible": 4291,
      "strength": 4292,
      "complain": 4293,
      "onto": 4294,
      "weapons": 4295,
      "grounds": 4296,
      "approximately": 4297,
      "advice": 4298,
      "ller": 4299,
      "whate": 4300,
      "inn": 4301,
      "alliance": 4302,
      "attractions": 4303,
      "whatever": 4304,
      "chen": 4305,
      "turning": 4306,
      "perfectly": 4307,
      "expression": 4308,
      "tp": 4309,
      "&apos;re": 4310,
      "ambit": 4311,
      "appointed": 4312,
      "cia": 4313,
      "dete": 4314,
      "achieving": 4315,
      "aircraft": 4316,
      "continuing": 4317,
      "adapt": 4318,
      "subsequ": 4319,
      "unable": 4320,
      "lio": 4321,
      "wed": 4322,
      "failed": 4323,
      "kore": 4324,
      "testing": 4325,
      "biggest": 4326,
      "shut": 4327,
      "....": 4328,
      "laid": 4329,
      "vienna": 4330,
      "usual": 4331,
      "economies": 4332,
      "ili": 4333,
      "pension": 4334,
      "ked": 4335,
      "sar": 4336,
      "candidate": 4337,
      "existence": 4338,
      "articles": 4339,
      "finish": 4340,
      "bulgar": 4341,
      "trial": 4342,
      "outstanding": 4343,
      "rightly": 4344,
      "netherlands": 4345,
      "factors": 4346,
      "arms": 4347,
      "unto": 4348,
      "memor": 4349,
      "chosen": 4350,
      "iron": 4351,
      "conditioning": 4352,
      "ambitious": 4353,
      "afgh": 4354,
      "satellite": 4355,
      "susp": 4356,
      "ias": 4357,
      "spot": 4358,
      "pel": 4359,
      "eli": 4360,
      "commitments": 4361,
      "participants": 4362,
      "examples": 4363,
      "aks": 4364,
      "physical": 4365,
      "contents": 4366,
      "liability": 4367,
      "frid": 4368,
      "cub": 4369,
      "contemporary": 4370,
      "declaration": 4371,
      "croat": 4372,
      "apers": 4373,
      "license": 4374,
      "someone": 4375,
      "eye": 4376,
      "governance": 4377,
      "appl": 4378,
      "multiple": 4379,
      "executive": 4380,
      "palestinian": 4381,
      "explan": 4382,
      "dp": 4383,
      "dynamic": 4384,
      "species": 4385,
      "intervention": 4386,
      "tried": 4387,
      "limits": 4388,
      "recovery": 4389,
      "architect": 4390,
      "reve": 4391,
      "outcome": 4392,
      "eight": 4393,
      "portugal": 4394,
      "instruct": 4395,
      "mechanism": 4396,
      "gone": 4397,
      "jac": 4398,
      "constantly": 4399,
      "successfully": 4400,
      "casino": 4401,
      "flat": 4402,
      "occasion": 4403,
      "cancell": 4404,
      "philosoph": 4405,
      "enger": 4406,
      "nearly": 4407,
      "skin": 4408,
      "push": 4409,
      "disput": 4410,
      "revolution": 4411,
      "obligations": 4412,
      "theat": 4413,
      "institute": 4414,
      "holding": 4415,
      "32": 4416,
      "qualified": 4417,
      "fiscal": 4418,
      "bars": 4419,
      "ione": 4420,
      "cheap": 4421,
      "edition": 4422,
      "reci": 4423,
      "nar": 4424,
      "pact": 4425,
      "greek": 4426,
      "lord": 4427,
      "36": 4428,
      "classic": 4429,
      "colleague": 4430,
      "df": 4431,
      "reserve": 4432,
      "drin": 4433,
      "putting": 4434,
      "austrian": 4435,
      "ume": 4436,
      "bringing": 4437,
      "sant": 4438,
      "ya": 4439,
      "afghan": 4440,
      "bing": 4441,
      "approval": 4442,
      "asking": 4443,
      "budgets": 4444,
      "atlantic": 4445,
      "binding": 4446,
      "semin": 4447,
      "library": 4448,
      "recommendations": 4449,
      "phase": 4450,
      "5.": 4451,
      "surv": 4452,
      "compliance": 4453,
      "advantages": 4454,
      "landscape": 4455,
      "industries": 4456,
      "sac": 4457,
      "assign": 4458,
      "ries": 4459,
      "expenditure": 4460,
      "factor": 4461,
      "magn": 4462,
      "contained": 4463,
      "furnished": 4464,
      "battle": 4465,
      "vereign": 4466,
      "extend": 4467,
      "cash": 4468,
      "amongst": 4469,
      "deposit": 4470,
      "grade": 4471,
      "sovereign": 4472,
      "truth": 4473,
      "previously": 4474,
      "manufacturing": 4475,
      "latin": 4476,
      "situations": 4477,
      "aza": 4478,
      "thening": 4479,
      "iers": 4480,
      "creative": 4481,
      "remove": 4482,
      "targets": 4483,
      "rence": 4484,
      "provin": 4485,
      "guaranteed": 4486,
      "driving": 4487,
      "cc": 4488,
      "advent": 4489,
      "texts": 4490,
      "distin": 4491,
      "interpret": 4492,
      "planned": 4493,
      "patients": 4494,
      "dor": 4495,
      "rep": 4496,
      "versions": 4497,
      "filled": 4498,
      "heritage": 4499,
      "merely": 4500,
      "hill": 4501,
      "ulations": 4502,
      "submit": 4503,
      "expensive": 4504,
      "suites": 4505,
      "strengthening": 4506,
      "consensus": 4507,
      "i.e.": 4508,
      "pointed": 4509,
      "personally": 4510,
      "waiting": 4511,
      "amen": 4512,
      "employed": 4513,
      "cycle": 4514,
      "ae": 4515,
      "bert": 4516,
      "technological": 4517,
      "evaluation": 4518,
      "identity": 4519,
      "territor": 4520,
      "bill": 4521,
      "pleasure": 4522,
      "consistent": 4523,
      "named": 4524,
      "48": 4525,
      "solar": 4526,
      "depending": 4527,
      "ticket": 4528,
      "jur": 4529,
      "faces": 4530,
      "smaller": 4531,
      "disposal": 4532,
      "defic": 4533,
      "intention": 4534,
      "substantial": 4535,
      "mini": 4536,
      "iar": 4537,
      "consists": 4538,
      "spaces": 4539,
      "proportion": 4540,
      "elimin": 4541,
      "abol": 4542,
      "veget": 4543,
      "lets": 4544,
      "domain": 4545,
      "leis": 4546,
      "acting": 4547,
      "seeking": 4548,
      "fal": 4549,
      "pros": 4550,
      "withdraw": 4551,
      "palace": 4552,
      "adow": 4553,
      "iques": 4554,
      "zy": 4555,
      "ero": 4556,
      "trail": 4557,
      "male": 4558,
      "incorpor": 4559,
      "leads": 4560,
      "lob": 4561,
      "pic": 4562,
      "stim": 4563,
      "determined": 4564,
      "competence": 4565,
      "universal": 4566,
      "schools": 4567,
      "slight": 4568,
      "primary": 4569,
      "deut": 4570,
      "stations": 4571,
      "responsibilities": 4572,
      "holders": 4573,
      "album": 4574,
      "ral": 4575,
      "diversity": 4576,
      "causes": 4577,
      "waters": 4578,
      "clim": 4579,
      "retain": 4580,
      "iff": 4581,
      "conclude": 4582,
      "1997": 4583,
      "balcon": 4584,
      "switch": 4585,
      "corrup": 4586,
      "resulting": 4587,
      "parame": 4588,
      "birth": 4589,
      "looks": 4590,
      "defend": 4591,
      "newsp": 4592,
      "boat": 4593,
      "audi": 4594,
      "stal": 4595,
      "metal": 4596,
      "fan": 4597,
      "entertainment": 4598,
      "safeguard": 4599,
      "75": 4600,
      "thereby": 4601,
      "lose": 4602,
      "brings": 4603,
      "harm": 4604,
      "wait": 4605,
      "automatic": 4606,
      "poker": 4607,
      "nut": 4608,
      "sweden": 4609,
      "kilome": 4610,
      "tours": 4611,
      "iced": 4612,
      "mutual": 4613,
      "draf": 4614,
      "constant": 4615,
      "endor": 4616,
      "faced": 4617,
      "heads": 4618,
      "dvd": 4619,
      "burden": 4620,
      "corner": 4621,
      "intellect": 4622,
      "primarily": 4623,
      "gap": 4624,
      "braz": 4625,
      "discussing": 4626,
      "py": 4627,
      "addressed": 4628,
      "ij": 4629,
      "wild": 4630,
      "carbon": 4631,
      "heavy": 4632,
      "adequate": 4633,
      "vulner": 4634,
      "attacks": 4635,
      "copyright": 4636,
      "nine": 4637,
      "entially": 4638,
      "nos": 4639,
      "browser": 4640,
      "exception": 4641,
      "manufacturers": 4642,
      "talks": 4643,
      "hen": 4644,
      "visa": 4645,
      "bloc": 4646,
      "exec": 4647,
      "investments": 4648,
      "polish": 4649,
      "u.": 4650,
      "chairman": 4651,
      "wear": 4652,
      "vene": 4653,
      "rental": 4654,
      "trib": 4655,
      "drugs": 4656,
      "lif": 4657,
      "delegation": 4658,
      "leisure": 4659,
      "panor": 4660,
      "microsoft": 4661,
      "accounts": 4662,
      "romania": 4663,
      "oring": 4664,
      "presentation": 4665,
      "customs": 4666,
      "idential": 4667,
      "inations": 4668,
      "dutch": 4669,
      "tag": 4670,
      "urge": 4671,
      "decades": 4672,
      "cha": 4673,
      "tend": 4674,
      "reply": 4675,
      "frag": 4676,
      "requested": 4677,
      "consultation": 4678,
      "treated": 4679,
      "speakers": 4680,
      "websites": 4681,
      "fing": 4682,
      "john": 4683,
      "fourth": 4684,
      "onia": 4685,
      "acted": 4686,
      "scan": 4687,
      "delive": 4688,
      "evol": 4689,
      "compatible": 4690,
      "jam": 4691,
      "controlled": 4692,
      "kinds": 4693,
      "400": 4694,
      "unanim": 4695,
      "opposite": 4696,
      "dele": 4697,
      "alia": 4698,
      "preced": 4699,
      "pill": 4700,
      "dic": 4701,
      "infl": 4702,
      "delivered": 4703,
      "bedroom": 4704,
      "dro": 4705,
      "dealt": 4706,
      "mobility": 4707,
      "psy": 4708,
      "magaz": 4709,
      "felt": 4710,
      "dollar": 4711,
      "highlight": 4712,
      "improvements": 4713,
      "hospit": 4714,
      "equally": 4715,
      "shape": 4716,
      "finding": 4717,
      "default": 4718,
      "leadership": 4719,
      "enn": 4720,
      "atically": 4721,
      "alter": 4722,
      "represented": 4723,
      "rot": 4724,
      "refugees": 4725,
      "crow": 4726,
      "pick": 4727,
      "error": 4728,
      "feeling": 4729,
      "congress": 4730,
      "awa": 4731,
      "centres": 4732,
      "amaz": 4733,
      "pir": 4734,
      "recommended": 4735,
      "noise": 4736,
      "mechanisms": 4737,
      "output": 4738,
      "besides": 4739,
      "38": 4740,
      "straight": 4741,
      "capt": 4742,
      "planet": 4743,
      "conciliation": 4744,
      "lounge": 4745,
      "compensation": 4746,
      "gender": 4747,
      "complic": 4748,
      "nom": 4749,
      "pac": 4750,
      "units": 4751,
      "quarter": 4752,
      "fers": 4753,
      "charming": 4754,
      "gor": 4755,
      "goog": 4756,
      "reven": 4757,
      "repeated": 4758,
      "army": 4759,
      "extension": 4760,
      "brazil": 4761,
      "requests": 4762,
      "referen": 4763,
      "fat": 4764,
      "abs": 4765,
      "runs": 4766,
      "rare": 4767,
      "engers": 4768,
      "oth": 4769,
      "consci": 4770,
      "helping": 4771,
      "trees": 4772,
      "oub": 4773,
      "volume": 4774,
      "bol": 4775,
      "sanctions": 4776,
      "furniture": 4777,
      "stein": 4778,
      "labe": 4779,
      "compe": 4780,
      "expertise": 4781,
      "dinner": 4782,
      "ali": 4783,
      "experiences": 4784,
      "150": 4785,
      "older": 4786,
      "destru": 4787,
      "google": 4788,
      "combating": 4789,
      "royal": 4790,
      "supplement": 4791,
      "knows": 4792,
      "charges": 4793,
      "significantly": 4794,
      "destination": 4795,
      "umn": 4796,
      "attitude": 4797,
      "onom": 4798,
      "directives": 4799,
      "obligation": 4800,
      "flash": 4801,
      "bran": 4802,
      "launched": 4803,
      "furt": 4804,
      "covers": 4805,
      "insist": 4806,
      "marit": 4807,
      "locations": 4808,
      "renewable": 4809,
      "lam": 4810,
      "exceed": 4811,
      "aside": 4812,
      "operators": 4813,
      "objects": 4814,
      "wered": 4815,
      "miss": 4816,
      "moved": 4817,
      "chap": 4818,
      "remot": 4819,
      "app": 4820,
      "ological": 4821,
      "imper": 4822,
      "fighting": 4823,
      "streets": 4824,
      "intellectual": 4825,
      "ults": 4826,
      "gos": 4827,
      "recognise": 4828,
      "igno": 4829,
      "settings": 4830,
      "outdoor": 4831,
      "estim": 4832,
      "supervis": 4833,
      "prize": 4834,
      "password": 4835,
      "fleet": 4836,
      "lip": 4837,
      "visible": 4838,
      "substances": 4839,
      "gallery": 4840,
      "ari": 4841,
      "discovered": 4842,
      "quir": 4843,
      "healthy": 4844,
      "temperature": 4845,
      "jection": 4846,
      "politicians": 4847,
      "applicable": 4848,
      "33": 4849,
      "solve": 4850,
      "kit": 4851,
      "emphasise": 4852,
      "mont": 4853,
      "handling": 4854,
      "division": 4855,
      "afford": 4856,
      "p.m.": 4857,
      "isol": 4858,
      "barri": 4859,
      "emphasis": 4860,
      "dishes": 4861,
      "ador": 4862,
      "stuff": 4863,
      "pin": 4864,
      "heat": 4865,
      "rejected": 4866,
      "bedrooms": 4867,
      "definite": 4868,
      "rum": 4869,
      "peoples": 4870,
      "passengers": 4871,
      "expectations": 4872,
      "lots": 4873,
      "helps": 4874,
      "consequently": 4875,
      "boot": 4876,
      "journey": 4877,
      "producing": 4878,
      "fee": 4879,
      "contrast": 4880,
      "latter": 4881,
      "disabled": 4882,
      "simplif": 4883,
      "disaster": 4884,
      "akes": 4885,
      "globalisation": 4886,
      "millions": 4887,
      "dining": 4888,
      "weather": 4889,
      "proud": 4890,
      "anda": 4891,
      "rob": 4892,
      "diag": 4893,
      "exists": 4894,
      "comply": 4895,
      "1996": 4896,
      "mexic": 4897,
      "carri": 4898,
      "taxes": 4899,
      "eases": 4900,
      "rub": 4901,
      "resolve": 4902,
      "rol": 4903,
      "asing": 4904,
      "anne": 4905,
      "tos": 4906,
      "raw": 4907,
      "fasc": 4908,
      "dur": 4909,
      "appreciate": 4910,
      "munich": 4911,
      "figure": 4912,
      "suffering": 4913,
      "graphical": 4914,
      "1990": 4915,
      "vast": 4916,
      "stad": 4917,
      "servers": 4918,
      "recognised": 4919,
      "sleep": 4920,
      "offices": 4921,
      "repeat": 4922,
      "mine": 4923,
      "entered": 4924,
      "meat": 4925,
      "kir": 4926,
      "ugu": 4927,
      "ona": 4928,
      "bug": 4929,
      "arrest": 4930,
      "ultimately": 4931,
      "relatively": 4932,
      "oman": 4933,
      "wellness": 4934,
      "holds": 4935,
      "appeared": 4936,
      "intend": 4937,
      "nik": 4938,
      "sauna": 4939,
      "fitness": 4940,
      "phen": 4941,
      "auf": 4942,
      "leaving": 4943,
      "sql": 4944,
      "ology": 4945,
      "upper": 4946,
      "dark": 4947,
      "valuable": 4948,
      "obst": 4949,
      "arrangements": 4950,
      "enhance": 4951,
      "disci": 4952,
      "fantastic": 4953,
      "das": 4954,
      "apparent": 4955,
      "involving": 4956,
      "ulty": 4957,
      "confirmed": 4958,
      "http": 4959,
      "bureaucr": 4960,
      "ules": 4961,
      "protecting": 4962,
      "plicit": 4963,
      "exclusively": 4964,
      "gardens": 4965,
      "diseases": 4966,
      "wirel": 4967,
      "ets": 4968,
      "virtual": 4969,
      "cohe": 4970,
      "fulfil": 4971,
      "thorough": 4972,
      "compr": 4973,
      "php": 4974,
      "gran": 4975,
      "pak": 4976,
      "faith": 4977,
      "happens": 4978,
      "alco": 4979,
      "provider": 4980,
      "195": 4981,
      "treaties": 4982,
      "wireless": 4983,
      "parents": 4984,
      "flag": 4985,
      "gence": 4986,
      "phr": 4987,
      "criticism": 4988,
      "calcul": 4989,
      "cable": 4990,
      "atures": 4991,
      "collective": 4992,
      "opposed": 4993,
      "georg": 4994,
      "bird": 4995,
      "plate": 4996,
      "remote": 4997,
      "hence": 4998,
      "egy": 4999,
      "swedish": 5000,
      "apo": 5001,
      "exceptional": 5002,
      "enses": 5003,
      "constructive": 5004,
      "reaching": 5005,
      "abil": 5006,
      "certific": 5007,
      "termine": 5008,
      "eyes": 5009,
      "familiar": 5010,
      "iny": 5011,
      "hardware": 5012,
      "volunt": 5013,
      "applause": 5014,
      "dav": 5015,
      "incent": 5016,
      "engage": 5017,
      "cutting": 5018,
      "obtained": 5019,
      "eva": 5020,
      "prosper": 5021,
      "ios": 5022,
      "explore": 5023,
      "awareness": 5024,
      "37": 5025,
      "warrant": 5026,
      "belar": 5027,
      "determine": 5028,
      "hat": 5029,
      "tickets": 5030,
      "util": 5031,
      "illustr": 5032,
      "invent": 5033,
      "operational": 5034,
      "define": 5035,
      "preparation": 5036,
      "gment": 5037,
      "info": 5038,
      "helped": 5039,
      "spectac": 5040,
      "courage": 5041,
      "involvement": 5042,
      "interior": 5043,
      "oly": 5044,
      "chi": 5045,
      "saint": 5046,
      "settlement": 5047,
      "sexual": 5048,
      "euros": 5049,
      "99": 5050,
      "enforce": 5051,
      "debates": 5052,
      "obstac": 5053,
      "impressive": 5054,
      "roof": 5055,
      "contracts": 5056,
      "gers": 5057,
      "discharge": 5058,
      "advoc": 5059,
      "liberalisation": 5060,
      "vak": 5061,
      "serves": 5062,
      "recommendation": 5063,
      "cos": 5064,
      "strategies": 5065,
      "walls": 5066,
      "newly": 5067,
      "swe": 5068,
      "seat": 5069,
      "prev": 5070,
      "contributions": 5071,
      "abling": 5072,
      "lobby": 5073,
      "aves": 5074,
      "increases": 5075,
      "nato": 5076,
      "removed": 5077,
      "navig": 5078,
      "mandate": 5079,
      "cleaning": 5080,
      "fax": 5081,
      "organizations": 5082,
      "stake": 5083,
      "announce": 5084,
      "afghanistan": 5085,
      "ros": 5086,
      "string": 5087,
      "strugg": 5088,
      "rapporteurs": 5089,
      "hof": 5090,
      "hundreds": 5091,
      "pra": 5092,
      "opinions": 5093,
      "ethnic": 5094,
      "coal": 5095,
      "amounts": 5096,
      "transportation": 5097,
      "happening": 5098,
      "officials": 5099,
      "restric": 5100,
      "nd": 5101,
      "printing": 5102,
      "für": 5103,
      "drink": 5104,
      "resolutions": 5105,
      "ourg": 5106,
      "creates": 5107,
      "luxemb": 5108,
      "frequently": 5109,
      "egypt": 5110,
      "listen": 5111,
      "obli": 5112,
      "rd": 5113,
      "bom": 5114,
      "tees": 5115,
      "aught": 5116,
      "restrictions": 5117,
      "depth": 5118,
      "34": 5119,
      "prohib": 5120,
      "largely": 5121,
      "entre": 5122,
      "impression": 5123,
      "socialist": 5124,
      "favor": 5125,
      "thirdly": 5126,
      "parliaments": 5127,
      "drawing": 5128,
      "bike": 5129,
      "emergency": 5130,
      "legally": 5131,
      "prop": 5132,
      "costa": 5133,
      "mobil": 5134,
      "ox": 5135,
      "connections": 5136,
      "massive": 5137,
      "root": 5138,
      "driver": 5139,
      "witness": 5140,
      "formal": 5141,
      "artist": 5142,
      "inhabit": 5143,
      "statistics": 5144,
      "chief": 5145,
      "index": 5146,
      "vacation": 5147,
      "norm": 5148,
      "britain": 5149,
      "acquis": 5150,
      "accompan": 5151,
      "properties": 5152,
      "owner": 5153,
      "remaining": 5154,
      "frankfurt": 5155,
      "regulatory": 5156,
      "tedly": 5157,
      "citing": 5158,
      "requirement": 5159,
      "6.": 5160,
      "lap": 5161,
      "assure": 5162,
      "ör": 5163,
      "profile": 5164,
      "abroad": 5165,
      "plen": 5166,
      "worse": 5167,
      "finished": 5168,
      "iger": 5169,
      "maritime": 5170,
      "enthus": 5171,
      "couple": 5172,
      "maintained": 5173,
      "issued": 5174,
      "resolved": 5175,
      "cure": 5176,
      "organized": 5177,
      "messages": 5178,
      "secret": 5179,
      "dies": 5180,
      "vat": 5181,
      "champion": 5182,
      "pattern": 5183,
      "characteristics": 5184,
      "painting": 5185,
      "doesn": 5186,
      "pieces": 5187,
      "renovated": 5188,
      "migration": 5189,
      "quis": 5190,
      "croatia": 5191,
      "belarus": 5192,
      "configuration": 5193,
      "reported": 5194,
      "gate": 5195,
      "regularly": 5196,
      "hagen": 5197,
      "nights": 5198,
      "identify": 5199,
      "depends": 5200,
      "conflicts": 5201,
      "olymp": 5202,
      "aband": 5203,
      "functional": 5204,
      "roads": 5205,
      "monu": 5206,
      "functioning": 5207,
      "ania": 5208,
      "39": 5209,
      "topic": 5210,
      "vig": 5211,
      "ateful": 5212,
      "fron": 5213,
      "ende": 5214,
      "ience": 5215,
      "career": 5216,
      "shadow": 5217,
      "és": 5218,
      "meps": 5219,
      "matic": 5220,
      "aca": 5221,
      "intensive": 5222,
      "returned": 5223,
      "throw": 5224,
      "minority": 5225,
      "lovely": 5226,
      "49": 5227,
      "contacts": 5228,
      "mary": 5229,
      "bulgaria": 5230,
      "fly": 5231,
      "toler": 5232,
      "certainty": 5233,
      "ulating": 5234,
      "mono": 5235,
      "scot": 5236,
      "discipl": 5237,
      "dates": 5238,
      "tran": 5239,
      "ria": 5240,
      "liqu": 5241,
      "dram": 5242,
      "documentation": 5243,
      "balk": 5244,
      "judicial": 5245,
      "oce": 5246,
      "iding": 5247,
      "roma": 5248,
      "comed": 5249,
      "welfare": 5250,
      "gdp": 5251,
      "wing": 5252,
      "divided": 5253,
      "committees": 5254,
      "miles": 5255,
      "commerce": 5256,
      "remark": 5257,
      "realistic": 5258,
      "electricity": 5259,
      "passenger": 5260,
      "decorated": 5261,
      "answers": 5262,
      "updated": 5263,
      "surroundings": 5264,
      "satur": 5265,
      "het": 5266,
      "slovak": 5267,
      "plug": 5268,
      "ishing": 5269,
      "u.s.": 5270,
      "joined": 5271,
      "tood": 5272,
      "expan": 5273,
      "reserves": 5274,
      "inge": 5275,
      "uting": 5276,
      "understood": 5277,
      "bright": 5278,
      "elev": 5279,
      "hungar": 5280,
      "balcony": 5281,
      "mostly": 5282,
      "facilitate": 5283,
      "sad": 5284,
      "deals": 5285,
      "intent": 5286,
      "symp": 5287,
      "drivers": 5288,
      "supposed": 5289,
      "colon": 5290,
      "theme": 5291,
      "reveal": 5292,
      "speaker": 5293,
      "woman": 5294,
      "hung": 5295,
      "stig": 5296,
      "demanding": 5297,
      "jer": 5298,
      "facility": 5299,
      "japanese": 5300,
      "pdf": 5301,
      "ula": 5302,
      "focused": 5303,
      "dr.": 5304,
      "inser": 5305,
      "trafficking": 5306,
      "exc": 5307,
      "conducted": 5308,
      "luxembourg": 5309,
      "disk": 5310,
      "mou": 5311,
      "ares": 5312,
      "smes": 5313,
      "displayed": 5314,
      "performed": 5315,
      "idden": 5316,
      "pakistan": 5317,
      "phenomen": 5318,
      "somewhat": 5319,
      "ata": 5320,
      "pollution": 5321,
      "abandon": 5322,
      "firms": 5323,
      "flights": 5324,
      "tables": 5325,
      "exit": 5326,
      "faster": 5327,
      "prus": 5328,
      "complement": 5329,
      "correctly": 5330,
      "lists": 5331,
      "wines": 5332,
      "bottom": 5333,
      "kur": 5334,
      "grateful": 5335,
      "investors": 5336,
      "ingu": 5337,
      "asts": 5338,
      "sugar": 5339,
      "maintaining": 5340,
      "eld": 5341,
      "noted": 5342,
      "canada": 5343,
      "techniques": 5344,
      "magnific": 5345,
      "doors": 5346,
      "surely": 5347,
      "freedoms": 5348,
      "oured": 5349,
      "shap": 5350,
      "poo": 5351,
      "bush": 5352,
      "personnel": 5353,
      "inated": 5354,
      "resistance": 5355,
      "lich": 5356,
      "effectiveness": 5357,
      "invite": 5358,
      "tourists": 5359,
      "dub": 5360,
      "portugu": 5361,
      "2020": 5362,
      "intergovernmental": 5363,
      "relaxation": 5364,
      "accompanied": 5365,
      "entrance": 5366,
      "lift": 5367,
      "worry": 5368,
      "follows": 5369,
      "cyprus": 5370,
      "insp": 5371,
      "visiting": 5372,
      "mc": 5373,
      "warning": 5374,
      "superi": 5375,
      "delighted": 5376,
      "chron": 5377,
      "terrorist": 5378,
      "alcohol": 5379,
      "productive": 5380,
      "educational": 5381,
      "corruption": 5382,
      "stylish": 5383,
      "reservations": 5384,
      "satisfied": 5385,
      "detect": 5386,
      "paralle": 5387,
      "input": 5388,
      "signs": 5389,
      "engen": 5390,
      "moral": 5391,
      "hone": 5392,
      "facts": 5393,
      "ils": 5394,
      "wro": 5395,
      "irect": 5396,
      "starts": 5397,
      "collaboration": 5398,
      "packaging": 5399,
      "horse": 5400,
      "munic": 5401,
      "arrive": 5402,
      "subsidies": 5403,
      "leged": 5404,
      "careful": 5405,
      "indicated": 5406,
      "max": 5407,
      "falls": 5408,
      "portuguese": 5409,
      "municip": 5410,
      "tower": 5411,
      "broadcast": 5412,
      "caf": 5413,
      "script": 5414,
      "consolid": 5415,
      "washing": 5416,
      "visited": 5417,
      "afternoon": 5418,
      "inhabitants": 5419,
      "ws": 5420,
      "towns": 5421,
      "&apos;ve": 5422,
      "attend": 5423,
      "trek": 5424,
      "consulting": 5425,
      "corresponding": 5426,
      "competent": 5427,
      "modu": 5428,
      "actively": 5429,
      "accident": 5430,
      "theatre": 5431,
      "gb": 5432,
      "football": 5433,
      "hum": 5434,
      "1995": 5435,
      "involves": 5436,
      "exciting": 5437,
      "presents": 5438,
      "expansion": 5439,
      "scheme": 5440,
      "catch": 5441,
      "channels": 5442,
      "luxur": 5443,
      "widely": 5444,
      "lia": 5445,
      "showing": 5446,
      "considering": 5447,
      "declared": 5448,
      "promises": 5449,
      "stored": 5450,
      "israeli": 5451,
      "ule": 5452,
      "iled": 5453,
      "manual": 5454,
      "zur": 5455,
      "friday": 5456,
      "tery": 5457,
      "aces": 5458,
      "01": 5459,
      "yu": 5460,
      "det": 5461,
      "formed": 5462,
      "bic": 5463,
      "module": 5464,
      "arts": 5465,
      "stars": 5466,
      "tennis": 5467,
      "imposed": 5468,
      "demonstrate": 5469,
      "64": 5470,
      "cosy": 5471,
      "shipping": 5472,
      "possibly": 5473,
      "ache": 5474,
      "managing": 5475,
      "ancy": 5476,
      "winning": 5477,
      "sie": 5478,
      "demonstrated": 5479,
      "98": 5480,
      "inspe": 5481,
      "appearance": 5482,
      "genet": 5483,
      "ici": 5484,
      "muslim": 5485,
      "baltic": 5486,
      "spoken": 5487,
      "diction": 5488,
      "ancing": 5489,
      "tri": 5490,
      "ops": 5491,
      "minorities": 5492,
      "behaviour": 5493,
      "eat": 5494,
      "panel": 5495,
      "banking": 5496,
      "films": 5497,
      "justified": 5498,
      "autonom": 5499,
      "ola": 5500,
      "distingu": 5501,
      "aria": 5502,
      "authen": 5503,
      "airlines": 5504,
      "inflation": 5505,
      "proven": 5506,
      "satisfaction": 5507,
      "exem": 5508,
      "lasting": 5509,
      "ongoing": 5510,
      "professionals": 5511,
      "copen": 5512,
      "desired": 5513,
      "bilateral": 5514,
      "spectacular": 5515,
      "emot": 5516,
      "oriented": 5517,
      "interpre": 5518,
      "superior": 5519,
      "tea": 5520,
      "looked": 5521,
      "patient": 5522,
      "95": 5523,
      "supplier": 5524,
      "copenhagen": 5525,
      "crimes": 5526,
      "phrase": 5527,
      "awarded": 5528,
      "baby": 5529,
      "bell": 5530,
      "courts": 5531,
      "graphy": 5532,
      "silver": 5533,
      "compact": 5534,
      "twenty": 5535,
      "eventually": 5536,
      "concluded": 5537,
      "tobac": 5538,
      "contrad": 5539,
      "motiv": 5540,
      "wid": 5541,
      "sharing": 5542,
      "therap": 5543,
      "manufacturer": 5544,
      "boost": 5545,
      "component": 5546,
      "subsidiarity": 5547,
      "mel": 5548,
      "jack": 5549,
      "recorded": 5550,
      "editor": 5551,
      "suppliers": 5552,
      "immigrants": 5553,
      "plenty": 5554,
      "iner": 5555,
      "tric": 5556,
      "schengen": 5557,
      "extraordinary": 5558,
      "regarded": 5559,
      "55": 5560,
      "containing": 5561,
      "routes": 5562,
      "inal": 5563,
      "undertaking": 5564,
      "distributed": 5565,
      "providers": 5566,
      "respected": 5567,
      "explicit": 5568,
      "targe": 5569,
      "iano": 5570,
      "taxation": 5571,
      "destruction": 5572,
      "tackle": 5573,
      "vary": 5574,
      "sending": 5575,
      "determination": 5576,
      "voluntary": 5577,
      "uries": 5578,
      "transactions": 5579,
      "dependent": 5580,
      "smooth": 5581,
      "soviet": 5582,
      "partly": 5583,
      "thumb": 5584,
      "occasions": 5585,
      "stick": 5586,
      "adopting": 5587,
      "assume": 5588,
      "directory": 5589,
      "korea": 5590,
      "beat": 5591,
      "stabil": 5592,
      "flood": 5593,
      "tree": 5594,
      "milk": 5595,
      "actors": 5596,
      "secretary": 5597,
      "societ": 5598,
      "originally": 5599,
      "movie": 5600,
      "authentic": 5601,
      "7.": 5602,
      "tast": 5603,
      "theory": 5604,
      "une": 5605,
      "prague": 5606,
      "lined": 5607,
      "artistic": 5608,
      "replaced": 5609,
      "assum": 5610,
      "igen": 5611,
      "tobacco": 5612,
      "belgium": 5613,
      "ecu": 5614,
      "musical": 5615,
      "ku": 5616,
      "kon": 5617,
      "concep": 5618,
      "updates": 5619,
      "nament": 5620,
      "philosophy": 5621,
      "cies": 5622,
      "hungary": 5623,
      "shares": 5624,
      "saving": 5625,
      "rapidly": 5626,
      "trend": 5627,
      "federation": 5628,
      "legitimate": 5629,
      "plenary": 5630,
      "icon": 5631,
      "overcome": 5632,
      "housing": 5633,
      "riv": 5634,
      "endorse": 5635,
      "whereas": 5636,
      "addresses": 5637,
      "c.": 5638,
      "kyo": 5639,
      "province": 5640,
      "definitely": 5641,
      "assets": 5642,
      "cycling": 5643,
      "belief": 5644,
      "kel": 5645,
      "parad": 5646,
      "credibility": 5647,
      "nationally": 5648,
      "premium": 5649,
      "rev": 5650,
      "magnificent": 5651,
      "weekend": 5652,
      "conce": 5653,
      "madrid": 5654,
      "consent": 5655,
      "imagine": 5656,
      "44": 5657,
      "selling": 5658,
      "deploy": 5659,
      "clubs": 5660,
      "lou": 5661,
      "identified": 5662,
      "everybody": 5663,
      "hungarian": 5664,
      "1,": 5665,
      "ifications": 5666,
      "ligence": 5667,
      "thurs": 5668,
      "plays": 5669,
      "centuries": 5670,
      "preparing": 5671,
      "dal": 5672,
      "3d": 5673,
      "encouraging": 5674,
      "stronger": 5675,
      "trips": 5676,
      "indo": 5677,
      "slav": 5678,
      "scand": 5679,
      "ump": 5680,
      "auditors": 5681,
      "lunch": 5682,
      "inclusion": 5683,
      "cathe": 5684,
      "fisher": 5685,
      "cm": 5686,
      "golden": 5687,
      "hl": 5688,
      "generated": 5689,
      "cock": 5690,
      "scene": 5691,
      "08": 5692,
      "dign": 5693,
      "ride": 5694,
      "regardless": 5695,
      "edia": 5696,
      "narrow": 5697,
      "wheel": 5698,
      "ita": 5699,
      "adults": 5700,
      "fered": 5701,
      "retail": 5702,
      "emerging": 5703,
      "quarters": 5704,
      "interpretation": 5705,
      "died": 5706,
      "reput": 5707,
      "blan": 5708,
      "ranging": 5709,
      "stic": 5710,
      "argument": 5711,
      "clic": 5712,
      "brother": 5713,
      "65": 5714,
      "honest": 5715,
      "luxurious": 5716,
      "tight": 5717,
      "thousand": 5718,
      "wan": 5719,
      "lod": 5720,
      "resource": 5721,
      "applying": 5722,
      "mexico": 5723,
      "rating": 5724,
      "organic": 5725,
      "forests": 5726,
      "nonetheless": 5727,
      "lag": 5728,
      "filter": 5729,
      "teams": 5730,
      "proposes": 5731,
      "skiing": 5732,
      "decre": 5733,
      "decisive": 5734,
      "horiz": 5735,
      "lugg": 5736,
      "departure": 5737,
      "representation": 5738,
      "ensures": 5739,
      "slightly": 5740,
      "makers": 5741,
      "everyday": 5742,
      "radical": 5743,
      "smart": 5744,
      "substance": 5745,
      "concepts": 5746,
      "09": 5747,
      "restruct": 5748,
      "examine": 5749,
      "topics": 5750,
      "accurate": 5751,
      "supplies": 5752,
      "haus": 5753,
      "judge": 5754,
      "clin": 5755,
      "carrying": 5756,
      "lessons": 5757,
      "47": 5758,
      "renowned": 5759,
      "defect": 5760,
      "duties": 5761,
      "appointment": 5762,
      "privi": 5763,
      "elsewhere": 5764,
      "ius": 5765,
      "abuse": 5766,
      "600": 5767,
      "bourg": 5768,
      "romantic": 5769,
      "skill": 5770,
      "proposing": 5771,
      "wrote": 5772,
      "maybe": 5773,
      "bonus": 5774,
      "plastic": 5775,
      "ligent": 5776,
      "armed": 5777,
      "haz": 5778,
      "subjects": 5779,
      "diverse": 5780,
      "tested": 5781,
      "layer": 5782,
      "fabric": 5783,
      "d.": 5784,
      "traditions": 5785,
      "thursday": 5786,
      "cuts": 5787,
      "solely": 5788,
      "aviation": 5789,
      "homes": 5790,
      "sunday": 5791,
      "attempts": 5792,
      "magazine": 5793,
      "savings": 5794,
      "llers": 5795,
      "religion": 5796,
      "usb": 5797,
      "prestig": 5798,
      "opera": 5799,
      "overview": 5800,
      "villages": 5801,
      "lith": 5802,
      "portfo": 5803,
      "tres": 5804,
      "ara": 5805,
      "para": 5806,
      "exports": 5807,
      "marine": 5808,
      "santa": 5809,
      "cad": 5810,
      "vulnerable": 5811,
      "hael": 5812,
      "specified": 5813,
      "farming": 5814,
      "excessive": 5815,
      "rational": 5816,
      "uniform": 5817,
      "suggestions": 5818,
      "complicated": 5819,
      "passion": 5820,
      "attrib": 5821,
      "tub": 5822,
      "chat": 5823,
      "subs": 5824,
      "programming": 5825,
      "colours": 5826,
      "aqu": 5827,
      "impose": 5828,
      "legitim": 5829,
      "ek": 5830,
      "continuous": 5831,
      "claimed": 5832,
      "nail": 5833,
      "agers": 5834,
      "sheet": 5835,
      "reserved": 5836,
      "excur": 5837,
      "celer": 5838,
      "prene": 5839,
      "ora": 5840,
      "html": 5841,
      "800": 5842,
      "phones": 5843,
      "fifth": 5844,
      "absence": 5845,
      "pad": 5846,
      "unity": 5847,
      "factory": 5848,
      "enabled": 5849,
      "eads": 5850,
      "revision": 5851,
      "unforget": 5852,
      "thermal": 5853,
      "strain": 5854,
      "comparison": 5855,
      "drinks": 5856,
      "drag": 5857,
      "massage": 5858,
      "politically": 5859,
      "museums": 5860,
      "acp": 5861,
      "gained": 5862,
      "ost": 5863,
      "england": 5864,
      "hamburg": 5865,
      "icing": 5866,
      "greatly": 5867,
      "entreprene": 5868,
      "sud": 5869,
      "arrived": 5870,
      "confirmation": 5871,
      "diagno": 5872,
      "specialist": 5873,
      "zim": 5874,
      "isa": 5875,
      "countryside": 5876,
      "vine": 5877,
      "gra": 5878,
      "delicious": 5879,
      "ppe": 5880,
      "mos": 5881,
      "invited": 5882,
      "introducing": 5883,
      "illa": 5884,
      "fans": 5885,
      "receiving": 5886,
      "paul": 5887,
      "deter": 5888,
      "deficit": 5889,
      "dog": 5890,
      "asser": 5891,
      "acknowledge": 5892,
      "reaction": 5893,
      "paying": 5894,
      "sustainability": 5895,
      "rising": 5896,
      "2011": 5897,
      "monday": 5898,
      "difficulty": 5899,
      "instructions": 5900,
      "toile": 5901,
      "aven": 5902,
      "undoub": 5903,
      "sounds": 5904,
      "normally": 5905,
      "harmonisation": 5906,
      "stun": 5907,
      "permitted": 5908,
      "cancer": 5909,
      "spoke": 5910,
      "publication": 5911,
      "commissioners": 5912,
      "adding": 5913,
      "shuttle": 5914,
      "wider": 5915,
      "equival": 5916,
      "ifies": 5917,
      "records": 5918,
      "breach": 5919,
      "buds": 5920,
      "hur": 5921,
      "iders": 5922,
      "odo": 5923,
      "suggested": 5924,
      "enabling": 5925,
      "handle": 5926,
      "ava": 5927,
      "arguments": 5928,
      "saf": 5929,
      "anony": 5930,
      "acceler": 5931,
      "satisfactory": 5932,
      "cis": 5933,
      "rical": 5934,
      "chapter": 5935,
      "fon": 5936,
      "underground": 5937,
      "labelling": 5938,
      "chip": 5939,
      "shel": 5940,
      "sections": 5941,
      "concert": 5942,
      "periods": 5943,
      "didn": 5944,
      "hus": 5945,
      "secut": 5946,
      "enjoyed": 5947,
      "exclusion": 5948,
      "promised": 5949,
      "pursue": 5950,
      "mental": 5951,
      "luggage": 5952,
      "supervision": 5953,
      "proceedings": 5954,
      "cathedr": 5955,
      "iring": 5956,
      "simult": 5957,
      "constitute": 5958,
      "flows": 5959,
      "barro": 5960,
      "societies": 5961,
      "iro": 5962,
      "negotiating": 5963,
      "accordingly": 5964,
      "imports": 5965,
      "modules": 5966,
      "stras": 5967,
      "chant": 5968,
      "destroyed": 5969,
      "missing": 5970,
      "significance": 5971,
      "leaves": 5972,
      "kom": 5973,
      "enhanced": 5974,
      "ocean": 5975,
      "unes": 5976,
      "placing": 5977,
      "cooperate": 5978,
      "gul": 5979,
      "cere": 5980,
      "computers": 5981,
      "directed": 5982,
      "salz": 5983,
      "sd": 5984,
      "sett": 5985,
      "ert": 5986,
      "medicine": 5987,
      "mouth": 5988,
      "necessarily": 5989,
      "universities": 5990,
      "obliged": 5991,
      "reconstruction": 5992,
      "unforgettable": 5993,
      "cf": 5994,
      "portal": 5995,
      "astron": 5996,
      "simultane": 5997,
      "cells": 5998,
      "hospitality": 5999,
      "referendum": 6000,
      "classes": 6001,
      "hiking": 6002,
      "ander": 6003,
      "lived": 6004,
      "communist": 6005,
      "travelling": 6006,
      "bow": 6007,
      "peter": 6008,
      "amazing": 6009,
      "eds": 6010,
      "indirect": 6011,
      "co2": 6012,
      "javas": 6013,
      "thy": 6014,
      "aughter": 6015,
      "desktop": 6016,
      "gift": 6017,
      "rotary": 6018,
      "videos": 6019,
      "uous": 6020,
      "fees": 6021,
      "contradict": 6022,
      "liquid": 6023,
      "trag": 6024,
      "refers": 6025,
      "prosperity": 6026,
      "expo": 6027,
      "guided": 6028,
      "arbit": 6029,
      "evident": 6030,
      "lastly": 6031,
      "1994": 6032,
      "preventing": 6033,
      "pilot": 6034,
      "alban": 6035,
      "dance": 6036,
      "strasbourg": 6037,
      "javascript": 6038,
      "generate": 6039,
      "transmission": 6040,
      "hardly": 6041,
      "hd": 6042,
      "stret": 6043,
      "tam": 6044,
      "usage": 6045,
      "combine": 6046,
      "repair": 6047,
      "alex": 6048,
      "welcomed": 6049,
      "sought": 6050,
      "kernel": 6051,
      "asian": 6052,
      "gather": 6053,
      "killed": 6054,
      "finland": 6055,
      "parameters": 6056,
      "tries": 6057,
      "newsletter": 6058,
      "lor": 6059,
      "raid": 6060,
      "forthcoming": 6061,
      "neighbourhood": 6062,
      "collap": 6063,
      "student": 6064,
      "moroc": 6065,
      "revis": 6066,
      "margin": 6067,
      "incident": 6068,
      "recognized": 6069,
      "allocated": 6070,
      "68": 6071,
      "pod": 6072,
      "neighb": 6073,
      "beings": 6074,
      "unlike": 6075,
      "covering": 6076,
      "ecological": 6077,
      "undoubtedly": 6078,
      "female": 6079,
      "pit": 6080,
      "tap": 6081,
      "pse": 6082,
      "posing": 6083,
      "welcomes": 6084,
      "ville": 6085,
      "restricted": 6086,
      "split": 6087,
      "yer": 6088,
      "adventure": 6089,
      "nur": 6090,
      "intens": 6091,
      "barroso": 6092,
      "jes": 6093,
      "acceptance": 6094,
      "errors": 6095,
      "breath": 6096,
      "acknowled": 6097,
      "wave": 6098,
      "floors": 6099,
      "suffered": 6100,
      "ova": 6101,
      "juris": 6102,
      "permit": 6103,
      "characters": 6104,
      "dé": 6105,
      "remarks": 6106,
      "parallel": 6107,
      "indian": 6108,
      "investigation": 6109,
      "twin": 6110,
      "firmly": 6111,
      "indicate": 6112,
      "vib": 6113,
      "alt": 6114,
      "functionality": 6115,
      "contributed": 6116,
      "calend": 6117,
      "shot": 6118,
      "barriers": 6119,
      "realise": 6120,
      "doctor": 6121,
      "alpine": 6122,
      "hearing": 6123,
      "cking": 6124,
      "tram": 6125,
      "ida": 6126,
      "annivers": 6127,
      "stocks": 6128,
      "mits": 6129,
      "pes": 6130,
      "cathedral": 6131,
      "meal": 6132,
      "experiment": 6133,
      "alongside": 6134,
      "michael": 6135,
      "97": 6136,
      "till": 6137,
      "explained": 6138,
      "cket": 6139,
      "internationally": 6140,
      "iii": 6141,
      "saturday": 6142,
      "wis": 6143,
      "uster": 6144,
      "fib": 6145,
      "productivity": 6146,
      "otic": 6147,
      "icht": 6148,
      "welcoming": 6149,
      "tibet": 6150,
      "sters": 6151,
      "1st": 6152,
      "nit": 6153,
      "clause": 6154,
      "07": 6155,
      "foun": 6156,
      "ombuds": 6157,
      "usal": 6158,
      "christmas": 6159,
      "songs": 6160,
      "cater": 6161,
      "accus": 6162,
      "aids": 6163,
      "rupt": 6164,
      "obstacles": 6165,
      "heim": 6166,
      "lighting": 6167,
      "ulous": 6168,
      "adapted": 6169,
      "schedul": 6170,
      "immun": 6171,
      "remained": 6172,
      "uls": 6173,
      "vessels": 6174,
      "patch": 6175,
      "movements": 6176,
      "vor": 6177,
      "restructuring": 6178,
      "05": 6179,
      "novel": 6180,
      "islamic": 6181,
      "psycho": 6182,
      "42": 6183,
      "rand": 6184,
      "severe": 6185,
      "whenever": 6186,
      "collected": 6187,
      "saved": 6188,
      "trig": 6189,
      "ieval": 6190,
      "inevit": 6191,
      "exploitation": 6192,
      "encing": 6193,
      "ante": 6194,
      "serbia": 6195,
      "coordinated": 6196,
      "swi": 6197,
      "inquir": 6198,
      "intelligent": 6199,
      "jet": 6200,
      "logic": 6201,
      "disasters": 6202,
      "än": 6203,
      "rit": 6204,
      "shr": 6205,
      "americans": 6206,
      "reliability": 6207,
      "academ": 6208,
      "generations": 6209,
      "supervisory": 6210,
      "liked": 6211,
      "cultures": 6212,
      "magic": 6213,
      "conventional": 6214,
      "penalty": 6215,
      "native": 6216,
      "trian": 6217,
      "operator": 6218,
      "excluded": 6219,
      "rh": 6220,
      "96": 6221,
      "ibly": 6222,
      "incred": 6223,
      "heading": 6224,
      "gues": 6225,
      "tracks": 6226,
      "gio": 6227,
      "conve": 6228,
      "sloven": 6229,
      "subsequent": 6230,
      "iel": 6231,
      "thetic": 6232,
      "leon": 6233,
      "dignity": 6234,
      "fs": 6235,
      "olive": 6236,
      "disco": 6237,
      "bc": 6238,
      "clock": 6239,
      "violations": 6240,
      "worthy": 6241,
      "endeav": 6242,
      "enem": 6243,
      "andre": 6244,
      "ista": 6245,
      "marina": 6246,
      "usive": 6247,
      "crew": 6248,
      "bau": 6249,
      "considerably": 6250,
      "printed": 6251,
      "driven": 6252,
      "250": 6253,
      "deliber": 6254,
      "sophistic": 6255,
      "fairly": 6256,
      "dictator": 6257,
      "splend": 6258,
      "opens": 6259,
      "46": 6260,
      "roots": 6261,
      "thir": 6262,
      "showed": 6263,
      "joining": 6264,
      "graphics": 6265,
      "fishermen": 6266,
      "mouse": 6267,
      "filling": 6268,
      "ingred": 6269,
      "laun": 6270,
      "panoramic": 6271,
      "neo": 6272,
      "voy": 6273,
      "ün": 6274,
      "venice": 6275,
      "harbour": 6276,
      "riding": 6277,
      "mov": 6278,
      "amenities": 6279,
      "strip": 6280,
      "checks": 6281,
      "reflected": 6282,
      "implic": 6283,
      "overlooking": 6284,
      "initially": 6285,
      "shift": 6286,
      "nobody": 6287,
      "bearing": 6288,
      "portfolio": 6289,
      "agre": 6290,
      "ore": 6291,
      "worst": 6292,
      "newspapers": 6293,
      "anniversary": 6294,
      "pled": 6295,
      "infringe": 6296,
      "astronom": 6297,
      "designs": 6298,
      "cribe": 6299,
      "luck": 6300,
      "gradu": 6301,
      "distinct": 6302,
      "geneva": 6303,
      "shortly": 6304,
      "damages": 6305,
      "transferred": 6306,
      "anticip": 6307,
      "raising": 6308,
      "bla": 6309,
      "believes": 6310,
      "pretty": 6311,
      "restore": 6312,
      "a.m.": 6313,
      "kg": 6314,
      "oms": 6315,
      "concentrate": 6316,
      "mold": 6317,
      "missions": 6318,
      "neut": 6319,
      "thes": 6320,
      "yard": 6321,
      "hills": 6322,
      "stages": 6323,
      "supplied": 6324,
      "multilateral": 6325,
      "trends": 6326,
      "balkans": 6327,
      "arise": 6328,
      "passing": 6329,
      "cession": 6330,
      "19th": 6331,
      "approve": 6332,
      "annex": 6333,
      "teaching": 6334,
      "territorial": 6335,
      "ombudsman": 6336,
      "engines": 6337,
      "processed": 6338,
      "height": 6339,
      "pillar": 6340,
      "restored": 6341,
      "ented": 6342,
      "freely": 6343,
      "tournament": 6344,
      "essentially": 6345,
      "everywhere": 6346,
      "sovereignty": 6347,
      "governing": 6348,
      "scientists": 6349,
      "australia": 6350,
      "briefly": 6351,
      "pressed": 6352,
      "ordered": 6353,
      "blind": 6354,
      "losses": 6355,
      "traged": 6356,
      "mirr": 6357,
      "satisfy": 6358,
      "inj": 6359,
      "anywhere": 6360,
      "adjustment": 6361,
      "som": 6362,
      "highlights": 6363,
      "inating": 6364,
      "undertaken": 6365,
      "calm": 6366,
      "strengthened": 6367,
      "licens": 6368,
      "shoot": 6369,
      "insu": 6370,
      "edit": 6371,
      "porters": 6372,
      "1980": 6373,
      "college": 6374,
      "reflects": 6375,
      "03": 6376,
      "targeted": 6377,
      "absor": 6378,
      "omas": 6379,
      "recording": 6380,
      "hydro": 6381,
      "refr": 6382,
      "classical": 6383,
      "ía": 6384,
      "constitu": 6385,
      "treatments": 6386,
      "oli": 6387,
      "geor": 6388,
      "ecb": 6389,
      "sv": 6390,
      "erg": 6391,
      "learned": 6392,
      "agents": 6393,
      "azz": 6394,
      "horizon": 6395,
      "bil": 6396,
      "kal": 6397,
      "neighbouring": 6398,
      "attached": 6399,
      "yugo": 6400,
      "inspired": 6401,
      "gross": 6402,
      "reporting": 6403,
      "inade": 6404,
      "producer": 6405,
      "listings": 6406,
      "entering": 6407,
      "deutsche": 6408,
      "yugoslav": 6409,
      "composition": 6410,
      "execution": 6411,
      "compl": 6412,
      "adds": 6413,
      "ambi": 6414,
      "schem": 6415,
      "individually": 6416,
      "ads": 6417,
      "ideally": 6418,
      "nest": 6419,
      "prevail": 6420,
      "hidden": 6421,
      "beer": 6422,
      "otive": 6423,
      "associations": 6424,
      "tranqu": 6425,
      "operates": 6426,
      "2013": 6427,
      "sorry": 6428,
      "mers": 6429,
      "presenting": 6430,
      "coherent": 6431,
      "cin": 6432,
      "grown": 6433,
      "lakes": 6434,
      "sudden": 6435,
      "equivalent": 6436,
      "lev": 6437,
      "deeply": 6438,
      "pressing": 6439,
      "picturesque": 6440,
      "tough": 6441,
      "boards": 6442,
      "varied": 6443,
      "profits": 6444,
      "sights": 6445,
      "forgot": 6446,
      "produces": 6447,
      "medieval": 6448,
      "sensible": 6449,
      "decade": 6450,
      "explanation": 6451,
      "airports": 6452,
      "embar": 6453,
      "mysql": 6454,
      "exerc": 6455,
      "boats": 6456,
      "indoor": 6457,
      "utor": 6458,
      "pharm": 6459,
      "aux": 6460,
      "java": 6461,
      "formats": 6462,
      "pace": 6463,
      "acies": 6464,
      "06": 6465,
      "aling": 6466,
      "geographical": 6467,
      "endors": 6468,
      "trou": 6469,
      "alum": 6470,
      "mr.": 6471,
      "threats": 6472,
      "soul": 6473,
      "ored": 6474,
      "letters": 6475,
      "referring": 6476,
      "m2": 6477,
      "sli": 6478,
      "tort": 6479,
      "anton": 6480,
      "invo": 6481,
      "incorporated": 6482,
      "upgrade": 6483,
      "treas": 6484,
      "tube": 6485,
      "appropriations": 6486,
      "apple": 6487,
      "colors": 6488,
      "engaged": 6489,
      "sacr": 6490,
      "trop": 6491,
      "arising": 6492,
      "cles": 6493,
      "stunning": 6494,
      "900": 6495,
      "survey": 6496,
      "mining": 6497,
      "differ": 6498,
      "steam": 6499,
      "belgian": 6500,
      "developers": 6501,
      "denmark": 6502,
      "macro": 6503,
      "120": 6504,
      "ngos": 6505,
      "georgia": 6506,
      "fried": 6507,
      "soil": 6508,
      "mistake": 6509,
      "ene": 6510,
      "argent": 6511,
      "fined": 6512,
      "empire": 6513,
      "certified": 6514,
      "pipe": 6515,
      "islam": 6516,
      "regulated": 6517,
      "reputation": 6518,
      "specialists": 6519,
      "sufficiently": 6520,
      "bathrooms": 6521,
      "modific": 6522,
      "democrat": 6523,
      "itative": 6524,
      "liable": 6525,
      "expl": 6526,
      "strictly": 6527,
      "tab": 6528,
      "ura": 6529,
      "skype": 6530,
      "85": 6531,
      "statute": 6532,
      "relates": 6533,
      "taxi": 6534,
      "teachers": 6535,
      "cookies": 6536,
      "therapy": 6537,
      "nish": 6538,
      "serving": 6539,
      "aer": 6540,
      "pens": 6541,
      "conferences": 6542,
      "02": 6543,
      "protest": 6544,
      "compuls": 6545,
      "asset": 6546,
      "twice": 6547,
      "funded": 6548,
      "ministry": 6549,
      "superb": 6550,
      "hospital": 6551,
      "blocks": 6552,
      "vest": 6553,
      "intends": 6554,
      "virtually": 6555,
      "cultiv": 6556,
      "operated": 6557,
      "nl": 6558,
      "rough": 6559,
      "wides": 6560,
      "clicking": 6561,
      "arran": 6562,
      "uscan": 6563,
      "eland": 6564,
      "diving": 6565,
      "seats": 6566,
      "1992": 6567,
      "bun": 6568,
      "martin": 6569,
      "urgently": 6570,
      "efficiently": 6571,
      "acquired": 6572,
      "sophisticated": 6573,
      "struggle": 6574,
      "reiter": 6575,
      "inner": 6576,
      "amed": 6577,
      "begins": 6578,
      "gradually": 6579,
      "prospects": 6580,
      "meets": 6581,
      "revenue": 6582,
      "aci": 6583,
      "bicy": 6584,
      "tai": 6585,
      "phenomenon": 6586,
      "iest": 6587,
      "ena": 6588,
      "rose": 6589,
      "seas": 6590,
      "a5": 6591,
      "decline": 6592,
      "basically": 6593,
      "candidates": 6594,
      "participating": 6595,
      "captain": 6596,
      "orches": 6597,
      "dialog": 6598,
      "kilometres": 6599,
      "v.": 6600,
      "constructed": 6601,
      "taxpay": 6602,
      "mt": 6603,
      "favourable": 6604,
      "navigation": 6605,
      "terminal": 6606,
      "zero": 6607,
      "boy": 6608,
      ".org": 6609,
      "bid": 6610,
      "partial": 6611,
      "discount": 6612,
      "surprise": 6613,
      "conditioned": 6614,
      "fro": 6615,
      "presidents": 6616,
      "integrate": 6617,
      "resid": 6618,
      "actor": 6619,
      "diplomatic": 6620,
      "fection": 6621,
      "feet": 6622,
      "ultimate": 6623,
      "highlighted": 6624,
      "combines": 6625,
      "convenience": 6626,
      "bout": 6627,
      "miner": 6628,
      "accounting": 6629,
      "hil": 6630,
      "manif": 6631,
      "jose": 6632,
      "bern": 6633,
      "environmentally": 6634,
      "affili": 6635,
      "considers": 6636,
      "ademy": 6637,
      "consequence": 6638,
      "haust": 6639,
      "bosn": 6640,
      "occurred": 6641,
      "succeeded": 6642,
      "counts": 6643,
      "quote": 6644,
      "academy": 6645,
      "coach": 6646,
      "ette": 6647,
      "43": 6648,
      "conscious": 6649,
      "deem": 6650,
      "resulted": 6651,
      "specialized": 6652,
      "accidents": 6653,
      "convergence": 6654,
      "infect": 6655,
      "itar": 6656,
      "naz": 6657,
      "prisoners": 6658,
      "yel": 6659,
      "outer": 6660,
      "meals": 6661,
      "exhaust": 6662,
      "achievement": 6663,
      "certification": 6664,
      "blow": 6665,
      "dir": 6666,
      "convert": 6667,
      "affects": 6668,
      "predict": 6669,
      "victory": 6670,
      "orous": 6671,
      "ela": 6672,
      "matically": 6673,
      "girls": 6674,
      "subsequently": 6675,
      "contextual": 6676,
      "wooden": 6677,
      "unfair": 6678,
      "millenn": 6679,
      "calc": 6680,
      "certificate": 6681,
      "compos": 6682,
      "brain": 6683,
      "compulsory": 6684,
      "shor": 6685,
      "troops": 6686,
      "medicines": 6687,
      "bis": 6688,
      "dryer": 6689,
      "grav": 6690,
      "robot": 6691,
      "causing": 6692,
      "oldest": 6693,
      "greg": 6694,
      "kt": 6695,
      "amended": 6696,
      "accompl": 6697,
      "lopes": 6698,
      "qualities": 6699,
      "ras": 6700,
      "extending": 6701,
      "encouraged": 6702,
      "oration": 6703,
      "stories": 6704,
      "danish": 6705,
      "41": 6706,
      "án": 6707,
      "desir": 6708,
      "legend": 6709,
      "broken": 6710,
      "slovakia": 6711,
      "mall": 6712,
      "parks": 6713,
      "thumbnail": 6714,
      "widespread": 6715,
      "dispute": 6716,
      "flav": 6717,
      "seeks": 6718,
      "vocational": 6719,
      "kong": 6720,
      "inspir": 6721,
      "plaza": 6722,
      "clarify": 6723,
      "calendar": 6724,
      "quotas": 6725,
      "checked": 6726,
      "mere": 6727,
      "indis": 6728,
      "additionally": 6729,
      "negotiation": 6730,
      "harmful": 6731,
      "puts": 6732,
      "layout": 6733,
      "preserve": 6734,
      "bou": 6735,
      "breed": 6736,
      "circu": 6737,
      "mixed": 6738,
      "utmost": 6739,
      "printer": 6740,
      "dublin": 6741,
      "wir": 6742,
      "pour": 6743,
      "lied": 6744,
      "ais": 6745,
      "permission": 6746,
      "hesit": 6747,
      "automotive": 6748,
      "gle": 6749,
      "auth": 6750,
      "intim": 6751,
      "observed": 6752,
      "spite": 6753,
      "accompany": 6754,
      "purely": 6755,
      "splendid": 6756,
      "bach": 6757,
      "maria": 6758,
      "&apos;m": 6759,
      "sessions": 6760,
      "ray": 6761,
      "choices": 6762,
      "toward": 6763,
      "bm": 6764,
      "edited": 6765,
      "cancellation": 6766,
      "ön": 6767,
      "grass": 6768,
      "managers": 6769,
      "surprising": 6770,
      "surprised": 6771,
      "autumn": 6772,
      "lind": 6773,
      "acks": 6774,
      "stores": 6775,
      "electrical": 6776,
      "plates": 6777,
      "nowad": 6778,
      "scheduled": 6779,
      "wolf": 6780,
      "keys": 6781,
      "bin": 6782,
      "hole": 6783,
      "staying": 6784,
      "nowadays": 6785,
      "fert": 6786,
      "enjoying": 6787,
      "featuring": 6788,
      "mort": 6789,
      "empty": 6790,
      "atom": 6791,
      "capabilities": 6792,
      "david": 6793,
      "jean": 6794,
      "20th": 6795,
      "enforcement": 6796,
      "gel": 6797,
      "similarly": 6798,
      "nia": 6799,
      "elevator": 6800,
      "iti": 6801,
      "sumed": 6802,
      "charm": 6803,
      "logistics": 6804,
      "enthusi": 6805,
      "upgrad": 6806,
      "1993": 6807,
      "communicate": 6808,
      "icts": 6809,
      "virus": 6810,
      "anonymous": 6811,
      "yards": 6812,
      "assigned": 6813,
      "wage": 6814,
      "references": 6815,
      "istical": 6816,
      "seconds": 6817,
      "greens": 6818,
      "organise": 6819,
      "dio": 6820,
      "prec": 6821,
      "branch": 6822,
      "neu": 6823,
      "bahn": 6824,
      "b.": 6825,
      "estimated": 6826,
      "hero": 6827,
      "hong": 6828,
      "eg": 6829,
      "04": 6830,
      "imperial": 6831,
      "holder": 6832,
      "hopes": 6833,
      "willingness": 6834,
      "chic": 6835,
      "confidential": 6836,
      "mount": 6837,
      "prodi": 6838,
      "adult": 6839,
      "hypo": 6840,
      "lithu": 6841,
      "professor": 6842,
      "journalists": 6843,
      "discre": 6844,
      "contest": 6845,
      "obama": 6846,
      "closure": 6847,
      "principal": 6848,
      "publishing": 6849,
      "width": 6850,
      "agent": 6851,
      "recognize": 6852,
      "holy": 6853,
      "blu": 6854,
      "ji": 6855,
      "ua": 6856,
      "whol": 6857,
      "junction": 6858,
      "concentration": 6859,
      "studied": 6860,
      "sunny": 6861,
      "relationships": 6862,
      "pix": 6863,
      "pools": 6864,
      "folder": 6865,
      "1000": 6866,
      "nap": 6867,
      "ika": 6868,
      ".de": 6869,
      "ald": 6870,
      "schemes": 6871,
      "cine": 6872,
      "mant": 6873,
      "ão": 6874,
      "loading": 6875,
      "percentage": 6876,
      "700": 6877,
      "prompt": 6878,
      "hann": 6879,
      "spam": 6880,
      "frequency": 6881,
      "8.": 6882,
      "ré": 6883,
      "caution": 6884,
      "arbitr": 6885,
      "shore": 6886,
      "officer": 6887,
      "audience": 6888,
      "secondary": 6889,
      "meaningfully": 6890,
      "hans": 6891,
      "league": 6892,
      "addressing": 6893,
      "chairs": 6894,
      "hect": 6895,
      "bread": 6896,
      "uct": 6897,
      "impli": 6898,
      "escape": 6899,
      "expense": 6900,
      "technique": 6901,
      "corre": 6902,
      "crises": 6903,
      "transfers": 6904,
      "envis": 6905,
      "adic": 6906,
      "gentoo": 6907,
      "delete": 6908,
      "gau": 6909,
      "eliminate": 6910,
      "interactive": 6911,
      "listening": 6912,
      "ratification": 6913,
      "campaigns": 6914,
      "mechanical": 6915,
      "abstain": 6916,
      "monte": 6917,
      "occupation": 6918,
      "utical": 6919,
      "describe": 6920,
      "wars": 6921,
      "senior": 6922,
      "foundations": 6923,
      "sample": 6924,
      "scenar": 6925,
      "neighbours": 6926,
      "tte": 6927,
      "completion": 6928,
      "spons": 6929,
      "buses": 6930,
      "ownership": 6931,
      "dens": 6932,
      "kre": 6933,
      "bling": 6934,
      "ingredients": 6935,
      "textile": 6936,
      "dos": 6937,
      "approaches": 6938,
      "inspection": 6939,
      "implications": 6940,
      "ups": 6941,
      "arena": 6942,
      "ofin": 6943,
      "nt": 6944,
      "constitutes": 6945,
      "scribe": 6946,
      "tariff": 6947,
      "translated": 6948,
      "dress": 6949,
      "persist": 6950,
      "violation": 6951,
      "contextually": 6952,
      "motorway": 6953,
      "strike": 6954,
      "rubber": 6955,
      "grammatically": 6956,
      "kyoto": 6957,
      "remed": 6958,
      "ishment": 6959,
      "minent": 6960,
      "cuba": 6961,
      "gene": 6962,
      "paths": 6963,
      "believed": 6964,
      "incentives": 6965,
      "remarkable": 6966,
      "timetable": 6967,
      "ams": 6968,
      "craf": 6969,
      "excursions": 6970,
      "mosc": 6971,
      "measurement": 6972,
      "trace": 6973,
      "whereby": 6974,
      "racing": 6975,
      "continental": 6976,
      "millennium": 6977,
      "thick": 6978,
      "wednes": 6979,
      "george": 6980,
      "imf": 6981,
      "pap": 6982,
      "designer": 6983,
      "urgency": 6984,
      "examination": 6985,
      "wife": 6986,
      "enjoys": 6987,
      "bought": 6988,
      "insul": 6989,
      "yach": 6990,
      "assurance": 6991,
      "laser": 6992,
      "array": 6993,
      "coastal": 6994,
      "rec": 6995,
      "residential": 6996,
      "awards": 6997,
      "accessories": 6998,
      "stead": 6999,
      "preferred": 7000,
      "eches": 7001,
      "swift": 7002,
      "quet": 7003,
      "aes": 7004,
      "archive": 7005,
      "tz": 7006,
      "alps": 7007,
      "refresh": 7008,
      "travellers": 7009,
      "poorest": 7010,
      "iones": 7011,
      "fewer": 7012,
      "jewish": 7013,
      "trained": 7014,
      "cope": 7015,
      "false": 7016,
      "machin": 7017,
      "rim": 7018,
      "suspect": 7019,
      "usd": 7020,
      "gies": 7021,
      "rena": 7022,
      "underlying": 7023,
      "flying": 7024,
      "arranged": 7025,
      "puer": 7026,
      "yield": 7027,
      "florence": 7028,
      "wik": 7029,
      "soever": 7030,
      "pia": 7031,
      "loaded": 7032,
      "aceutical": 7033,
      "sailing": 7034,
      "crystal": 7035,
      "scar": 7036,
      "yle": 7037,
      "optimal": 7038,
      "fascinating": 7039,
      "intelligence": 7040,
      "paradise": 7041,
      "progressive": 7042,
      "a3": 7043,
      "render": 7044,
      "compliment": 7045,
      "presidential": 7046,
      "joy": 7047,
      "considerations": 7048,
      "zza": 7049,
      "codecision": 7050,
      "observe": 7051,
      "persu": 7052,
      "desirable": 7053,
      "openness": 7054,
      "buyer": 7055,
      "sap": 7056,
      "thres": 7057,
      "logo": 7058,
      "echo": 7059,
      "economically": 7060,
      "scul": 7061,
      "bra": 7062,
      "gym": 7063,
      "representing": 7064,
      "richt": 7065,
      "cht": 7066,
      "natives": 7067,
      "deserves": 7068,
      "papers": 7069,
      "debating": 7070,
      "guaranteeing": 7071,
      "admit": 7072,
      "exposed": 7073,
      "dramatic": 7074,
      "gun": 7075,
      "rio": 7076,
      "vation": 7077,
      "approx": 7078,
      "legitimacy": 7079,
      "leban": 7080,
      "moments": 7081,
      "winner": 7082,
      "artific": 7083,
      "tropical": 7084,
      "feld": 7085,
      "solved": 7086,
      "stip": 7087,
      "healthcare": 7088,
      "resor": 7089,
      "informal": 7090,
      "loved": 7091,
      "oppon": 7092,
      "transaction": 7093,
      "returns": 7094,
      "identification": 7095,
      "distort": 7096,
      "spectrum": 7097,
      "indones": 7098,
      "stretch": 7099,
      "gage": 7100,
      "compete": 7101,
      "canon": 7102,
      "busy": 7103,
      "chemicals": 7104,
      "elder": 7105,
      "9.": 7106,
      "foremost": 7107,
      "catalogue": 7108,
      "unnecessary": 7109,
      "formula": 7110,
      "inadequate": 7111,
      "reinforce": 7112,
      "sizes": 7113,
      "sees": 7114,
      "moz": 7115,
      "removal": 7116,
      "gnu": 7117,
      "speeches": 7118,
      "moscow": 7119,
      "fox": 7120,
      "centers": 7121,
      "sake": 7122,
      "camping": 7123,
      "pharmaceutical": 7124,
      "characteristic": 7125,
      "genuinely": 7126,
      "proxim": 7127,
      "simultaneously": 7128,
      "ami": 7129,
      "postal": 7130,
      "ethical": 7131,
      "wednesday": 7132,
      "gart": 7133,
      "pted": 7134,
      "instantly": 7135,
      "importantly": 7136,
      "complaints": 7137,
      "eper": 7138,
      "repeatedly": 7139,
      "bian": 7140,
      "boasts": 7141,
      "fell": 7142,
      "subscribe": 7143,
      "relief": 7144,
      "lively": 7145,
      "morocco": 7146,
      "municipal": 7147,
      "ders": 7148,
      "rous": 7149,
      "vacc": 7150,
      "10.": 7151,
      "conclud": 7152,
      "grave": 7153,
      "exhibitions": 7154,
      "reward": 7155,
      "specially": 7156,
      "conservation": 7157,
      "expanded": 7158,
      "begun": 7159,
      "stan": 7160,
      "recru": 7161,
      "ico": 7162,
      "procure": 7163,
      "pine": 7164,
      "arer": 7165,
      "forecast": 7166,
      "condemn": 7167,
      "guid": 7168,
      "kor": 7169,
      "examined": 7170,
      "girl": 7171,
      "rhe": 7172,
      "folk": 7173,
      "respects": 7174,
      "freight": 7175,
      "gulf": 7176,
      "spell": 7177,
      "expenses": 7178,
      "conventions": 7179,
      "authors": 7180,
      "tuscan": 7181,
      "electoral": 7182,
      "victor": 7183,
      "evolution": 7184,
      "otech": 7185,
      "sym": 7186,
      "jointly": 7187,
      "comparable": 7188,
      "accuracy": 7189,
      "transitional": 7190,
      "encry": 7191,
      "booked": 7192,
      "clarity": 7193,
      "tips": 7194,
      "aren": 7195,
      "destinations": 7196,
      "multim": 7197,
      "intentions": 7198,
      "jurisdiction": 7199,
      "trouble": 7200,
      "sadd": 7201,
      "conversion": 7202,
      "maps": 7203,
      "suited": 7204,
      "weakness": 7205,
      "illi": 7206,
      "detr": 7207,
      "bigger": 7208,
      "este": 7209,
      "utors": 7210,
      "contam": 7211,
      "bav": 7212,
      "jar": 7213,
      "privat": 7214,
      "bosnia": 7215,
      "forgotten": 7216,
      "hier": 7217,
      "tragic": 7218,
      "seemed": 7219,
      "purchased": 7220,
      "composed": 7221,
      "wherever": 7222,
      "precision": 7223,
      "sus": 7224,
      "posts": 7225,
      "ifi": 7226,
      "biod": 7227,
      "telecommunications": 7228,
      "kle": 7229,
      "airbus": 7230,
      "reader": 7231,
      "interview": 7232,
      "transit": 7233,
      "purchasing": 7234,
      "apparently": 7235,
      "dual": 7236,
      "manufactured": 7237,
      "residents": 7238,
      "dre": 7239,
      "tou": 7240,
      "financed": 7241,
      "cow": 7242,
      "iments": 7243,
      "requis": 7244,
      "r.": 7245,
      "slopes": 7246,
      "tering": 7247,
      "holm": 7248,
      "recall": 7249,
      "enlar": 7250,
      "ativity": 7251,
      "economics": 7252,
      "territories": 7253,
      "gay": 7254,
      "oh": 7255,
      "66": 7256,
      "typically": 7257,
      "laundry": 7258,
      "interinstitutional": 7259,
      "bru": 7260,
      "1991": 7261,
      ".net": 7262,
      "modify": 7263,
      "brands": 7264,
      "circle": 7265,
      "arrangement": 7266,
      "automation": 7267,
      "literature": 7268,
      "philip": 7269,
      "washington": 7270,
      "plu": 7271,
      "1970": 7272,
      "gests": 7273,
      "continuously": 7274,
      "observation": 7275,
      "beit": 7276,
      "losing": 7277,
      "possess": 7278,
      "movies": 7279,
      "pg": 7280,
      "bak": 7281,
      "terrible": 7282,
      "alumin": 7283,
      "confident": 7284,
      "authorized": 7285,
      "dimensions": 7286,
      "uz": 7287,
      "suggests": 7288,
      "researchers": 7289,
      "revised": 7290,
      "workshop": 7291,
      "expressly": 7292,
      "tragedy": 7293,
      "forcing": 7294,
      "socialists": 7295,
      "orientation": 7296,
      "devoted": 7297,
      "amending": 7298,
      "hydr": 7299,
      "intense": 7300,
      "tunis": 7301,
      "finnish": 7302,
      "buying": 7303,
      "pensions": 7304,
      "itz": 7305,
      "beef": 7306,
      "drives": 7307,
      "deadline": 7308,
      "doubts": 7309,
      "integrity": 7310,
      "hub": 7311,
      "machinery": 7312,
      "elig": 7313,
      "landscap": 7314,
      "mend": 7315,
      "variable": 7316,
      "falling": 7317,
      "turns": 7318,
      "lingu": 7319,
      "frequent": 7320,
      "resc": 7321,
      "zzi": 7322,
      "commod": 7323,
      "shock": 7324,
      "admitted": 7325,
      "tray": 7326,
      "colog": 7327,
      "intern": 7328,
      "academic": 7329,
      "enery": 7330,
      "manip": 7331,
      "delays": 7332,
      "xx": 7333,
      "aga": 7334,
      "bench": 7335,
      "installations": 7336,
      "preparations": 7337,
      "pig": 7338,
      "piano": 7339,
      "granting": 7340,
      "preserved": 7341,
      "zing": 7342,
      "violent": 7343,
      "focusing": 7344,
      "1989": 7345,
      "robert": 7346,
      "trains": 7347,
      "assured": 7348,
      "pacific": 7349,
      "segment": 7350,
      "delight": 7351,
      "tage": 7352,
      "rog": 7353,
      "cameras": 7354,
      "whatsoever": 7355,
      "employers": 7356,
      "officially": 7357,
      "lamp": 7358,
      "refused": 7359,
      "posted": 7360,
      "2.0": 7361,
      "afraid": 7362,
      "surveill": 7363,
      "ng": 7364,
      "tec": 7365,
      "oppose": 7366,
      "pursuant": 7367,
      "palestinians": 7368,
      "operative": 7369,
      "promoted": 7370,
      "answered": 7371,
      "schedule": 7372,
      "fed": 7373,
      "monuments": 7374,
      "ceiling": 7375,
      "directors": 7376,
      "surveillance": 7377,
      "duration": 7378,
      "visits": 7379,
      "finds": 7380,
      "embed": 7381,
      "quantity": 7382,
      "recover": 7383,
      "mp3": 7384,
      "stressed": 7385,
      "precious": 7386,
      "renewed": 7387,
      "airline": 7388,
      "gear": 7389,
      "feedback": 7390,
      "sme": 7391,
      "guitar": 7392,
      "sculpt": 7393,
      "zip": 7394,
      "colom": 7395,
      "ifor": 7396,
      "score": 7397,
      "inational": 7398,
      "mines": 7399,
      "moon": 7400,
      "organize": 7401,
      "meanwhile": 7402,
      "publications": 7403,
      "affecting": 7404,
      "kids": 7405,
      "convict": 7406,
      "salzburg": 7407,
      "sandy": 7408,
      "affordable": 7409,
      "ote": 7410,
      "inity": 7411,
      "iser": 7412,
      "spare": 7413,
      "aps": 7414,
      "sudan": 7415,
      "humanity": 7416,
      "platz": 7417,
      "acquisition": 7418,
      "taiwan": 7419,
      "leather": 7420,
      "newspaper": 7421,
      "plane": 7422,
      "occupied": 7423,
      "concerts": 7424,
      "soldiers": 7425,
      "inquiry": 7426,
      "theo": 7427,
      "solo": 7428,
      "closing": 7429,
      "colonial": 7430,
      "milan": 7431,
      "declare": 7432,
      "egg": 7433,
      "aris": 7434,
      "stro": 7435,
      "ames": 7436,
      "formation": 7437,
      "focuses": 7438,
      "fifteen": 7439,
      "collapse": 7440,
      "profound": 7441,
      "biological": 7442,
      "nan": 7443,
      "marri": 7444,
      "stopped": 7445,
      "supplementary": 7446,
      "advise": 7447,
      "codes": 7448,
      "james": 7449,
      "arest": 7450,
      "udes": 7451,
      "refuse": 7452,
      "alternatives": 7453,
      "discrimin": 7454,
      "ingly": 7455,
      "substanti": 7456,
      "cancel": 7457,
      "attended": 7458,
      "petitions": 7459,
      "negotiated": 7460,
      "belongs": 7461,
      "reflection": 7462,
      "juni": 7463,
      "1.5": 7464,
      "vietnam": 7465,
      "stadt": 7466,
      "semi": 7467,
      "opar": 7468,
      "broader": 7469,
      "privileged": 7470,
      "pup": 7471,
      "sten": 7472,
      "spiritual": 7473,
      "cologne": 7474,
      "innovations": 7475,
      "greenhouse": 7476,
      "ician": 7477,
      "partition": 7478,
      "distinction": 7479,
      "loans": 7480,
      "tet": 7481,
      "viable": 7482,
      "ceremon": 7483,
      "inspect": 7484,
      "knew": 7485,
      "zar": 7486,
      "photography": 7487,
      "gaza": 7488,
      "ambig": 7489,
      "nationals": 7490,
      "cocktail": 7491,
      "shir": 7492,
      "negotiate": 7493,
      "procurement": 7494,
      "relaxed": 7495,
      "ignore": 7496,
      "tang": 7497,
      "budap": 7498,
      "patents": 7499,
      "multinational": 7500,
      "maced": 7501,
      "ife": 7502,
      "achievements": 7503,
      "lav": 7504,
      "cano": 7505,
      "mature": 7506,
      "eurozone": 7507,
      "charles": 7508,
      "deserve": 7509,
      "weg": 7510,
      "ultra": 7511,
      "releases": 7512,
      "vous": 7513,
      "sony": 7514,
      "budapest": 7515,
      "measuring": 7516,
      "civilian": 7517,
      "architectural": 7518,
      "beneficial": 7519,
      "citizenship": 7520,
      "headquarters": 7521,
      "advertise": 7522,
      "cancelled": 7523,
      "capture": 7524,
      "peak": 7525,
      "lovers": 7526,
      "visitor": 7527,
      "catering": 7528,
      "marking": 7529,
      "corporation": 7530,
      "europol": 7531,
      "wake": 7532,
      "boxes": 7533,
      "inef": 7534,
      "tunnel": 7535,
      "applicant": 7536,
      "prestigious": 7537,
      "gut": 7538,
      "debated": 7539,
      "oning": 7540,
      "downtown": 7541,
      "signals": 7542,
      "defense": 7543,
      "seller": 7544,
      "ée": 7545,
      "undertake": 7546,
      "authorised": 7547,
      "churches": 7548,
      "olympic": 7549,
      "explicitly": 7550,
      "unknown": 7551,
      "photographs": 7552,
      "replacement": 7553,
      "raf": 7554,
      "seal": 7555,
      "signing": 7556,
      "finger": 7557,
      "wet": 7558,
      "suspended": 7559,
      "attain": 7560,
      "stops": 7561,
      "zurich": 7562,
      "congratulations": 7563,
      "iversity": 7564,
      "behavior": 7565,
      "alarm": 7566,
      "strange": 7567,
      "cart": 7568,
      "performing": 7569,
      "18th": 7570,
      "diam": 7571,
      "summary": 7572,
      "yellow": 7573,
      "67": 7574,
      "enchant": 7575,
      "cooking": 7576,
      "populations": 7577,
      "hostelsclub": 7578,
      "entail": 7579,
      "inclusive": 7580,
      "centrally": 7581,
      "neighbor": 7582,
      "chef": 7583,
      "unusual": 7584,
      "maast": 7585,
      "salt": 7586,
      "indicators": 7587,
      "deterior": 7588,
      "dating": 7589,
      "perce": 7590,
      "disc": 7591,
      "guards": 7592,
      "necessity": 7593,
      "missed": 7594,
      "qualifications": 7595,
      "taxpayers": 7596,
      "heated": 7597,
      "clothing": 7598,
      "quark": 7599,
      "adm": 7600,
      "displays": 7601,
      "nutr": 7602,
      "prevented": 7603,
      "copying": 7604,
      "alike": 7605,
      "maastricht": 7606,
      "iera": 7607,
      "stones": 7608,
      "adobe": 7609,
      "biodiversity": 7610,
      "kat": 7611,
      "foster": 7612,
      "stayed": 7613,
      "honor": 7614,
      "farms": 7615,
      "mandatory": 7616,
      "fitted": 7617,
      "uncertainty": 7618,
      "column": 7619,
      "enrich": 7620,
      "thanking": 7621,
      "insufficient": 7622,
      "specify": 7623,
      "chocol": 7624,
      "promising": 7625,
      "zones": 7626,
      "asp": 7627,
      "whel": 7628,
      "creativity": 7629,
      "liby": 7630,
      "thered": 7631,
      "schol": 7632,
      "secution": 7633,
      "cod": 7634,
      "imported": 7635,
      "controvers": 7636,
      "ruling": 7637,
      "thomas": 7638,
      "ilation": 7639,
      "setup": 7640,
      "murder": 7641,
      "geno": 7642,
      "favourite": 7643,
      "minimal": 7644,
      "proximity": 7645,
      "handed": 7646,
      "ratified": 7647,
      "thal": 7648,
      "ando": 7649,
      "transatlantic": 7650,
      "kn": 7651,
      "silence": 7652,
      "bare": 7653,
      "securities": 7654,
      "choo": 7655,
      "accum": 7656,
      "petr": 7657,
      "signature": 7658,
      "substit": 7659,
      "contractual": 7660,
      "grace": 7661,
      "timely": 7662,
      "angle": 7663,
      "threatened": 7664,
      "mistakes": 7665,
      "moves": 7666,
      "patterns": 7667,
      "generous": 7668,
      "defining": 7669,
      "drinking": 7670,
      "88": 7671,
      "pier": 7672,
      "hazard": 7673,
      "ille": 7674,
      "chose": 7675,
      "pays": 7676,
      "cath": 7677,
      "twel": 7678,
      "realize": 7679,
      "sta": 7680,
      "porter": 7681,
      "kov": 7682,
      "bureaucracy": 7683,
      "sé": 7684,
      "sweet": 7685,
      "afterwards": 7686,
      "nach": 7687,
      "inf": 7688,
      "mises": 7689,
      "behold": 7690,
      "socio": 7691,
      "racism": 7692,
      "notably": 7693,
      "workshops": 7694,
      "consistently": 7695,
      "deutsch": 7696,
      "a4": 7697,
      "ee": 7698,
      "jazz": 7699,
      "casa": 7700,
      "evaluate": 7701,
      "argue": 7702,
      "recession": 7703,
      "conveniently": 7704,
      "bse": 7705,
      "allocation": 7706,
      "bomb": 7707,
      "confront": 7708,
      "overwhel": 7709,
      "copies": 7710,
      "hesitate": 7711,
      "judgment": 7712,
      "systematic": 7713,
      "withdrawal": 7714,
      "statistical": 7715,
      "revealed": 7716,
      "agrees": 7717,
      "multimedia": 7718,
      "bb": 7719,
      "wire": 7720,
      "umes": 7721,
      "indicates": 7722,
      "robust": 7723,
      "comprises": 7724,
      "settled": 7725,
      "incur": 7726,
      "duplic": 7727,
      "structured": 7728,
      "electronics": 7729,
      "ounds": 7730,
      "earn": 7731,
      "proli": 7732,
      "favorite": 7733,
      "unions": 7734,
      "illness": 7735,
      "breaking": 7736,
      "dollars": 7737,
      "72": 7738,
      "ull": 7739,
      "rivers": 7740,
      "tone": 7741,
      "spots": 7742,
      "worrying": 7743,
      "willi": 7744,
      "gments": 7745,
      "sible": 7746,
      "locate": 7747,
      "justify": 7748,
      "demonstrates": 7749,
      "perspectives": 7750,
      "creature": 7751,
      "onic": 7752,
      "toilet": 7753,
      "kun": 7754,
      "receip": 7755,
      "hyper": 7756,
      "emerged": 7757,
      "birds": 7758,
      "exposure": 7759,
      "slowly": 7760,
      "imes": 7761,
      "downloaded": 7762,
      "contributing": 7763,
      "fails": 7764,
      "occurs": 7765,
      "battery": 7766,
      "mare": 7767,
      "thesis": 7768,
      "deaths": 7769,
      "imposing": 7770,
      "keen": 7771,
      "premises": 7772,
      "choosing": 7773,
      "shine": 7774,
      "maker": 7775,
      "weekly": 7776,
      "heavily": 7777,
      "neutral": 7778,
      "retr": 7779,
      "preferences": 7780,
      "bone": 7781,
      "hors": 7782,
      "notified": 7783,
      "torture": 7784,
      "tues": 7785,
      "francis": 7786,
      "anger": 7787,
      "gaming": 7788,
      "attract": 7789,
      "coordinate": 7790,
      "monast": 7791,
      "hire": 7792,
      "intermedi": 7793,
      "compare": 7794,
      "discovery": 7795,
      "nas": 7796,
      "adri": 7797,
      "horr": 7798,
      "unanimously": 7799,
      "asion": 7800,
      "elderly": 7801,
      "intervene": 7802,
      "ska": 7803,
      "initiated": 7804,
      "11.": 7805,
      "iler": 7806,
      "interim": 7807,
      "controlling": 7808,
      "harmony": 7809,
      "mble": 7810,
      "2nd": 7811,
      "otechno": 7812,
      "seld": 7813,
      "prelim": 7814,
      "tonnes": 7815,
      "furb": 7816,
      "caught": 7817,
      "sab": 7818,
      "converted": 7819,
      "constrain": 7820,
      "putin": 7821,
      "ratio": 7822,
      "kl": 7823,
      "ole": 7824,
      "react": 7825,
      "izer": 7826,
      "athy": 7827,
      "ès": 7828,
      "conform": 7829,
      "login": 7830,
      "competences": 7831,
      "integral": 7832,
      "borne": 7833,
      "ación": 7834,
      "experiencing": 7835,
      "cinema": 7836,
      "artificial": 7837,
      "86": 7838,
      "irs": 7839,
      "villas": 7840,
      "laboratory": 7841,
      "credible": 7842,
      "consistency": 7843,
      "burma": 7844,
      "terrorists": 7845,
      "entries": 7846,
      ".the": 7847,
      "teacher": 7848,
      "brut": 7849,
      "engineers": 7850,
      "babwe": 7851,
      "emission": 7852,
      "licence": 7853,
      "glac": 7854,
      "align": 7855,
      "temple": 7856,
      "essence": 7857,
      "shif": 7858,
      "alpha": 7859,
      "isch": 7860,
      "stays": 7861,
      "zimbabwe": 7862,
      "equity": 7863,
      "sensor": 7864,
      "arbitrary": 7865,
      "likewise": 7866,
      "stamp": 7867,
      "circuit": 7868,
      "slovenia": 7869,
      "dear": 7870,
      "crash": 7871,
      "audit": 7872,
      "theater": 7873,
      "77": 7874,
      "conservative": 7875,
      "mirror": 7876,
      "practically": 7877,
      "coverage": 7878,
      "sures": 7879,
      "logically": 7880,
      "lifest": 7881,
      "nordic": 7882,
      "cosmet": 7883,
      "cheese": 7884,
      "deficits": 7885,
      "peg": 7886,
      "sheets": 7887,
      "volun": 7888,
      "disputes": 7889,
      "cp": 7890,
      "isn": 7891,
      "directions": 7892,
      "2,": 7893,
      "aser": 7894,
      "acle": 7895,
      "controller": 7896,
      "aj": 7897,
      "degre": 7898,
      "appar": 7899,
      "ivals": 7900,
      "redund": 7901,
      "viewed": 7902,
      "ige": 7903,
      "temperatures": 7904,
      "convince": 7905,
      "dust": 7906,
      "kam": 7907,
      "chris": 7908,
      "expanding": 7909,
      "partnerships": 7910,
      "coup": 7911,
      "specifications": 7912,
      "garage": 7913,
      "eradic": 7914,
      "preliminary": 7915,
      "dive": 7916,
      "stance": 7917,
      "bean": 7918,
      "warmly": 7919,
      "ipher": 7920,
      "marquis": 7921,
      "lessly": 7922,
      "dent": 7923,
      "combining": 7924,
      "yugoslavia": 7925,
      "findings": 7926,
      "ungs": 7927,
      "lithuania": 7928,
      "refurb": 7929,
      "malta": 7930,
      "potentially": 7931,
      "fallen": 7932,
      "sentence": 7933,
      "decent": 7934,
      "chal": 7935,
      "plast": 7936,
      "specialities": 7937,
      "pum": 7938,
      "pow": 7939,
      "56": 7940,
      "pav": 7941,
      "optical": 7942,
      "distur": 7943,
      "regulate": 7944,
      "johann": 7945,
      "keeps": 7946,
      "balances": 7947,
      "sporting": 7948,
      "powered": 7949,
      "themes": 7950,
      "tat": 7951,
      "fitting": 7952,
      "resorts": 7953,
      "sey": 7954,
      "sume": 7955,
      "fulfilled": 7956,
      "scrut": 7957,
      "accommodate": 7958,
      "feas": 7959,
      "suggestion": 7960,
      "pursued": 7961,
      "degrees": 7962,
      "lowest": 7963,
      "pione": 7964,
      "packed": 7965,
      "pray": 7966,
      "automated": 7967,
      "hopefully": 7968,
      "platforms": 7969,
      "flowers": 7970,
      "ambition": 7971,
      "transformation": 7972,
      "2012": 7973,
      "threshold": 7974,
      "bever": 7975,
      "exchanges": 7976,
      "argentina": 7977,
      "hide": 7978,
      "ardo": 7979,
      "syria": 7980,
      "deck": 7981,
      "wels": 7982,
      "uzzi": 7983,
      "guides": 7984,
      "blame": 7985,
      "pedes": 7986,
      "crops": 7987,
      "handled": 7988,
      "wc": 7989,
      "fication": 7990,
      "anx": 7991,
      "shareholders": 7992,
      "entrepreneur": 7993,
      "valle": 7994,
      "kirk": 7995,
      "scotland": 7996,
      "writer": 7997,
      "controversial": 7998,
      "loud": 7999,
      "voters": 8000,
      "bonds": 8001,
      "stockholm": 8002,
      "ilingual": 8003,
      "nig": 8004,
      "unemployed": 8005,
      "celebrate": 8006,
      "tribute": 8007,
      "diver": 8008,
      "sla": 8009,
      "kid": 8010,
      "vista": 8011,
      "optional": 8012,
      "paintings": 8013,
      "guidance": 8014,
      "wy": 8015,
      "booth": 8016,
      "sharp": 8017,
      "bast": 8018,
      "alling": 8019,
      "sau": 8020,
      "holes": 8021,
      "detriment": 8022,
      "enlarged": 8023,
      "bish": 8024,
      "respectively": 8025,
      "iranian": 8026,
      "watching": 8027,
      "cig": 8028,
      "grants": 8029,
      "pron": 8030,
      "emphasised": 8031,
      "genetic": 8032,
      "weigh": 8033,
      "dominant": 8034,
      "califor": 8035,
      "beside": 8036,
      "bicycle": 8037,
      "utt": 8038,
      "apt": 8039,
      "loyal": 8040,
      "performances": 8041,
      "describes": 8042,
      "ape": 8043,
      "bund": 8044,
      "downloading": 8045,
      "woods": 8046,
      "convey": 8047,
      "twelve": 8048,
      "fate": 8049,
      "nover": 8050,
      "receives": 8051,
      "sciences": 8052,
      "irregular": 8053,
      "bureaucratic": 8054,
      "breathtaking": 8055,
      "parameter": 8056,
      "hem": 8057,
      "meantime": 8058,
      "incentive": 8059,
      "ube": 8060,
      "uel": 8061,
      "bib": 8062,
      "är": 8063,
      "excellence": 8064,
      "returning": 8065,
      "stag": 8066,
      "declarations": 8067,
      "warranty": 8068,
      "o.": 8069,
      "thread": 8070,
      "searching": 8071,
      "puerto": 8072,
      "iat": 8073,
      "alger": 8074,
      "astro": 8075,
      "hamas": 8076,
      "21st": 8077,
      "passes": 8078,
      "hosts": 8079,
      "incredible": 8080,
      "tuesday": 8081,
      "connecting": 8082,
      "tact": 8083,
      "evil": 8084,
      "talked": 8085,
      "appreciated": 8086,
      "retire": 8087,
      "3rd": 8088,
      "unlimited": 8089,
      "broch": 8090,
      "opho": 8091,
      "gif": 8092,
      "encounter": 8093,
      "encia": 8094,
      "cease": 8095,
      "styles": 8096,
      "explains": 8097,
      "founding": 8098,
      "shaped": 8099,
      "poet": 8100,
      "thoroughly": 8101,
      "auch": 8102,
      "highway": 8103,
      "translations": 8104,
      "acquire": 8105,
      "chocolate": 8106,
      "peripher": 8107,
      "homepage": 8108,
      "má": 8109,
      "zed": 8110,
      "convers": 8111,
      "2.5": 8112,
      "paint": 8113,
      "asis": 8114,
      "ati": 8115,
      "shame": 8116,
      "activated": 8117,
      "tape": 8118,
      "simpl": 8119,
      "autonomy": 8120,
      "nutrition": 8121,
      "zig": 8122,
      "develops": 8123,
      "prolifer": 8124,
      "aspir": 8125,
      "volunte": 8126,
      "reich": 8127,
      "undermine": 8128,
      "knowing": 8129,
      "demographic": 8130,
      "kin": 8131,
      "editing": 8132,
      "netic": 8133,
      "drafting": 8134,
      "52": 8135,
      "dun": 8136,
      "warming": 8137,
      "camps": 8138,
      "dolom": 8139,
      "doctors": 8140,
      "idy": 8141,
      "noticed": 8142,
      "adriatic": 8143,
      "measured": 8144,
      "avoided": 8145,
      "gon": 8146,
      "devast": 8147,
      "prince": 8148,
      "xp": 8149,
      "scenery": 8150,
      "embedded": 8151,
      "een": 8152,
      "wast": 8153,
      "della": 8154,
      "78": 8155,
      "haven": 8156,
      "checking": 8157,
      "foods": 8158,
      "damaged": 8159,
      "isolated": 8160,
      "hut": 8161,
      "crossing": 8162,
      "ltd": 8163,
      "undertakings": 8164,
      "beij": 8165,
      "confusion": 8166,
      "expressing": 8167,
      "loop": 8168,
      "tailored": 8169,
      "sixth": 8170,
      "scott": 8171,
      "finances": 8172,
      "divis": 8173,
      "neglect": 8174,
      "suddenly": 8175,
      "junior": 8176,
      "dil": 8177,
      "finest": 8178,
      "substantially": 8179,
      "ala": 8180,
      "disappointed": 8181,
      "myster": 8182,
      "humans": 8183,
      "tolerance": 8184,
      "alexander": 8185,
      "sail": 8186,
      "1960": 8187,
      "desert": 8188,
      "acknowledged": 8189,
      "bmw": 8190,
      "iphone": 8191,
      "deemed": 8192,
      "prohibited": 8193,
      "gres": 8194,
      "xen": 8195,
      "shell": 8196,
      "preg": 8197,
      "sich": 8198,
      "insight": 8199,
      "discipline": 8200,
      "infringement": 8201,
      "transmit": 8202,
      "borrow": 8203,
      "sensit": 8204,
      "configure": 8205,
      "oder": 8206,
      "brown": 8207,
      "eless": 8208,
      "lesson": 8209,
      "executed": 8210,
      "slip": 8211,
      "ère": 8212,
      "myth": 8213,
      "anna": 8214,
      "dumping": 8215,
      "prominent": 8216,
      "beijing": 8217,
      "abund": 8218,
      "liness": 8219,
      "bott": 8220,
      "gaining": 8221,
      "manifest": 8222,
      "dans": 8223,
      "sein": 8224,
      "ensible": 8225,
      "railways": 8226,
      "coating": 8227,
      "raises": 8228,
      "telling": 8229,
      "iraqi": 8230,
      "kan": 8231,
      "championship": 8232,
      "belonging": 8233,
      "lebanon": 8234,
      "environments": 8235,
      "reverse": 8236,
      "survival": 8237,
      "nord": 8238,
      "12.": 8239,
      "fen": 8240,
      "comings": 8241,
      "monito": 8242,
      "exceptions": 8243,
      "designated": 8244,
      "horizontal": 8245,
      "departments": 8246,
      "sung": 8247,
      "prerequis": 8248,
      "58": 8249,
      "leges": 8250,
      "giant": 8251,
      "carrier": 8252,
      "rescue": 8253,
      "54": 8254,
      "scrip": 8255,
      "über": 8256,
      "canal": 8257,
      "emu": 8258,
      "nero": 8259,
      "mile": 8260,
      "toxic": 8261,
      "tens": 8262,
      "ulates": 8263,
      "walks": 8264,
      "seminars": 8265,
      "rolling": 8266,
      "wifi": 8267,
      "derived": 8268,
      "weapon": 8269,
      "compatibility": 8270,
      "wages": 8271,
      "regrettable": 8272,
      "jeopar": 8273,
      "gang": 8274,
      "challenging": 8275,
      "hoped": 8276,
      "trails": 8277,
      "fragment": 8278,
      "monitored": 8279,
      "modest": 8280,
      "orf": 8281,
      "budd": 8282,
      "fought": 8283,
      "wording": 8284,
      "scandal": 8285,
      "recycling": 8286,
      "pling": 8287,
      "simplification": 8288,
      "restoration": 8289,
      "petition": 8290,
      "tooth": 8291,
      "thoughts": 8292,
      "tells": 8293,
      "grip": 8294,
      "venture": 8295,
      "lady": 8296,
      "complexity": 8297,
      "subsidiary": 8298,
      "pere": 8299,
      "officers": 8300,
      "pets": 8301,
      "defects": 8302,
      "shortcomings": 8303,
      "mixt": 8304,
      "dated": 8305,
      "jor": 8306,
      "bered": 8307,
      "prosecut": 8308,
      "iana": 8309,
      "failing": 8310,
      "instant": 8311,
      "surfing": 8312,
      "jacuzzi": 8313,
      "ignored": 8314,
      "monthly": 8315,
      "macedonia": 8316,
      "57": 8317,
      "cathol": 8318,
      "minib": 8319,
      "burning": 8320,
      "branches": 8321,
      "propag": 8322,
      "eing": 8323,
      "advisory": 8324,
      "l.": 8325,
      "rear": 8326,
      "chile": 8327,
      "playa": 8328,
      "burgh": 8329,
      "bags": 8330,
      "explanations": 8331,
      "skilled": 8332,
      "aggress": 8333,
      "fortunately": 8334,
      "plugin": 8335,
      "cargo": 8336,
      "gastronom": 8337,
      "condemned": 8338,
      "orchestra": 8339,
      "characterized": 8340,
      "radiation": 8341,
      "indication": 8342,
      "rejection": 8343,
      "lian": 8344,
      "fuels": 8345,
      "stroll": 8346,
      "develo": 8347,
      "boarding": 8348,
      "160": 8349,
      "theoret": 8350,
      "outset": 8351,
      "publicly": 8352,
      "adjusted": 8353,
      "enemy": 8354,
      "fusion": 8355,
      "alleged": 8356,
      "distinguish": 8357,
      "hp": 8358,
      "vre": 8359,
      "responds": 8360,
      "palestine": 8361,
      "circulation": 8362,
      "accepting": 8363,
      "simplify": 8364,
      "invitation": 8365,
      "governed": 8366,
      "veter": 8367,
      "california": 8368,
      "notion": 8369,
      "reper": 8370,
      "andal": 8371,
      "unfortunate": 8372,
      "modes": 8373,
      "realized": 8374,
      "incorporate": 8375,
      "reduces": 8376,
      "delicate": 8377,
      "peninsu": 8378,
      "calculated": 8379,
      "queen": 8380,
      "penalties": 8381,
      "striking": 8382,
      "café": 8383,
      "xy": 8384,
      "dogs": 8385,
      "winners": 8386,
      "vegetables": 8387,
      "culinary": 8388,
      "abandoned": 8389,
      "fires": 8390,
      "activate": 8391,
      "accepts": 8392,
      "dj": 8393,
      "oma": 8394,
      "immen": 8395,
      "fears": 8396,
      "interaction": 8397,
      "characterised": 8398,
      "thirty": 8399,
      "59": 8400,
      "eine": 8401,
      "unification": 8402,
      "helic": 8403,
      "endeavour": 8404,
      "separately": 8405,
      "rend": 8406,
      "dependence": 8407,
      "bally": 8408,
      "lacking": 8409,
      "adverse": 8410,
      "bold": 8411,
      "emerge": 8412,
      "albania": 8413,
      "dres": 8414,
      "conjunction": 8415,
      "quota": 8416,
      "dreams": 8417,
      "married": 8418,
      "iously": 8419,
      "bathing": 8420,
      "forums": 8421,
      "acer": 8422,
      "matt": 8423,
      "ih": 8424,
      "commend": 8425,
      "michel": 8426,
      "optimum": 8427,
      "ambass": 8428,
      "dü": 8429,
      "respecting": 8430,
      "sustained": 8431,
      "random": 8432,
      "landscapes": 8433,
      "indigen": 8434,
      "lun": 8435,
      "unter": 8436,
      "handic": 8437,
      "template": 8438,
      "diox": 8439,
      "cz": 8440,
      "oul": 8441,
      "nets": 8442,
      "responses": 8443,
      "reductions": 8444,
      "defending": 8445,
      "ensured": 8446,
      "installing": 8447,
      "gains": 8448,
      "receipt": 8449,
      "cav": 8450,
      "endo": 8451,
      "grey": 8452,
      "drafted": 8453,
      "unesco": 8454,
      "lens": 8455,
      "theast": 8456,
      "studios": 8457,
      "survive": 8458,
      "aya": 8459,
      "linguistic": 8460,
      "aded": 8461,
      "ido": 8462,
      "earning": 8463,
      "b5": 8464,
      "nen": 8465,
      "hang": 8466,
      "taught": 8467,
      "orca": 8468,
      "liberties": 8469,
      "dominated": 8470,
      "ilo": 8471,
      "labels": 8472,
      "exploring": 8473,
      "bless": 8474,
      "norway": 8475,
      "utility": 8476,
      "county": 8477,
      "clothes": 8478,
      "continually": 8479,
      "tremend": 8480,
      "piazza": 8481,
      "derog": 8482,
      "orange": 8483,
      "exploit": 8484,
      "celebrated": 8485,
      "aero": 8486,
      "boom": 8487,
      "bases": 8488,
      "lac": 8489,
      "lex": 8490,
      "upcoming": 8491,
      "pull": 8492,
      "tin": 8493,
      "porto": 8494,
      "goth": 8495,
      "anyway": 8496,
      "finite": 8497,
      "airy": 8498,
      "stood": 8499,
      "mailing": 8500,
      "motions": 8501,
      "adaptation": 8502,
      "louis": 8503,
      "imprison": 8504,
      "breaks": 8505,
      "seminar": 8506,
      "encoun": 8507,
      "interrup": 8508,
      "archae": 8509,
      "secured": 8510,
      "announcement": 8511,
      "oni": 8512,
      "universe": 8513,
      "silent": 8514,
      "51": 8515,
      "dc": 8516,
      "refined": 8517,
      "panorama": 8518,
      "trademarks": 8519,
      "owing": 8520,
      "globalization": 8521,
      "tyrol": 8522,
      "reiterate": 8523,
      "prag": 8524,
      "cla": 8525,
      "regimes": 8526,
      "separated": 8527,
      "indonesia": 8528,
      "indigenous": 8529,
      "rium": 8530,
      "daughter": 8531,
      "alive": 8532,
      "mathem": 8533,
      "feels": 8534,
      "vy": 8535,
      "identical": 8536,
      "synchron": 8537,
      "tackling": 8538,
      "92": 8539,
      "agon": 8540,
      "drum": 8541,
      "iction": 8542,
      "baro": 8543,
      "trademark": 8544,
      "cau": 8545,
      "atile": 8546,
      "continuation": 8547,
      "consisting": 8548,
      "thouse": 8549,
      "shoes": 8550,
      "t.": 8551,
      "weld": 8552,
      "compass": 8553,
      "solving": 8554,
      "profiles": 8555,
      "authorisation": 8556,
      "founder": 8557,
      "sir": 8558,
      "proliferation": 8559,
      "translate": 8560,
      "immense": 8561,
      "lever": 8562,
      "cker": 8563,
      "specialised": 8564,
      "underline": 8565,
      "denied": 8566,
      "crafts": 8567,
      "analyses": 8568,
      "confron": 8569,
      "gery": 8570,
      "quantities": 8571,
      "aming": 8572,
      "minds": 8573,
      "tene": 8574,
      "preventive": 8575,
      "deleted": 8576,
      "otto": 8577,
      "mood": 8578,
      "outlook": 8579,
      "demonstration": 8580,
      "infrastruct": 8581,
      "ctic": 8582,
      "basel": 8583,
      "designers": 8584,
      "districts": 8585,
      "badly": 8586,
      "influenced": 8587,
      "earthqu": 8588,
      "wie": 8589,
      "ailand": 8590,
      "smith": 8591,
      "mineral": 8592,
      "jord": 8593,
      "adequ": 8594,
      "stutt": 8595,
      "plot": 8596,
      "upload": 8597,
      "53": 8598,
      "pam": 8599,
      "notification": 8600,
      "elite": 8601,
      "listened": 8602,
      "assumed": 8603,
      "iasm": 8604,
      "rab": 8605,
      "isolation": 8606,
      "requiring": 8607,
      "concentrated": 8608,
      "lifestyle": 8609,
      "ooms": 8610,
      "thailand": 8611,
      "autonomous": 8612,
      "unstable": 8613,
      "pride": 8614,
      "employee": 8615,
      "boutique": 8616,
      "palm": 8617,
      "acid": 8618,
      "propr": 8619,
      "climbing": 8620,
      "distinguished": 8621,
      "71": 8622,
      "vip": 8623,
      "cheaper": 8624,
      "investigate": 8625,
      "teries": 8626,
      "sic": 8627,
      "chf": 8628,
      "wedding": 8629,
      "coalition": 8630,
      "sick": 8631,
      "observers": 8632,
      "sightseeing": 8633,
      "piz": 8634,
      "sofa": 8635,
      "wald": 8636,
      "obtaining": 8637,
      "tiny": 8638,
      "politan": 8639,
      "pursuing": 8640,
      "participated": 8641,
      "bai": 8642,
      "teenth": 8643,
      "enthusiasm": 8644,
      "presentations": 8645,
      "horses": 8646,
      "orth": 8647,
      "commonly": 8648,
      "estimates": 8649,
      "overwhelming": 8650,
      "resign": 8651,
      "&apos;d": 8652,
      "carib": 8653,
      "banned": 8654,
      "removing": 8655,
      "nicht": 8656,
      "yers": 8657,
      "spy": 8658,
      "migrants": 8659,
      "abolition": 8660,
      "pv": 8661,
      "tracking": 8662,
      "permanently": 8663,
      "discretion": 8664,
      "idad": 8665,
      "16th": 8666,
      "furnish": 8667,
      "eating": 8668,
      "promen": 8669,
      "stuffs": 8670,
      "ifiable": 8671,
      "mé": 8672,
      "reconciliation": 8673,
      "partially": 8674,
      "insert": 8675,
      "transformed": 8676,
      "suspic": 8677,
      "desper": 8678,
      "carte": 8679,
      "explorer": 8680,
      "intr": 8681,
      "roles": 8682,
      "ached": 8683,
      "luxe": 8684,
      "issance": 8685,
      "rust": 8686,
      "tac": 8687,
      "helicop": 8688,
      "rhy": 8689,
      "reproduction": 8690,
      "assa": 8691,
      "fortress": 8692,
      "investing": 8693,
      "investigations": 8694,
      "lah": 8695,
      "vacu": 8696,
      "consolidation": 8697,
      "danube": 8698,
      "developer": 8699,
      "bust": 8700,
      "countless": 8701,
      "bears": 8702,
      "dell": 8703,
      "arriving": 8704,
      "gli": 8705,
      "mould": 8706,
      "basket": 8707,
      "venue": 8708,
      "hosting": 8709,
      "detection": 8710,
      "revolutionary": 8711,
      "peninsula": 8712,
      "tempt": 8713,
      "grew": 8714,
      "viv": 8715,
      "laterooms": 8716,
      "accused": 8717,
      "clearer": 8718,
      "apped": 8719,
      "vicinity": 8720,
      "shoe": 8721,
      "refund": 8722,
      "collections": 8723,
      "premier": 8724,
      "cafe": 8725,
      "c5": 8726,
      "globe": 8727,
      "independently": 8728,
      "backing": 8729,
      "arrested": 8730,
      "itable": 8731,
      "seed": 8732,
      "hell": 8733,
      "iza": 8734,
      "backed": 8735,
      "stuttgart": 8736,
      "defeat": 8737,
      "strive": 8738,
      "ferry": 8739,
      "capability": 8740,
      "mü": 8741,
      "cream": 8742,
      "extrem": 8743,
      "tangible": 8744,
      "beta": 8745,
      "bella": 8746,
      "spin": 8747,
      "processor": 8748,
      "grain": 8749,
      "auction": 8750,
      "libya": 8751,
      "joseph": 8752,
      "waves": 8753,
      "alo": 8754,
      "frustr": 8755,
      "competitors": 8756,
      "forming": 8757,
      "disappear": 8758,
      "coherence": 8759,
      "ente": 8760,
      "absur": 8761,
      "bond": 8762,
      "admir": 8763,
      "query": 8764,
      "galile": 8765,
      "virgin": 8766,
      "cave": 8767,
      "deny": 8768,
      "batt": 8769,
      "lore": 8770,
      "invested": 8771,
      "libraries": 8772,
      "marginal": 8773,
      "lodge": 8774,
      "backs": 8775,
      "moderate": 8776,
      "patri": 8777,
      "kde": 8778,
      "rice": 8779,
      "wick": 8780,
      "unpreced": 8781,
      "fits": 8782,
      "contributes": 8783,
      "complimentary": 8784,
      "ranking": 8785,
      "aluminium": 8786,
      "admission": 8787,
      "capacities": 8788,
      "clinical": 8789,
      "unprecedented": 8790,
      "masters": 8791,
      "url": 8792,
      "filters": 8793,
      "talent": 8794,
      "titude": 8795,
      "scenes": 8796,
      "cooling": 8797,
      "assessments": 8798,
      "younger": 8799,
      "hne": 8800,
      "soli": 8801,
      "databases": 8802,
      "motivated": 8803,
      "permits": 8804,
      "inet": 8805,
      "17th": 8806,
      "rav": 8807,
      "demanded": 8808,
      "zeal": 8809,
      "zoom": 8810,
      "69": 8811,
      "earned": 8812,
      "counterfe": 8813,
      "inspiration": 8814,
      "eligible": 8815,
      "serial": 8816,
      "ceo": 8817,
      "gaz": 8818,
      "supre": 8819,
      "musicians": 8820,
      "observations": 8821,
      "revenues": 8822,
      "aco": 8823,
      "ifa": 8824,
      "passport": 8825,
      "featured": 8826,
      "gps": 8827,
      "lawyers": 8828,
      "ambience": 8829,
      "vacuum": 8830,
      "subscription": 8831,
      "absurd": 8832,
      "kno": 8833,
      "energies": 8834,
      "brun": 8835,
      "chech": 8836,
      "xi": 8837,
      "ín": 8838,
      "exclud": 8839,
      "transmitted": 8840,
      "admire": 8841,
      "ße": 8842,
      "lus": 8843,
      "oasis": 8844,
      "gathered": 8845,
      "gig": 8846,
      "allies": 8847,
      "doss": 8848,
      "belt": 8849,
      "quad": 8850,
      "differently": 8851,
      "distribute": 8852,
      "ambitions": 8853,
      "gour": 8854,
      "mounted": 8855,
      "hyg": 8856,
      "dia": 8857,
      "decentral": 8858,
      "nya": 8859,
      "secretar": 8860,
      "ched": 8861,
      "accountability": 8862,
      "stakeholders": 8863,
      "tunisia": 8864,
      "pom": 8865,
      "intu": 8866,
      "siem": 8867,
      "sz": 8868,
      "uv": 8869,
      "coin": 8870,
      "vessel": 8871,
      "nois": 8872,
      "implies": 8873,
      "mild": 8874,
      "dangers": 8875,
      "apar": 8876,
      "finishing": 8877,
      "indispens": 8878,
      "cribed": 8879,
      "advocate": 8880,
      "caribbean": 8881,
      "elabor": 8882,
      "benefici": 8883,
      "suspension": 8884,
      "roughly": 8885,
      "grid": 8886,
      "borg": 8887,
      "unanimous": 8888,
      "db": 8889,
      "anth": 8890,
      "hunting": 8891,
      "genetically": 8892,
      "allah": 8893,
      "schul": 8894,
      "safely": 8895,
      "consulted": 8896,
      "descript": 8897,
      "struck": 8898,
      "flor": 8899,
      "refugee": 8900,
      "xml": 8901,
      "simplified": 8902,
      "pp": 8903,
      "household": 8904,
      "laying": 8905,
      "separation": 8906,
      "seventh": 8907,
      "boundaries": 8908,
      "isode": 8909,
      "supreme": 8910,
      "reim": 8911,
      "eness": 8912,
      "prints": 8913,
      "moldova": 8914,
      "terrain": 8915,
      "zeit": 8916,
      "quer": 8917,
      "ravel": 8918,
      "conditional": 8919,
      "dismant": 8920,
      "yo": 8921,
      "prud": 8922,
      "math": 8923,
      "elegance": 8924,
      "font": 8925,
      "ston": 8926,
      "uncertain": 8927,
      "syner": 8928,
      "unilateral": 8929,
      "linking": 8930,
      "drafts": 8931,
      "appreciation": 8932,
      "bub": 8933,
      "rank": 8934,
      "promotes": 8935,
      "dorf": 8936,
      "350": 8937,
      "crop": 8938,
      "cotton": 8939,
      "dissemin": 8940,
      "bron": 8941,
      "episode": 8942,
      "clarification": 8943,
      "vineyards": 8944,
      "unlikely": 8945,
      "placement": 8946,
      "calculation": 8947,
      "mud": 8948,
      "ande": 8949,
      "dei": 8950,
      "comforts": 8951,
      "emper": 8952,
      "15th": 8953,
      "credited": 8954,
      "limitations": 8955,
      "gol": 8956,
      "panels": 8957,
      "cliff": 8958,
      "feelings": 8959,
      "dispar": 8960,
      "biotechno": 8961,
      "interpreted": 8962,
      "vas": 8963,
      "electro": 8964,
      "kilometers": 8965,
      "pone": 8966,
      "reck": 8967,
      "extends": 8968,
      "integrating": 8969,
      "fruits": 8970,
      "stringent": 8971,
      "killing": 8972,
      "conviction": 8973,
      "endless": 8974,
      "jesus": 8975,
      "seekers": 8976,
      "avoiding": 8977,
      "hazardous": 8978,
      "seaside": 8979,
      "steep": 8980,
      "divide": 8981,
      "races": 8982,
      "hunger": 8983,
      "110": 8984,
      "meter": 8985,
      "sincerely": 8986,
      "boast": 8987,
      "praise": 8988,
      "hiv": 8989,
      "hygien": 8990,
      "albeit": 8991,
      "bei": 8992,
      "heu": 8993,
      "speaks": 8994,
      "chancell": 8995,
      "inevitably": 8996,
      "delayed": 8997,
      "engagement": 8998,
      "riviera": 8999,
      "interfaces": 9000,
      "scenario": 9001,
      "healing": 9002,
      "viewing": 9003,
      "productions": 9004,
      "entity": 9005,
      "disagree": 9006,
      "intoler": 9007,
      "atories": 9008,
      "ounce": 9009,
      "summar": 9010,
      "selecting": 9011,
      "delivering": 9012,
      "mn": 9013,
      "judges": 9014,
      "dictatorship": 9015,
      "marriage": 9016,
      "catholic": 9017,
      "courty": 9018,
      "damaging": 9019,
      "titles": 9020,
      "honey": 9021,
      "130": 9022,
      "sier": 9023,
      "ät": 9024,
      "menus": 9025,
      "inos": 9026,
      "exempt": 9027,
      "infrastructures": 9028,
      "rene": 9029,
      "irrespective": 9030,
      "fulfill": 9031,
      "justification": 9032,
      "flour": 9033,
      "stadium": 9034,
      "usalem": 9035,
      "hectares": 9036,
      "luc": 9037,
      "pocket": 9038,
      "nok": 9039,
      "bands": 9040,
      "rian": 9041,
      "attent": 9042,
      "liberals": 9043,
      "shooting": 9044,
      "edin": 9045,
      "stall": 9046,
      "impet": 9047,
      "globally": 9048,
      "symbolic": 9049,
      "realised": 9050,
      "consolidated": 9051,
      "sax": 9052,
      "blocked": 9053,
      "ckets": 9054,
      "gis": 9055,
      "liberty": 9056,
      "capitalism": 9057,
      "monastery": 9058,
      "baroque": 9059,
      "arc": 9060,
      "topical": 9061,
      "ao": 9062,
      "itudes": 9063,
      "technically": 9064,
      "hybrid": 9065,
      "plural": 9066,
      "readers": 9067,
      "somewhere": 9068,
      "exquis": 9069,
      "mainstream": 9070,
      "donors": 9071,
      "fundamentally": 9072,
      "gothic": 9073,
      "polar": 9074,
      "estonia": 9075,
      "reaches": 9076,
      "voices": 9077,
      "jerusalem": 9078,
      "seldorf": 9079,
      "mul": 9080,
      "stit": 9081,
      "multilingual": 9082,
      "tras": 9083,
      ".com.": 9084,
      "refurbished": 9085,
      "mayor": 9086,
      "opponents": 9087,
      "tonight": 9088,
      "inland": 9089,
      "socially": 9090,
      "halt": 9091,
      "jon": 9092,
      "phy": 9093,
      "beautifully": 9094,
      "promenade": 9095,
      "arl": 9096,
      "constraints": 9097,
      "entities": 9098,
      "converter": 9099,
      "avenue": 9100,
      "mano": 9101,
      "warcraft": 9102,
      "convincing": 9103,
      "sadly": 9104,
      "brilli": 9105,
      "worlds": 9106,
      "classification": 9107,
      "horn": 9108,
      "reinforced": 9109,
      "unde": 9110,
      "stimulate": 9111,
      "toll": 9112,
      "surgery": 9113,
      "lom": 9114,
      "conci": 9115,
      "estone": 9116,
      "jews": 9117,
      "await": 9118,
      "spark": 9119,
      "criter": 9120,
      "chart": 9121,
      "shield": 9122,
      "stere": 9123,
      "layers": 9124,
      "legendary": 9125,
      "polis": 9126,
      "resistant": 9127,
      "routine": 9128,
      "refriger": 9129,
      "indispensable": 9130,
      "desc": 9131,
      "divisions": 9132,
      "definitive": 9133,
      "pregn": 9134,
      "foss": 9135,
      "currencies": 9136,
      "rush": 9137,
      "amid": 9138,
      "overnight": 9139,
      "keyboard": 9140,
      "existed": 9141,
      "methodo": 9142,
      "pedestrian": 9143,
      "impetus": 9144,
      "cds": 9145,
      "armen": 9146,
      "noble": 9147,
      "christians": 9148,
      "outlined": 9149,
      "worker": 9150,
      "ulus": 9151,
      "ighter": 9152,
      "hearts": 9153,
      "catalog": 9154,
      "breeding": 9155,
      "bung": 9156,
      "incorrect": 9157,
      "diame": 9158,
      "diet": 9159,
      "athen": 9160,
      "tutor": 9161,
      "evo": 9162,
      "laus": 9163,
      "93": 9164,
      "pis": 9165,
      "attempted": 9166,
      "recruit": 9167,
      "richard": 9168,
      "baths": 9169,
      "gases": 9170,
      "reviewed": 9171,
      "excel": 9172,
      "barbar": 9173,
      "harvest": 9174,
      "symbols": 9175,
      "retirement": 9176,
      "63": 9177,
      "1950": 9178,
      "advised": 9179,
      "municipality": 9180,
      "inevitable": 9181,
      "systematically": 9182,
      "container": 9183,
      "traditionally": 9184,
      "distributors": 9185,
      "formerly": 9186,
      "galileo": 9187,
      "festivals": 9188,
      "sympto": 9189,
      "invites": 9190,
      "sahar": 9191,
      "customized": 9192,
      "entrepreneurs": 9193,
      "neck": 9194,
      "locally": 9195,
      "unified": 9196,
      "zi": 9197,
      "burn": 9198,
      "critique": 9199,
      "embry": 9200,
      "tall": 9201,
      "accomod": 9202,
      "rhyth": 9203,
      "ferent": 9204,
[...]
